<unk>	0
<s>	0
</s>	0
▁t	-0
on	-1
he	-2
ti	-3
▁a	-4
re	-5
in	-6
▁the	-7
en	-8
▁o	-9
er	-10
tion	-11
▁of	-12
or	-13
es	-14
ed	-15
al	-16
▁s	-17
is	-18
an	-19
it	-20
▁c	-21
▁p	-22
▁T	-23
ation	-24
ar	-25
▁f	-26
nd	-27
▁in	-28
ent	-29
at	-30
▁w	-31
▁C	-32
▁re	-33
▁b	-34
▁A	-35
ro	-36
▁to	-37
▁and	-38
ec	-39
▁d	-40
▁S	-41
▁m	-42
ou	-43
▁(	-44
ic	-45
om	-46
▁The	-47
ing	-48
em	-49
as	-50
▁I	-51
ol	-52
▁2	-53
ra	-54
il	-55
si	-56
le	-57
▁P	-58
ve	-59
ce	-60
▁1	-61
▁be	-62
00	-63
▁M	-64
▁R	-65
▁n	-66
▁h	-67
▁th	-68
▁for	-69
▁on	-70
ment	-71
st	-72
lo	-73
ri	-74
▁N	-75
ly	-76
▁is	-77
te	-78
▁con	-79
ur	-80
▁200	-81
▁e	-82
▁D	-83
▁E	-84
ter	-85
tin	-86
ts	-87
▁pro	-88
▁F	-89
▁G	-90
omm	-91
por	-92
sion	-93
ad	-94
um	-95
▁U	-96
end	-97
im	-98
ss	-99
ted	-100
ig	-101
ir	-102
▁In	-103
▁O	-104
ations	-105
ul	-106
th	-107
ver	-108
▁it	-109
▁W	-110
op	-111
ting	-112
se	-113
▁de	-114
emb	-115
ld	-116
▁H	-117
▁l	-118
id	-119
▁res	-120
oun	-121
▁Comm	-122
ag	-123
▁by	-124
▁g	-125
ution	-126
▁no	-127
port	-128
▁su	-129
ac	-130
ement	-131
ity	-132
tic	-133
▁are	-134
ee	-135
▁B	-136
ate	-137
▁al	-138
un	-139
qu	-140
ab	-141
▁that	-142
▁was	-143
res	-144
ff	-145
ay	-146
ial	-147
ers	-148
us	-149
▁st	-150
ere	-151
▁Re	-152
ain	-153
oc	-154
ion	-155
am	-156
pl	-157
ork	-158
ational	-159
ith	-160
▁v	-161
▁ac	-162
▁at	-163
olution	-164
our	-165
et	-166
▁an	-167
▁Un	-168
▁ex	-169
her	-170
ud	-171
▁par	-172
▁with	-173
▁sh	-174
low	-175
ited	-176
▁L	-177
up	-178
▁ad	-179
ew	-180
▁Con	-181
tern	-182
uc	-183
ill	-184
▁as	-185
▁J	-186
and	-187
ould	-188
itte	-189
el	-190
ary	-191
ft	-192
ittee	-193
ut	-194
tive	-195
▁St	-196
ess	-197
ak	-198
▁Committee	-199
▁ag	-200
od	-201
ist	-202
▁Th	-203
▁3	-204
ure	-205
eral	-206
▁or	-207
ession	-208
all	-209
os	-210
▁Pro	-211
▁this	-212
▁resolution	-213
ties	-214
▁United	-215
▁Gen	-216
ore	-217
ther	-218
orm	-219
iz	-220
ch	-221
gh	-222
▁No	-223
sid	-224
ap	-225
ollow	-226
pec	-227
eeting	-228
igh	-229
▁19	-230
▁Coun	-231
lop	-232
velop	-233
ternational	-234
▁not	-235
und	-236
ance	-237
ex	-238
ission	-239
ust	-240
raft	-241
ven	-242
▁Ass	-243
▁follow	-244
▁its	-245
.1	-246
▁session	-247
▁im	-248
cil	-249
form	-250
▁Nations	-251
ection	-252
ember	-253
vi	-254
rom	-255
▁has	-256
▁ch	-257
▁Council	-258
ave	-259
ard	-260
ram	-261
▁will	-262
ments	-263
▁meeting	-264
▁Ch	-265
ord	-266
ph	-267
ision	-268
fic	-269
▁com	-270
▁5	-271
▁from	-272
uman	-273
ated	-274
able	-275
so	-276
ub	-277
me	-278
ia	-279
▁have	-280
▁General	-281
pp	-282
ran	-283
tions	-284
ow	-285
enda	-286
▁also	-287
eration	-288
ren	-289
embly	-290
▁It	-291
▁been	-292
raph	-293
▁sub	-294
▁Assembly	-295
ates	-296
cl	-297
▁work	-298
ies	-299
gram	-300
▁Ad	-301
▁-	-302
ber	-303
▁4	-304
resent	-305
ty	-306
.2	-307
▁Par	-308
▁per	-309
iv	-310
velopment	-311
▁he	-312
agraph	-313
▁dec	-314
).	-315
ip	-316
ari	-317
▁Sec	-318
ace	-319
ount	-320
▁ri	-321
▁dis	-322
▁reg	-323
▁rec	-324
▁en	-325
▁should	-326
▁y	-327
est	-328
▁le	-329
anc	-330
ign	-331
▁adop	-332
▁UN	-333
▁De	-334
ect	-335
▁righ	-336
per	-337
ant	-338
▁report	-339
ire	-340
▁were	-341
▁6	-342
▁draft	-343
ge	-344
▁pl	-345
over	-346
▁Mr	-347
ear	-348
▁“	-349
eren	-350
▁K	-351
roup	-352
ous	-353
▁This	-354
▁ar	-355
200	-356
ffic	-357
ue	-358
to	-359
gramme	-360
▁following	-361
▁V	-362
▁cont	-363
▁We	-364
▁International	-365
ative	-366
▁Ac	-367
ence	-368
▁Dec	-369
▁app	-370
ress	-371
▁item	-372
pos	-373
ry	-374
clud	-375
erv	-376
urity	-377
ome	-378
▁adopted	-379
omen	-380
lic	-381
▁Commission	-382
gan	-383
duc	-384
▁wh	-385
▁199	-386
plement	-387
▁tak	-388
▁am	-389
pe	-390
ces	-391
air	-392
▁count	-393
vention	-394
ase	-395
▁requ	-396
▁comm	-397
ond	-398
man	-399
▁me	-400
ric	-401
/5	-402
ev	-403
▁we	-404
ild	-405
▁agenda	-406
▁prov	-407
▁10	-408
con	-409
feren	-410
if	-411
▁For	-412
ost	-413
▁sec	-414
ish	-415
.3	-416
ization	-417
▁all	-418
ru	-419
ticle	-420
formation	-421
red	-422
aw	-423
▁7	-424
nex	-425
ures	-426
cess	-427
min	-428
▁ob	-429
ues	-430
▁pe	-431
▁ass	-432
▁rights	-433
▁consid	-434
▁iss	-435
ons	-436
▁other	-437
▁Pre	-438
▁comp	-439
ade	-440
ep	-441
▁had	-442
ult	-443
▁und	-444
▁States	-445
og	-446
uation	-447
mit	-448
▁An	-449
▁paragraph	-450
▁Al	-451
ret	-452
ocu	-453
▁Work	-454
▁ne	-455
omic	-456
▁pre	-457
▁under	-458
ech	-459
▁shall	-460
▁development	-461
rans	-462
rib	-463
▁Res	-464
▁j	-465
ries	-466
oin	-467
▁Human	-468
▁would	-469
ang	-470
▁En	-471
▁qu	-472
rac	-473
present	-474
▁un	-475
▁decision	-476
▁human	-477
di	-478
age	-479
▁Ar	-480
▁Convention	-481
ference	-482
ever	-483
▁9	-484
▁out	-485
ail	-486
▁ab	-487
▁[	-488
▁Am	-489
ors	-490
▁international	-491
▁Af	-492
overn	-493
ast	-494
out	-495
▁ind	-496
▁made	-497
ublic	-498
▁Righ	-499
ual	-500
▁r	-501
▁sit	-502
pecial	-503
ical	-504
inanc	-505
ati	-506
▁Group	-507
▁8	-508
▁read	-509
▁stat	-510
ot	-511
ose	-512
▁k	-513
▁He	-514
la	-515
▁Y	-516
ass	-517
ocial	-518
▁year	-519
ine	-520
fore	-521
▁acc	-522
▁Working	-523
/2	-524
ong	-525
▁cons	-526
▁new	-527
▁sup	-528
▁2002	-529
hed	-530
▁pol	-531
▁Security	-532
▁co	-533
ued	-534
ities	-535
▁ro	-536
▁rem	-537
▁includ	-538
▁docu	-539
tical	-540
▁there	-541
reat	-542
▁2004	-543
.,	-544
yst	-545
▁Ag	-546
.4	-547
▁Ex	-548
▁Offic	-549
ame	-550
▁tra	-551
tivi	-552
tivities	-553
ote	-554
▁man	-555
irst	-556
▁inv	-557
ystem	-558
▁information	-559
▁There	-560
ice	-561
ix	-562
ext	-563
▁Adop	-564
/1	-565
tit	-566
▁Rights	-567
▁Rec	-568
▁2006	-569
▁their	-570
▁Report	-571
▁women	-572
par	-573
ements	-574
▁these	-575
▁must	-576
.5	-577
▁2005	-578
ie	-579
▁annex	-580
ning	-581
▁12	-582
embers	-583
),	-584
ms	-585
▁do	-586
umber	-587
▁11	-588
▁el	-589
orld	-590
▁2003	-591
▁se	-592
▁2001	-593
▁disc	-594
view	-595
sident	-596
▁exp	-597
ten	-598
ree	-599
▁eff	-600
▁partic	-601
▁propos	-602
▁Govern	-603
presentative	-604
▁(1	-605
udg	-606
mitted	-607
▁countries	-608
ach	-609
/6	-610
▁Chair	-611
▁December	-612
inal	-613
▁can	-614
enti	-615
▁Econ	-616
▁lo	-617
plementation	-618
ied	-619
▁repor	-620
▁2000	-621
ific	-622
▁child	-623
land	-624
▁El	-625
▁us	-626
ov	-627
wo	-628
als	-629
ok	-630
▁require	-631
▁provid	-632
ble	-633
▁situation	-634
▁offic	-635
ian	-636
ters	-637
▁need	-638
▁inc	-639
▁present	-640
▁President	-641
leg	-642
▁appro	-643
retari	-644
vel	-645
retariat	-646
uro	-647
▁Economic	-648
▁ter	-649
one	-650
les	-651
operation	-652
▁Development	-653
▁amend	-654
une	-655
▁pers	-656
▁Draft	-657
▁Mar	-658
▁Adoption	-659
ced	-660
▁one	-661
iti	-662
▁contin	-663
-1	-664
▁cent	-665
▁op	-666
▁again	-667
▁New	-668
▁conc	-669
▁•	-670
ive	-671
ON	-672
echn	-673
▁may	-674
▁Ind	-675
▁system	-676
ject	-677
act	-678
ory	-679
onment	-680
▁June	-681
ganization	-682
▁such	-683
▁members	-684
▁2007	-685
▁activities	-686
▁follows	-687
▁Co	-688
▁II	-689
▁Afric	-690
owever	-691
▁2008	-692
▁May	-693
▁vi	-694
vir	-695
ateg	-696
-2	-697
ular	-698
very	-699
ien	-700
ater	-701
▁Euro	-702
▁tim	-703
▁Reg	-704
iod	-705
▁Conference	-706
▁di	-707
▁ques	-708
▁Sub	-709
vironment	-710
eva	-711
▁Programme	-712
▁programme	-713
ack	-714
day	-715
ich	-716
▁15	-717
▁number	-718
▁Min	-719
pr	-720
▁Or	-721
uly	-722
ration	-723
ens	-724
▁See	-725
ources	-726
▁more	-727
use	-728
ium	-729
▁than	-730
▁rel	-731
▁up	-732
oint	-733
▁meas	-734
▁em	-735
rec	-736
ll	-737
▁our	-738
▁taken	-739
▁On	-740
▁record	-741
▁period	-742
de	-743
▁At	-744
▁Le	-745
▁July	-746
ves	-747
ered	-748
▁Social	-749
we	-750
▁Geneva	-751
ept	-752
dition	-753
▁only	-754
inancial	-755
▁trans	-756
ility	-757
▁end	-758
▁Prot	-759
▁Europe	-760
CE	-761
▁into	-762
plic	-763
▁take	-764
abl	-765
hen	-766
▁Sup	-767
▁region	-768
rig	-769
▁against	-770
▁process	-771
▁two	-772
▁import	-773
▁Oc	-774
▁13	-775
uring	-776
ort	-777
▁Nov	-778
▁ref	-779
ug	-780
igned	-781
jec	-782
▁Article	-783
▁November	-784
▁20	-785
stit	-786
hip	-787
ood	-788
arm	-789
▁concer	-790
urther	-791
istance	-792
▁Pol	-793
▁Government	-794
ruc	-795
▁peace	-796
▁law	-797
udget	-798
ural	-799
ained	-800
ke	-801
▁vote	-802
eptember	-803
▁support	-804
▁To	-805
▁Is	-806
tober	-807
rimin	-808
▁group	-809
▁September	-810
hi	-811
▁serv	-812
▁October	-813
▁over	-814
▁consideration	-815
▁bet	-816
are	-817
pro	-818
▁Dis	-819
▁now	-820
▁part	-821
▁des	-822
rin	-823
▁time	-824
▁any	-825
TI	-826
ism	-827
▁article	-828
▁submitted	-829
-200	-830
ift	-831
▁ra	-832
av	-833
▁which	-834
ulation	-835
▁"	-836
ized	-837
▁add	-838
ight	-839
agement	-840
▁text	-841
orrec	-842
ges	-843
▁14	-844
▁gen	-845
ages	-846
ource	-847
▁statement	-848
▁Bo	-849
▁Com	-850
▁prot	-851
rent	-852
▁Im	-853
▁Per	-854
▁conf	-855
aff	-856
▁national	-857
ination	-858
▁Special	-859
ifty	-860
ommend	-861
ased	-862
▁document	-863
bal	-864
tice	-865
▁develop	-866
▁children	-867
vers	-868
▁ap	-869
uth	-870
▁plan	-871
▁held	-872
ute	-873
▁They	-874
▁peop	-875
▁country	-876
olog	-877
▁so	-878
▁rece	-879
ings	-880
oci	-881
▁those	-882
ind	-883
▁issues	-884
▁Paragraph	-885
▁commun	-886
▁pri	-887
▁Resolution	-888
ween	-889
▁Tra	-890
99	-891
ourt	-892
ards	-893
.6	-894
▁representative	-895
lobal	-896
▁meetings	-897
osi	-898
▁sp	-899
ks	-900
vent	-901
ices	-902
ected	-903
ata	-904
atis	-905
ide	-906
ird	-907
ases	-908
ished	-909
▁Women	-910
▁implementation	-911
▁That	-912
▁remain	-913
uthor	-914
▁level	-915
enc	-916
▁att	-917
umm	-918
▁(200	-919
▁Rep	-920
▁between	-921
..	-922
lear	-923
▁30	-924
▁mat	-925
▁sc	-926
▁years	-927
val	-928
ell	-929
rit	-930
Signed	-931
▁deleg	-932
▁same	-933
▁16	-934
▁These	-935
▁17	-936
ety	-937
educ	-938
▁National	-939
ser	-940
ugh	-941
▁his	-942
▁agre	-943
▁ec	-944
▁pur	-945
der	-946
ilit	-947
▁Republic	-948
▁security	-949
sible	-950
▁right	-951
amp	-952
▁first	-953
ound	-954
▁March	-955
▁est	-956
ussion	-957
ating	-958
);	-959
▁18	-960
▁cur	-961
▁budget	-962
▁regard	-963
▁cooperation	-964
ef	-965
ienn	-966
ake	-967
gress	-968
▁measures	-969
▁them	-970
▁resp	-971
▁li	-972
▁review	-973
▁techn	-974
ise	-975
▁without	-976
▁particip	-977
▁organ	-978
ally	-979
erg	-980
▁Chairman	-981
▁York	-982
EN	-983
med	-984
▁call	-985
▁main	-986
▁being	-987
af	-988
uch	-989
▁establ	-990
▁Organization	-991
aj	-992
itical	-993
lar	-994
▁further	-995
▁set	-996
cep	-997
▁World	-998
plo	-999
▁Office	-1000
▁some	-1001
ful	-1002
▁resources	-1003
▁see	-1004
tim	-1005
▁However	-1006
▁def	-1007
rateg	-1008
mo	-1009
bl	-1010
▁provision	-1011
▁Trans	-1012
▁As	-1013
manent	-1014
▁Agenda	-1015
▁econ	-1016
irec	-1017
▁equ	-1018
ES	-1019
▁people	-1020
ales	-1021
▁assistance	-1022
laim	-1023
ans	-1024
▁Africa	-1025
ivil	-1026
▁form	-1027
▁important	-1028
pril	-1029
gal	-1030
ID	-1031
▁mar	-1032
tro	-1033
▁av	-1034
anu	-1035
ii	-1036
ys	-1037
▁April	-1038
ays	-1039
ament	-1040
ribution	-1041
its	-1042
▁21	-1043
▁bo	-1044
rough	-1045
):	-1046
▁receiv	-1047
▁general	-1048
ved	-1049
▁European	-1050
▁question	-1051
ines	-1052
▁mon	-1053
▁ful	-1054
▁discussion	-1055
ange	-1056
▁Pe	-1057
ality	-1058
ris	-1059
▁Stat	-1060
tinued	-1061
▁Ms	-1062
eric	-1063
▁Court	-1064
▁before	-1065
▁exper	-1066
▁use	-1067
▁Law	-1068
▁Other	-1069
pect	-1070
ned	-1071
ite	-1072
▁case	-1073
ploy	-1074
▁viol	-1075
angu	-1076
ci	-1077
ifth	-1078
icy	-1079
▁author	-1080
▁Note	-1081
▁col	-1082
continued	-1083
▁prin	-1084
▁oper	-1085
itor	-1086
▁Board	-1087
riginal	-1088
ords	-1089
▁financial	-1090
▁issue	-1091
▁incre	-1092
ral	-1093
duction	-1094
eb	-1095
/3	-1096
.7	-1097
▁reports	-1098
▁they	-1099
▁Fund	-1100
alth	-1101
▁could	-1102
mes	-1103
teur	-1104
▁requirements	-1105
▁Action	-1106
go	-1107
sel	-1108
▁proced	-1109
outh	-1110
TA	-1111
▁spec	-1112
ummary	-1113
porteur	-1114
sec	-1115
▁Man	-1116
stitution	-1117
▁Americ	-1118
ocol	-1119
▁secretariat	-1120
ror	-1121
ided	-1122
▁fund	-1123
▁educ	-1124
▁inter	-1125
ivers	-1126
▁State	-1127
▁Rap	-1128
▁three	-1129
▁action	-1130
blem	-1131
▁comple	-1132
▁22	-1133
tics	-1134
ador	-1135
▁All	-1136
ition	-1137
▁current	-1138
ants	-1139
anuary	-1140
▁Party	-1141
/200	-1142
▁inst	-1143
▁vol	-1144
▁address	-1145
▁langu	-1146
▁January	-1147
▁Cent	-1148
▁order	-1149
▁(2	-1150
▁Meeting	-1151
vis	-1152
allen	-1153
▁avail	-1154
▁data	-1155
▁cl	-1156
/4	-1157
▁world	-1158
▁gu	-1159
▁Add	-1160
▁Rapporteur	-1161
tain	-1162
▁inte	-1163
▁provided	-1164
▁Fifty	-1165
▁working	-1166
▁Secretariat	-1167
ah	-1168
com	-1169
stan	-1170
▁car	-1171
amil	-1172
9.	-1173
▁claim	-1174
▁addition	-1175
▁ent	-1176
AL	-1177
ove	-1178
▁section	-1179
formal	-1180
▁31	-1181
▁Environment	-1182
aid	-1183
▁Parties	-1184
▁documents	-1185
enary	-1186
ency	-1187
clu	-1188
▁Q	-1189
▁Permanent	-1190
apter	-1191
au	-1192
orts	-1193
▁indic	-1194
old	-1195
▁fac	-1196
ebru	-1197
ebruary	-1198
fication	-1199
be	-1200
▁list	-1201
uture	-1202
▁problem	-1203
▁February	-1204
▁Official	-1205
▁place	-1206
hes	-1207
▁received	-1208
▁Election	-1209
▁proposed	-1210
ining	-1211
▁spe	-1212
▁protection	-1213
ourth	-1214
▁recommend	-1215
▁special	-1216
OR	-1217
▁25	-1218
▁Gu	-1219
ustice	-1220
now	-1221
▁Annex	-1222
▁Me	-1223
▁sign	-1224
ature	-1225
▁note	-1226
▁stand	-1227
▁include	-1228
▁cap	-1229
▁Six	-1230
▁ext	-1231
ince	-1232
▁Information	-1233
▁resolutions	-1234
king	-1235
▁Wh	-1236
airs	-1237
sive	-1238
▁progress	-1239
▁Ab	-1240
▁public	-1241
▁prac	-1242
come	-1243
▁persons	-1244
▁education	-1245
istan	-1246
▁particular	-1247
▁Item	-1248
▁sect	-1249
▁Protocol	-1250
tention	-1251
ceed	-1252
▁available	-1253
▁conclud	-1254
▁very	-1255
▁make	-1256
▁during	-1257
alestin	-1258
▁pos	-1259
▁bienn	-1260
▁plenary	-1261
▁applic	-1262
▁table	-1263
▁cases	-1264
▁about	-1265
ology	-1266
wn	-1267
gl	-1268
ister	-1269
▁deb	-1270
▁23	-1271
ective	-1272
inancing	-1273
▁Palestin	-1274
bass	-1275
istry	-1276
▁bas	-1277
▁management	-1278
ared	-1279
▁areas	-1280
5,	-1281
0.	-1282
”.	-1283
▁role	-1284
ples	-1285
▁second	-1286
reng	-1287
▁para	-1288
ules	-1289
ER	-1290
ffairs	-1291
rab	-1292
▁challen	-1293
▁therefore	-1294
▁subject	-1295
▁officers	-1296
tal	-1297
▁posi	-1298
ile	-1299
▁Z	-1300
▁App	-1301
ainable	-1302
ents	-1303
round	-1304
▁social	-1305
▁continue	-1306
▁conflic	-1307
ugust	-1308
▁Op	-1309
▁considered	-1310
hiev	-1311
armament	-1312
▁achiev	-1313
▁my	-1314
▁min	-1315
9,	-1316
unc	-1317
ban	-1318
▁es	-1319
clusion	-1320
▁24	-1321
sian	-1322
▁27	-1323
▁Supplement	-1324
az	-1325
▁August	-1326
▁efforts	-1327
ank	-1328
▁$	-1329
▁force	-1330
▁through	-1331
▁*	-1332
ina	-1333
IS	-1334
▁af	-1335
▁val	-1336
ability	-1337
▁biennium	-1338
part	-1339
▁staff	-1340
▁person	-1341
rael	-1342
illion	-1343
▁environment	-1344
ajor	-1345
▁used	-1346
▁Mon	-1347
ined	-1348
▁imp	-1349
▁initi	-1350
ron	-1351
▁mod	-1352
EC	-1353
orrections	-1354
▁del	-1355
TION	-1356
ai	-1357
▁below	-1358
▁commit	-1359
▁Israel	-1360
▁Child	-1361
▁diff	-1362
▁respon	-1363
ances	-1364
bassador	-1365
▁Serv	-1366
▁services	-1367
til	-1368
▁consult	-1369
rol	-1370
rimination	-1371
▁program	-1372
▁198	-1373
▁future	-1374
izations	-1375
fied	-1376
atistics	-1377
▁delegation	-1378
▁regional	-1379
▁OF	-1380
bid	-1381
▁most	-1382
erc	-1383
los	-1384
▁28	-1385
rest	-1386
▁global	-1387
▁economic	-1388
▁Acc	-1389
▁Mission	-1390
▁Act	-1391
▁reques	-1392
ield	-1393
ender	-1394
ope	-1395
▁Representative	-1396
▁after	-1397
▁many	-1398
here	-1399
▁ser	-1400
ax	-1401
▁26	-1402
▁assess	-1403
▁strateg	-1404
ners	-1405
0,	-1406
tor	-1407
arian	-1408
▁decided	-1409
led	-1410
▁Commun	-1411
▁area	-1412
the	-1413
▁Sp	-1414
▁Ministry	-1415
▁Implementation	-1416
▁matter	-1417
▁languages	-1418
hic	-1419
▁bec	-1420
▁Second	-1421
motion	-1422
▁ins	-1423
sh	-1424
II	-1425
▁objec	-1426
reaty	-1427
AN	-1428
▁terror	-1429
▁CO	-1430
▁Fed	-1431
itoring	-1432
▁Summary	-1433
▁UNC	-1434
▁cost	-1435
glish	-1436
oreign	-1437
▁Arab	-1438
ital	-1439
▁go	-1440
▁view	-1441
▁Ambassador	-1442
▁=	-1443
ended	-1444
cc	-1445
▁Trade	-1446
▁Comp	-1447
.8	-1448
▁resul	-1449
ool	-1450
ob	-1451
ey	-1452
000	-1453
▁high	-1454
overty	-1455
jection	-1456
ators	-1457
art	-1458
IC	-1459
ib	-1460
▁English	-1461
▁cour	-1462
▁differen	-1463
▁Pl	-1464
▁good	-1465
▁Affairs	-1466
lease	-1467
▁men	-1468
▁sent	-1469
▁Transport	-1470
ulations	-1471
▁questions	-1472
▁six	-1473
▁called	-1474
▁sti	-1475
▁but	-1476
ternal	-1477
sequ	-1478
▁Protection	-1479
arge	-1480
▁Cooperation	-1481
riminal	-1482
▁policy	-1483
▁det	-1484
▁final	-1485
▁Col	-1486
▁provide	-1487
▁including	-1488
▁0	-1489
ports	-1490
▁like	-1491
ently	-1492
▁Consid	-1493
ential	-1494
eep	-1495
ication	-1496
▁African	-1497
▁provisions	-1498
ides	-1499
ator	-1500
ultural	-1501
▁Propos	-1502
▁Forum	-1503
raq	-1504
▁TH	-1505
ole	-1506
▁established	-1507
▁consider	-1508
ND	-1509
▁occ	-1510
▁accord	-1511
▁major	-1512
istration	-1513
laration	-1514
ule	-1515
issions	-1516
▁ste	-1517
▁Corrections	-1518
cept	-1519
▁next	-1520
thod	-1521
▁(199	-1522
itarian	-1523
▁each	-1524
▁Ibid	-1525
▁speak	-1526
ked	-1527
▁29	-1528
▁First	-1529
▁civil	-1530
▁items	-1531
▁know	-1532
opulation	-1533
ilitary	-1534
▁however	-1535
▁above	-1536
ighth	-1537
chool	-1538
ruct	-1539
echan	-1540
IN	-1541
▁Financing	-1542
▁both	-1543
▁organization	-1544
▁wish	-1545
ward	-1546
▁compl	-1547
▁America	-1548
ale	-1549
▁Iraq	-1550
7,	-1551
▁Records	-1552
▁contribution	-1553
ployment	-1554
TS	-1555
▁mand	-1556
▁loc	-1557
▁cri	-1558
▁Techn	-1559
1,	-1560
ious	-1561
▁aff	-1562
▁within	-1563
▁does	-1564
▁famil	-1565
▁programmes	-1566
▁lim	-1567
▁took	-1568
▁conflict	-1569
▁ve	-1570
▁Review	-1571
other	-1572
▁THE	-1573
ework	-1574
▁specific	-1575
rug	-1576
erson	-1577
▁what	-1578
▁required	-1579
ferences	-1580
ramework	-1581
▁possible	-1582
▁prior	-1583
▁organizations	-1584
ize	-1585
▁Disc	-1586
▁reas	-1587
▁million	-1588
▁still	-1589
olid	-1590
everal	-1591
▁correc	-1592
▁control	-1593
oh	-1594
▁trade	-1595
▁respect	-1596
▁technical	-1597
▁total	-1598
▁political	-1599
▁wel	-1600
▁groups	-1601
2,	-1602
serv	-1603
▁legal	-1604
▁if	-1605
▁concerning	-1606
▁concern	-1607
▁violence	-1608
partment	-1609
▁2009	-1610
iss	-1611
▁Em	-1612
▁sur	-1613
duced	-1614
▁give	-1615
ditions	-1616
▁Cor	-1617
ishment	-1618
▁Palestinian	-1619
row	-1620
▁project	-1621
▁community	-1622
venth	-1623
▁Head	-1624
ecess	-1625
▁vari	-1626
▁bod	-1627
ately	-1628
not	-1629
▁Consideration	-1630
▁ret	-1631
ional	-1632
▁med	-1633
pected	-1634
▁Such	-1635
uclear	-1636
ordination	-1637
▁tre	-1638
▁ty	-1639
ecu	-1640
▁long	-1641
▁dem	-1642
afety	-1643
▁issued	-1644
itation	-1645
6,	-1646
▁suc	-1647
▁stud	-1648
lands	-1649
▁Sw	-1650
see	-1651
▁High	-1652
▁vic	-1653
▁Nor	-1654
iven	-1655
vision	-1656
▁Some	-1657
fer	-1658
alling	-1659
3,	-1660
oura	-1661
▁fact	-1662
▁vis	-1663
▁paragraphs	-1664
▁health	-1665
▁thus	-1666
▁cor	-1667
▁Fifth	-1668
▁decisions	-1669
▁open	-1670
▁Financial	-1671
▁enc	-1672
▁contained	-1673
pri	-1674
ier	-1675
rial	-1676
▁ann	-1677
ath	-1678
arg	-1679
8.	-1680
▁Session	-1681
▁id	-1682
▁parties	-1683
lig	-1684
▁bel	-1685
imum	-1686
▁results	-1687
▁among	-1688
enous	-1689
▁flo	-1690
enth	-1691
▁UNE	-1692
▁East	-1693
▁ben	-1694
urn	-1695
uss	-1696
1.	-1697
igenous	-1698
▁Can	-1699
DP	-1700
▁who	-1701
anel	-1702
reed	-1703
▁agreed	-1704
▁objection	-1705
/57	-1706
alys	-1707
▁reported	-1708
uts	-1709
ether	-1710
amb	-1711
rief	-1712
▁Ser	-1713
▁Department	-1714
▁But	-1715
▁coll	-1716
stantive	-1717
▁Union	-1718
own	-1719
▁you	-1720
▁Section	-1721
▁clear	-1722
/56	-1723
▁necess	-1724
▁proposal	-1725
▁Ter	-1726
▁Global	-1727
eal	-1728
ists	-1729
▁well	-1730
ample	-1731
▁If	-1732
▁Educ	-1733
5.	-1734
▁consultations	-1735
3.	-1736
▁given	-1737
ada	-1738
ressed	-1739
epend	-1740
8,	-1741
▁vo	-1742
4,	-1743
▁every	-1744
iversity	-1745
The	-1746
ieve	-1747
MM	-1748
▁IN	-1749
▁since	-1750
▁proposals	-1751
▁access	-1752
apons	-1753
ife	-1754
▁lead	-1755
▁mechan	-1756
▁Count	-1757
▁post	-1758
▁III	-1759
▁way	-1760
ivid	-1761
second	-1762
▁Docu	-1763
imination	-1764
sia	-1765
▁categ	-1766
ness	-1767
AR	-1768
▁terrorism	-1769
read	-1770
▁floor	-1771
IR	-1772
eighth	-1773
▁impro	-1774
▁prep	-1775
2.	-1776
▁said	-1777
ecutive	-1778
▁implement	-1779
▁ph	-1780
▁reference	-1781
01	-1782
tives	-1783
▁did	-1784
duct	-1785
▁Cont	-1786
▁poverty	-1787
▁perform	-1788
▁sust	-1789
▁great	-1790
crib	-1791
▁What	-1792
ilities	-1793
▁Amend	-1794
▁Ro	-1795
eg	-1796
▁needs	-1797
seventh	-1798
vised	-1799
▁transport	-1800
▁One	-1801
▁sim	-1802
▁original	-1803
isting	-1804
▁field	-1805
▁direc	-1806
IV	-1807
ividual	-1808
ner	-1809
jects	-1810
▁debate	-1811
ivision	-1812
▁Meas	-1813
▁Political	-1814
7.	-1815
▁full	-1816
item	-1817
▁UNI	-1818
▁func	-1819
aced	-1820
▁identi	-1821
person	-1822
▁Source	-1823
urs	-1824
▁Rus	-1825
▁success	-1826
▁Minister	-1827
▁te	-1828
sert	-1829
▁requested	-1830
▁him	-1831
▁Part	-1832
▁oblig	-1833
▁official	-1834
▁change	-1835
▁ur	-1836
▁Direc	-1837
▁method	-1838
less	-1839
/58	-1840
put	-1841
2)	-1842
▁population	-1843
mar	-1844
resolution	-1845
▁Ob	-1846
▁Peace	-1847
▁included	-1848
ociety	-1849
▁procedure	-1850
zer	-1851
▁vehic	-1852
▁remains	-1853
▁amendments	-1854
▁date	-1855
▁related	-1856
▁guid	-1857
nel	-1858
ogn	-1859
▁invol	-1860
▁seat	-1861
▁means	-1862
▁Regional	-1863
ension	-1864
ergy	-1865
orest	-1866
▁rules	-1867
OP	-1868
▁repl	-1869
▁concluded	-1870
▁approach	-1871
▁South	-1872
▁head	-1873
▁estim	-1874
▁La	-1875
wards	-1876
▁represent	-1877
ried	-1878
▁AND	-1879
▁Exper	-1880
▁IC	-1881
-3	-1882
▁Centre	-1883
▁reform	-1884
tional	-1885
▁Status	-1886
▁justice	-1887
/59	-1888
iness	-1889
▁status	-1890
eria	-1891
▁Recalling	-1892
▁Recommend	-1893
▁chang	-1894
arters	-1895
reedom	-1896
▁deter	-1897
▁statements	-1898
9)	-1899
▁basis	-1900
.1.	-1901
ticles	-1902
▁detail	-1903
▁streng	-1904
▁Promotion	-1905
▁additional	-1906
ged	-1907
▁Sixty	-1908
▁sector	-1909
▁school	-1910
▁eval	-1911
alysis	-1912
▁regular	-1913
ribun	-1914
/55	-1915
TE	-1916
abour	-1917
eeping	-1918
▁challenges	-1919
gin	-1920
▁Inter	-1921
▁ver	-1922
ects	-1923
▁dra	-1924
nership	-1925
▁Declaration	-1926
cip	-1927
lating	-1928
▁cer	-1929
▁different	-1930
rad	-1931
▁197	-1932
▁framework	-1933
ounts	-1934
▁Third	-1935
pects	-1936
▁conditions	-1937
▁proceed	-1938
▁bu	-1939
▁rele	-1940
IDS	-1941
▁la	-1942
▁less	-1943
ociation	-1944
6.	-1945
omes	-1946
▁Treaty	-1947
▁cannot	-1948
▁Elimination	-1949
▁off	-1950
▁X	-1951
quarters	-1952
enty	-1953
▁third	-1954
loc	-1955
▁humanitarian	-1956
erman	-1957
▁diffic	-1958
▁training	-1959
▁Management	-1960
▁act	-1961
▁govern	-1962
ract	-1963
ories	-1964
▁ca	-1965
▁purs	-1966
▁55	-1967
▁Chairperson	-1968
AC	-1969
ough	-1970
ensus	-1971
4.	-1972
▁ens	-1973
▁rest	-1974
▁then	-1975
▁account	-1976
▁Federation	-1977
ificant	-1978
▁chapter	-1979
aterial	-1980
▁Tim	-1981
▁effective	-1982
▁Main	-1983
▁necessary	-1984
▁relating	-1985
onization	-1986
▁test	-1987
▁Cl	-1988
rance	-1989
▁matters	-1990
▁inf	-1991
IT	-1992
▁Informal	-1993
ciples	-1994
ruction	-1995
▁Children	-1996
▁step	-1997
▁water	-1998
▁Agre	-1999
4)	-2000
▁brief	-2001
▁four	-2002
▁2005.	-2003
nes	-2004
atives	-2005
ode	-2006
stitute	-2007
▁Education	-2008
ash	-2009
▁expected	-2010
way	-2011
▁rati	-2012
▁Joint	-2013
▁request	-2014
tl	-2015
▁last	-2016
▁capac	-2017
▁war	-2018
oints	-2019
▁continued	-2020
▁1,	-2021
▁ris	-2022
dom	-2023
uge	-2024
▁She	-2025
▁Iss	-2026
usiness	-2027
iance	-2028
alf	-2029
ureau	-2030
ATION	-2031
▁developing	-2032
▁King	-2033
▁attention	-2034
▁prepared	-2035
▁done	-2036
ving	-2037
▁Oper	-2038
ateral	-2039
▁Activities	-2040
▁military	-2041
▁proper	-2042
▁rate	-2043
ower	-2044
ghan	-2045
▁comments	-2046
vate	-2047
mall	-2048
....	-2049
ption	-2050
▁Division	-2051
▁own	-2052
ructure	-2053
xt	-2054
aking	-2055
for	-2056
tig	-2057
ross	-2058
▁discuss	-2059
▁individual	-2060
▁Russian	-2061
▁observ	-2062
▁sug	-2063
▁disarmament	-2064
/60	-2065
5)	-2066
▁Discrimination	-2067
▁point	-2068
atory	-2069
▁Cons	-2070
ask	-2071
/61	-2072
sib	-2073
▁Civil	-2074
▁Panel	-2075
▁interest	-2076
ready	-2077
vious	-2078
▁noted	-2079
▁Aust	-2080
▁exam	-2081
▁result	-2082
UN	-2083
▁refer	-2084
keeping	-2085
▁reporting	-2086
Original	-2087
▁based	-2088
▁benef	-2089
▁2004.	-2090
▁month	-2091
▁today	-2092
▁traffic	-2093
eed	-2094
mission	-2095
tims	-2096
▁Plan	-2097
co	-2098
▁mandate	-2099
ands	-2100
▁key	-2101
▁2001.	-2102
▁Afghan	-2103
▁allow	-2104
▁upon	-2105
10	-2106
▁instru	-2107
ministration	-2108
▁institution	-2109
▁dist	-2110
▁const	-2111
▁importance	-2112
rule	-2113
▁pay	-2114
▁member	-2115
sp	-2116
▁cre	-2117
▁response	-2118
endit	-2119
▁2002.	-2120
▁adoption	-2121
▁non	-2122
▁weapons	-2123
puts	-2124
▁her	-2125
▁Foreign	-2126
▁Li	-2127
▁Over	-2128
.10	-2129
▁contain	-2130
CP	-2131
▁integ	-2132
text	-2133
paragraph	-2134
▁Executive	-2135
▁already	-2136
▁liv	-2137
apan	-2138
▁fifty	-2139
▁2006.	-2140
▁service	-2141
▁2003.	-2142
▁Measures	-2143
▁significant	-2144
▁Vi	-2145
rust	-2146
▁measure	-2147
pose	-2148
app	-2149
▁Partic	-2150
ient	-2151
▁appl	-2152
▁reserv	-2153
▁invited	-2154
▁life	-2155
3)	-2156
ering	-2157
▁Agreement	-2158
used	-2159
▁let	-2160
▁Sh	-2161
▁example	-2162
ported	-2163
arter	-2164
▁gender	-2165
pt	-2166
▁et	-2167
/62	-2168
▁when	-2169
▁assessment	-2170
▁PR	-2171
▁nuclear	-2172
▁expressed	-2173
▁Follow	-2174
▁University	-2175
1)	-2176
▁pap	-2177
▁1999	-2178
▁Ques	-2179
▁several	-2180
▁recorded	-2181
▁operations	-2182
▁problems	-2183
troduction	-2184
▁Sust	-2185
▁UNECE	-2186
▁family	-2187
▁Sc	-2188
.9	-2189
▁foc	-2190
▁procedures	-2191
▁grow	-2192
▁refl	-2193
work	-2194
▁Kingdom	-2195
▁encoura	-2196
ket	-2197
udic	-2198
▁60	-2199
lete	-2200
▁Bureau	-2201
▁enti	-2202
▁active	-2203
eth	-2204
▁Chapter	-2205
▁delegations	-2206
TAD	-2207
▁My	-2208
▁ear	-2209
idd	-2210
ief	-2211
▁determin	-2212
ribunal	-2213
▁developed	-2214
ulture	-2215
▁recogn	-2216
▁cover	-2217
erous	-2218
▁five	-2219
ummit	-2220
▁impact	-2221
▁application	-2222
▁Table	-2223
wenty	-2224
CR	-2225
elines	-2226
▁where	-2227
tiv	-2228
▁Bel	-2229
▁monitoring	-2230
ouse	-2231
▁found	-2232
▁participation	-2233
udit	-2234
▁yet	-2235
irty	-2236
▁begin	-2237
▁Public	-2238
ugees	-2239
ogue	-2240
▁Mal	-2241
▁chap	-2242
irm	-2243
change	-2244
▁During	-2245
iqu	-2246
▁Service	-2247
▁Canada	-2248
▁More	-2249
▁correction	-2250
▁With	-2251
▁space	-2252
▁free	-2253
▁rule	-2254
▁conclusion	-2255
▁forward	-2256
vant	-2257
▁Bank	-2258
hib	-2259
irc	-2260
ilar	-2261
▁informal	-2262
ications	-2263
fy	-2264
ink	-2265
ience	-2266
▁Association	-2267
icies	-2268
▁Force	-2269
▁police	-2270
thening	-2271
ditional	-2272
▁Pri	-2273
portun	-2274
▁sugges	-2275
▁presented	-2276
▁comb	-2277
▁Regulation	-2278
/7	-2279
▁UNCTAD	-2280
stand	-2281
▁Sign	-2282
IG	-2283
goti	-2284
ior	-2285
arib	-2286
▁resum	-2287
osition	-2288
▁Peop	-2289
▁appropri	-2290
▁mission	-2291
▁context	-2292
CEF	-2293
iii	-2294
▁Resource	-2295
io	-2296
▁2,	-2297
/63	-2298
▁name	-2299
▁Sustainable	-2300
▁costs	-2301
RA	-2302
rang	-2303
▁voting	-2304
▁Further	-2305
▁Statistics	-2306
▁Rel	-2307
ences	-2308
▁revised	-2309
▁capacity	-2310
MEN	-2311
▁apply	-2312
▁much	-2313
▁event	-2314
▁projects	-2315
anda	-2316
ible	-2317
ourn	-2318
▁systems	-2319
ified	-2320
▁Rule	-2321
ana	-2322
▁Strateg	-2323
▁Ph	-2324
▁needed	-2325
▁beh	-2326
atistical	-2327
▁dep	-2328
ipment	-2329
rong	-2330
▁met	-2331
▁eng	-2332
ialogue	-2333
bean	-2334
▁election	-2335
▁HIV	-2336
aribbean	-2337
▁Headquarters	-2338
equ	-2339
▁position	-2340
mis	-2341
OS	-2342
term	-2343
▁Proposed	-2344
▁sustainable	-2345
Ch	-2346
ala	-2347
▁Caribbean	-2348
▁real	-2349
programme	-2350
▁Institute	-2351
▁armed	-2352
▁hel	-2353
▁Def	-2354
cribed	-2355
▁complain	-2356
retary	-2357
abor	-2358
▁Eff	-2359
▁contributions	-2360
▁local	-2361
ubl	-2362
ermany	-2363
▁office	-2364
▁adj	-2365
▁objectives	-2366
agenda	-2367
))	-2368
iddle	-2369
▁Those	-2370
▁ev	-2371
▁Justice	-2372
men	-2373
▁standards	-2374
du	-2375
▁Issues	-2376
▁terms	-2377
UR	-2378
▁hope	-2379
ording	-2380
ression	-2381
line	-2382
▁judg	-2383
▁whole	-2384
▁threat	-2385
▁undert	-2386
▁sentence	-2387
▁bro	-2388
▁developments	-2389
sibility	-2390
▁Date	-2391
rench	-2392
teg	-2393
etwork	-2394
▁econom	-2395
▁princip	-2396
▁Criminal	-2397
▁material	-2398
▁loss	-2399
▁victims	-2400
.15	-2401
▁increase	-2402
eng	-2403
▁Unit	-2404
.2.2	-2405
▁2000.	-2406
losed	-2407
▁Commissioner	-2408
▁points	-2409
▁2007.	-2410
shop	-2411
EP	-2412
▁int	-2413
▁Form	-2414
▁Tribunal	-2415
▁far	-2416
▁course	-2417
▁emerg	-2418
▁society	-2419
▁ensure	-2420
plications	-2421
ached	-2422
▁back	-2423
▁existing	-2424
▁Secretary	-2425
reatment	-2426
ls	-2427
rated	-2428
estment	-2429
▁help	-2430
vo	-2431
▁reasons	-2432
▁recent	-2433
▁Est	-2434
▁Environmental	-2435
▁serious	-2436
▁fully	-2437
isms	-2438
▁Particip	-2439
ires	-2440
endum	-2441
▁principles	-2442
rain	-2443
▁agreement	-2444
▁Afghanistan	-2445
ishes	-2446
▁Legal	-2447
oot	-2448
▁Stand	-2449
▁find	-2450
▁elect	-2451
▁recommendation	-2452
▁China	-2453
aving	-2454
▁care	-2455
▁Document	-2456
▁coun	-2457
▁Japan	-2458
fourth	-2459
▁approved	-2460
ania	-2461
▁common	-2462
▁bodies	-2463
reme	-2464
▁France	-2465
▁expendit	-2466
server	-2467
▁Technical	-2468
▁performance	-2469
6)	-2470
▁actions	-2471
▁statistics	-2472
▁Ge	-2473
uel	-2474
inth	-2475
side	-2476
▁pursu	-2477
cy	-2478
ronic	-2479
▁defin	-2480
paration	-2481
▁Support	-2482
asing	-2483
▁Corr	-2484
▁expl	-2485
ised	-2486
atural	-2487
▁levels	-2488
▁Disarmament	-2489
ransi	-2490
▁Decision	-2491
▁accordance	-2492
▁Insert	-2493
▁196	-2494
▁Director	-2495
gen	-2496
amic	-2497
hem	-2498
▁fig	-2499
rehen	-2500
▁opportun	-2501
▁Moh	-2502
▁French	-2503
ways	-2504
first	-2505
ually	-2506
IL	-2507
▁And	-2508
▁Ann	-2509
▁become	-2510
uted	-2511
▁Middle	-2512
atic	-2513
AIDS	-2514
▁Series	-2515
▁press	-2516
▁addressed	-2517
▁Recommendation	-2518
tices	-2519
▁Sy	-2520
pection	-2521
▁ren	-2522
orture	-2523
igration	-2524
ening	-2525
▁she	-2526
▁clo	-2527
▁play	-2528
▁top	-2529
▁your	-2530
▁freedom	-2531
▁increased	-2532
▁small	-2533
III	-2534
▁age	-2535
▁mov	-2536
▁conn	-2537
▁land	-2538
ulated	-2539
▁cal	-2540
▁periodic	-2541
▁equipment	-2542
▁Regulations	-2543
▁few	-2544
▁stage	-2545
emin	-2546
▁Car	-2547
▁Held	-2548
rehensive	-2549
▁cultural	-2550
▁pass	-2551
▁implemented	-2552
thern	-2553
▁technology	-2554
ours	-2555
▁Asia	-2556
▁negoti	-2557
▁US	-2558
▁authorities	-2559
▁private	-2560
▁evaluation	-2561
”,	-2562
▁strategy	-2563
anish	-2564
▁carried	-2565
▁Introduction	-2566
▁term	-2567
▁least	-2568
▁institutions	-2569
▁articles	-2570
▁Her	-2571
▁attend	-2572
▁2004,	-2573
▁Policy	-2574
▁Constitution	-2575
sequently	-2576
▁words	-2577
▁arms	-2578
▁Ins	-2579
estern	-2580
▁claims	-2581
nder	-2582
▁Services	-2583
duce	-2584
▁(19	-2585
▁towards	-2586
▁50	-2587
▁UNDP	-2588
▁40	-2589
▁adv	-2590
▁tem	-2591
ustrial	-2592
▁Repl	-2593
▁past	-2594
▁put	-2595
omestic	-2596
▁environmental	-2597
▁Decides	-2598
▁inves	-2599
.”	-2600
▁practice	-2601
▁Out	-2602
enn	-2603
▁EC	-2604
▁Sci	-2605
ring	-2606
idence	-2607
▁ess	-2608
▁Right	-2609
epar	-2610
ones	-2611
▁2008.	-2612
ustom	-2613
▁complete	-2614
▁2003,	-2615
.2.1	-2616
▁Two	-2617
▁2002,	-2618
isted	-2619
ousing	-2620
▁Se	-2621
ification	-2622
poses	-2623
▁low	-2624
▁Reports	-2625
▁completed	-2626
▁views	-2627
then	-2628
▁2005,	-2629
▁References	-2630
▁independ	-2631
wa	-2632
▁Latin	-2633
▁Leban	-2634
umb	-2635
▁pres	-2636
▁approval	-2637
▁withd	-2638
▁hig	-2639
▁Moham	-2640
▁property	-2641
itzer	-2642
▁policies	-2643
vey	-2644
itzerland	-2645
▁occup	-2646
AS	-2647
▁currently	-2648
▁contrib	-2649
cent	-2650
/56/	-2651
itiz	-2652
▁deal	-2653
▁quality	-2654
▁Kos	-2655
▁air	-2656
▁build	-2657
▁wishes	-2658
▁Organ	-2659
▁various	-2660
▁prom	-2661
▁Equ	-2662
rison	-2663
▁amended	-2664
▁how	-2665
▁Streng	-2666
▁elected	-2667
earch	-2668
ensation	-2669
▁Tur	-2670
▁functions	-2671
udge	-2672
▁here	-2673
▁rose	-2674
coming	-2675
▁intro	-2676
▁explo	-2677
▁bal	-2678
▁ill	-2679
▁tes	-2680
▁Develop	-2681
▁type	-2682
8)	-2683
▁others	-2684
udan	-2685
▁Coven	-2686
▁strong	-2687
▁aspects	-2688
aken	-2689
▁Indigenous	-2690
▁purpose	-2691
▁pursuant	-2692
▁spons	-2693
ordin	-2694
▁funds	-2695
ovo	-2696
iter	-2697
▁Fri	-2698
▁value	-2699
▁obligations	-2700
ees	-2701
endix	-2702
▁58	-2703
▁previous	-2704
ets	-2705
▁road	-2706
▁priority	-2707
CH	-2708
▁experts	-2709
▁Mod	-2710
▁goods	-2711
▁Wed	-2712
ya	-2713
▁sched	-2714
angerous	-2715
imate	-2716
...	-2717
lia	-2718
▁investig	-2719
▁another	-2720
▁Governments	-2721
▁COMM	-2722
unt	-2723
ED	-2724
▁due	-2725
▁discrimination	-2726
▁Let	-2727
▁Please	-2728
▁Summit	-2729
uations	-2730
gy	-2731
▁Western	-2732
ock	-2733
▁mass	-2734
▁sel	-2735
▁Fac	-2736
▁show	-2737
▁day	-2738
riage	-2739
▁mechanisms	-2740
▁Bra	-2741
▁regarding	-2742
▁IV	-2743
▁amount	-2744
▁represented	-2745
▁2006,	-2746
self	-2747
▁business	-2748
▁prevention	-2749
ply	-2750
0)	-2751
▁Good	-2752
▁Coordination	-2753
▁outcome	-2754
▁achieved	-2755
org	-2756
▁dialogue	-2757
▁Code	-2758
▁category	-2759
▁purposes	-2760
▁initiatives	-2761
▁paras	-2762
▁Countries	-2763
nesday	-2764
▁Charter	-2765
▁discussed	-2766
▁analysis	-2767
aster	-2768
rid	-2769
▁look	-2770
▁cris	-2771
▁Under	-2772
▁changes	-2773
ico	-2774
▁Monitoring	-2775
Ad	-2776
▁risk	-2777
▁2001,	-2778
▁sources	-2779
uses	-2780
▁Pers	-2781
ointment	-2782
▁Members	-2783
ik	-2784
▁exchange	-2785
▁remov	-2786
▁criminal	-2787
▁conduc	-2788
ians	-2789
▁thank	-2790
▁54	-2791
▁Ap	-2792
▁Safety	-2793
▁Germany	-2794
bit	-2795
▁Spanish	-2796
ton	-2797
/57/	-2798
▁100	-2799
▁Wednesday	-2800
▁Administration	-2801
▁deli	-2802
tification	-2803
Ag	-2804
▁Kosovo	-2805
▁conven	-2806
▁Sudan	-2807
7)	-2808
▁foot	-2809
▁practices	-2810
▁particularly	-2811
OM	-2812
▁UNICEF	-2813
ung	-2814
note	-2815
etherlands	-2816
amber	-2817
ursday	-2818
▁Covenant	-2819
tivity	-2820
▁substantive	-2821
▁cop	-2822
▁cred	-2823
▁leg	-2824
▁contract	-2825
enal	-2826
▁hand	-2827
▁just	-2828
▁hold	-2829
fficient	-2830
▁57	-2831
▁Health	-2832
ica	-2833
▁elements	-2834
▁According	-2835
▁Cri	-2836
ury	-2837
▁Thursday	-2838
▁arrang	-2839
aran	-2840
-5	-2841
▁invite	-2842
▁solution	-2843
▁death	-2844
▁Inv	-2845
▁consolid	-2846
▁gir	-2847
▁Mond	-2848
▁paper	-2849
▁Bur	-2850
▁instruments	-2851
▁believe	-2852
▁constit	-2853
▁participants	-2854
stances	-2855
▁Be	-2856
emen	-2857
ienna	-2858
▁appeal	-2859
uba	-2860
▁close	-2861
▁supported	-2862
racy	-2863
▁2000,	-2864
▁Austral	-2865
▁Budget	-2866
udicial	-2867
▁American	-2868
eminar	-2869
ground	-2870
omb	-2871
umn	-2872
▁sessions	-2873
▁1998	-2874
▁positive	-2875
itions	-2876
aged	-2877
IGH	-2878
ION	-2879
▁territ	-2880
▁Central	-2881
▁according	-2882
▁Fin	-2883
▁TIR	-2884
▁outputs	-2885
ily	-2886
▁56	-2887
▁workshop	-2888
iversal	-2889
▁similar	-2890
▁pric	-2891
▁System	-2892
▁concerned	-2893
PA	-2894
tieth	-2895
▁separ	-2896
▁Requ	-2897
▁safety	-2898
liament	-2899
AT	-2900
▁po	-2901
▁forth	-2902
▁certain	-2903
▁implications	-2904
▁Statement	-2905
▁displ	-2906
ama	-2907
▁annual	-2908
ological	-2909
▁continues	-2910
via	-2911
standing	-2912
▁strengthen	-2913
▁Ste	-2914
▁standard	-2915
▁authority	-2916
▁fav	-2917
▁whe	-2918
▁ground	-2919
ierra	-2920
▁short	-2921
▁mul	-2922
▁foreign	-2923
▁Assistance	-2924
▁Monday	-2925
reg	-2926
▁Des	-2927
oto	-2928
▁coordination	-2929
▁speakers	-2930
▁Subprogramme	-2931
▁fil	-2932
TR	-2933
▁steps	-2934
▁Any	-2935
aximum	-2936
▁trend	-2937
▁challenge	-2938
ha	-2939
orn	-2940
▁relig	-2941
▁indicators	-2942
aly	-2943
arch	-2944
▁Leone	-2945
▁proceedings	-2946
▁join	-2947
▁expert	-2948
▁nature	-2949
▁committed	-2950
▁too	-2951
ene	-2952
▁Question	-2953
▁Vice	-2954
▁large	-2955
▁court	-2956
uter	-2957
▁connection	-2958
▁partnership	-2959
▁income	-2960
▁Prevention	-2961
-9	-2962
▁Our	-2963
-4	-2964
sig	-2965
▁welcome	-2966
▁33	-2967
▁methods	-2968
▁amendment	-2969
thing	-2970
▁essential	-2971
ipp	-2972
▁mee	-2973
▁transfer	-2974
▁produc	-2975
▁Strengthening	-2976
posed	-2977
▁hear	-2978
▁study	-2979
▁entered	-2980
▁team	-2981
▁Sit	-2982
/8	-2983
acy	-2984
ecting	-2985
uesday	-2986
cri	-2987
▁aim	-2988
hemical	-2989
▁compensation	-2990
▁Inc	-2991
fifth	-2992
▁mention	-2993
ledge	-2994
▁Abd	-2995
▁Switzerland	-2996
▁Water	-2997
▁refugees	-2998
▁welcom	-2999
hold	-3000
▁seized	-3001
mb	-3002
▁drug	-3003
▁Assess	-3004
▁Tuesday	-3005
▁Vol	-3006
Agenda	-3007
illed	-3008
▁Vienna	-3009
▁How	-3010
aries	-3011
▁Friday	-3012
orpor	-3013
▁Sierra	-3014
going	-3015
▁even	-3016
▁limited	-3017
zil	-3018
▁mm	-3019
▁party	-3020
▁inform	-3021
▁Bas	-3022
▁His	-3023
▁growth	-3024
▁respond	-3025
▁focus	-3026
bo	-3027
▁consensus	-3028
▁After	-3029
GO	-3030
▁attack	-3031
▁come	-3032
▁Substantive	-3033
▁Agency	-3034
▁web	-3035
ables	-3036
▁Iran	-3037
▁Many	-3038
▁dest	-3039
ather	-3040
▁Timor	-3041
▁later	-3042
akistan	-3043
▁:	-3044
▁market	-3045
ics	-3046
▁Labour	-3047
AD	-3048
▁circ	-3049
▁pack	-3050
▁comment	-3051
.0	-3052
ern	-3053
oung	-3054
ninth	-3055
▁facilit	-3056
▁2002-200	-3057
lation	-3058
vement	-3059
▁domestic	-3060
▁production	-3061
▁peacekeeping	-3062
ident	-3063
third	-3064
▁norm	-3065
▁principle	-3066
▁achievement	-3067
izing	-3068
▁publ	-3069
time	-3070
▁GR	-3071
▁relations	-3072
▁Liber	-3073
▁guidelines	-3074
ured	-3075
aties	-3076
▁rac	-3077
▁settl	-3078
Un	-3079
▁dele	-3080
▁Ref	-3081
▁conclusions	-3082
▁old	-3083
▁resumed	-3084
▁relevant	-3085
▁subparagraph	-3086
▁Chamber	-3087
pes	-3088
▁affected	-3089
ilateral	-3090
▁vehicle	-3091
▁appropriate	-3092
▁Integ	-3093
▁UNM	-3094
rants	-3095
▁planning	-3096
imin	-3097
▁lear	-3098
US	-3099
lamic	-3100
▁accept	-3101
▁Experts	-3102
UL	-3103
▁referred	-3104
▁34	-3105
▁summ	-3106
▁By	-3107
obil	-3108
ending	-3109
▁Te	-3110
▁equal	-3111
six	-3112
▁sex	-3113
▁treatment	-3114
XX	-3115
▁crisis	-3116
▁line	-3117
ane	-3118
▁Eth	-3119
▁exceed	-3120
▁Data	-3121
▁Energy	-3122
order	-3123
.1.1	-3124
▁Ky	-3125
aches	-3126
▁effect	-3127
phas	-3128
▁economy	-3129
▁difficult	-3130
▁resource	-3131
▁commitment	-3132
▁often	-3133
akes	-3134
▁Med	-3135
encies	-3136
▁peoples	-3137
▁3,	-3138
ancement	-3139
▁identified	-3140
year	-3141
▁upd	-3142
▁fl	-3143
▁vehicles	-3144
▁employ	-3145
▁printed	-3146
▁summary	-3147
▁India	-3148
▁forms	-3149
tained	-3150
▁195	-3151
yl	-3152
▁32	-3153
▁Forest	-3154
▁reason	-3155
▁Replace	-3156
▁objective	-3157
▁du	-3158
▁rese	-3159
▁months	-3160
/199	-3161
mary	-3162
▁design	-3163
▁Gender	-3164
ght	-3165
▁exerc	-3166
▁undertaken	-3167
cluding	-3168
63	-3169
▁light	-3170
EA	-3171
▁power	-3172
▁version	-3173
iation	-3174
utes	-3175
level	-3176
▁return	-3177
arante	-3178
of	-3179
untary	-3180
▁prison	-3181
/9	-3182
ends	-3183
sixth	-3184
▁Project	-3185
▁applied	-3186
ither	-3187
▁provides	-3188
▁documentation	-3189
▁Australia	-3190
▁best	-3191
▁indigenous	-3192
rate	-3193
▁personnel	-3194
▁“(	-3195
▁crime	-3196
▁forces	-3197
▁elections	-3198
▁compon	-3199
▁trafficking	-3200
▁CON	-3201
▁Indic	-3202
▁ach	-3203
▁girls	-3204
rigendum	-3205
▁employment	-3206
▁35	-3207
▁61	-3208
secut	-3209
▁accounts	-3210
▁joint	-3211
▁achieve	-3212
ollar	-3213
▁RIGH	-3214
▁Thirty	-3215
▁Statistical	-3216
.30	-3217
teenth	-3218
uing	-3219
▁Netherlands	-3220
emor	-3221
▁plans	-3222
▁People	-3223
▁Situation	-3224
▁Famil	-3225
▁ran	-3226
-19	-3227
▁posts	-3228
▁Member	-3229
ennium	-3230
▁footnote	-3231
▁Goods	-3232
abilities	-3233
yn	-3234
▁Viol	-3235
▁concerns	-3236
omal	-3237
ara	-3238
▁Ha	-3239
inion	-3240
▁Prin	-3241
▁recommended	-3242
/58/	-3243
porting	-3244
▁prohib	-3245
exico	-3246
▁Contro	-3247
▁behalf	-3248
▁communication	-3249
gether	-3250
aire	-3251
▁Research	-3252
".	-3253
▁days	-3254
itizens	-3255
illennium	-3256
▁fail	-3257
▁Access	-3258
cle	-3259
ody	-3260
▁agreements	-3261
▁living	-3262
▁Proced	-3263
▁Use	-3264
armonization	-3265
▁establishment	-3266
▁Spec	-3267
▁lack	-3268
CO	-3269
▁applicable	-3270
ruit	-3271
▁minor	-3272
Comm	-3273
▁basic	-3274
▁Country	-3275
▁2007,	-3276
▁acts	-3277
▁dollar	-3278
▁Rules	-3279
▁arrangements	-3280
▁45	-3281
▁Additional	-3282
▁broad	-3283
▁RIGHTS	-3284
▁itself	-3285
ick	-3286
▁Communication	-3287
sw	-3288
▁incorpor	-3289
/59/	-3290
▁task	-3291
▁Establ	-3292
UM	-3293
ria	-3294
▁Author	-3295
mun	-3296
ably	-3297
omin	-3298
▁Crime	-3299
urrent	-3300
▁until	-3301
▁Cuba	-3302
▁conducted	-3303
▁Sixth	-3304
▁Initi	-3305
urement	-3306
▁Mat	-3307
▁meet	-3308
▁Relations	-3309
▁don	-3310
▁hist	-3311
▁Asian	-3312
/55/	-3313
▁List	-3314
acific	-3315
▁energy	-3316
ishing	-3317
▁fourth	-3318
▁entry	-3319
▁1999.	-3320
▁Sal	-3321
▁rural	-3322
▁treaty	-3323
oper	-3324
▁Since	-3325
6).	-3326
▁adequ	-3327
▁leaders	-3328
▁always	-3329
Chair	-3330
▁bre	-3331
ese	-3332
▁Rom	-3333
▁Assessment	-3334
ograph	-3335
.2.	-3336
▁transi	-3337
▁FOR	-3338
▁increasing	-3339
▁37	-3340
▁includes	-3341
▁Pakistan	-3342
AM	-3343
osting	-3344
PR	-3345
▁kind	-3346
reland	-3347
▁benefits	-3348
▁indicated	-3349
▁pot	-3350
▁suff	-3351
kets	-3352
tered	-3353
▁experience	-3354
entials	-3355
▁Participation	-3356
▁er	-3357
▁Lebanon	-3358
▁Twenty	-3359
▁Islands	-3360
40	-3361
United	-3362
oke	-3363
moting	-3364
pret	-3365
30	-3366
porary	-3367
▁ON	-3368
▁conduct	-3369
▁RE	-3370
els	-3371
ague	-3372
▁Adv	-3373
▁sea	-3374
▁estimates	-3375
▁Reduc	-3376
▁Palestine	-3377
▁stated	-3378
uris	-3379
▁body	-3380
▁state	-3381
)*	-3382
▁2.1	-3383
▁pp	-3384
▁Sur	-3385
▁observations	-3386
oy	-3387
DC	-3388
ising	-3389
▁might	-3390
▁Cap	-3391
▁down	-3392
▁mean	-3393
▁NGO	-3394
▁network	-3395
▁Therefore	-3396
▁promotion	-3397
ify	-3398
▁natural	-3399
▁2006-200	-3400
irth	-3401
▁remained	-3402
iop	-3403
▁sol	-3404
▁flow	-3405
▁prof	-3406
ustoms	-3407
▁Somal	-3408
].	-3409
▁1997	-3410
▁able	-3411
pective	-3412
▁Of	-3413
▁labour	-3414
▁source	-3415
osn	-3416
dic	-3417
,000	-3418
▁together	-3419
▁Parliament	-3420
eden	-3421
▁Pacific	-3422
▁59	-3423
urance	-3424
▁star	-3425
any	-3426
▁48	-3427
-23	-3428
▁Technology	-3429
▁Di	-3430
▁/	-3431
▁difficul	-3432
▁recommends	-3433
▁operational	-3434
OC	-3435
▁Staff	-3436
▁funding	-3437
▁structure	-3438
▁abs	-3439
▁Case	-3440
▁adopt	-3441
▁whether	-3442
▁critical	-3443
▁Documentation	-3444
▁Industrial	-3445
▁Hoc	-3446
▁Cultural	-3447
/23	-3448
▁raised	-3449
▁Audit	-3450
▁guarante	-3451
rian	-3452
▁defined	-3453
▁actively	-3454
iev	-3455
▁44	-3456
▁Contribution	-3457
atab	-3458
▁exist	-3459
▁rates	-3460
olonization	-3461
▁unit	-3462
▁Year	-3463
astern	-3464
▁prevent	-3465
▁discussions	-3466
▁52	-3467
▁2.2	-3468
▁column	-3469
▁corrigendum	-3470
ging	-3471
▁Training	-3472
▁involved	-3473
▁emissions	-3474
most	-3475
essel	-3476
verage	-3477
▁regions	-3478
▁Bu	-3479
amps	-3480
ulner	-3481
SION	-3482
tina	-3483
▁mechanism	-3484
medi	-3485
▁Cred	-3486
▁limit	-3487
ij	-3488
▁UNF	-3489
▁Their	-3490
▁scope	-3491
▁arrest	-3492
▁Exp	-3493
▁removed	-3494
▁language	-3495
▁reduction	-3496
▁Brazil	-3497
▁categories	-3498
▁gas	-3499
▁Most	-3500
▁resol	-3501
▁Ireland	-3502
ler	-3503
▁Its	-3504
ointed	-3505
▁housing	-3506
▁operation	-3507
▁Federal	-3508
▁activity	-3509
▁published	-3510
assi	-3511
▁Rati	-3512
▁Georg	-3513
▁withdra	-3514
▁emphas	-3515
▁77	-3516
▁altern	-3517
▁orally	-3518
▁early	-3519
▁2008,	-3520
▁Independ	-3521
▁comprehensive	-3522
▁answ	-3523
ously	-3524
▁Belg	-3525
▁dev	-3526
▁forest	-3527
▁schools	-3528
▁Bosn	-3529
▁judges	-3530
tition	-3531
▁effort	-3532
▁1:	-3533
▁Delete	-3534
▁figures	-3535
▁Ve	-3536
riteria	-3537
▁share	-3538
▁Communications	-3539
▁copy	-3540
▁Mor	-3541
cription	-3542
▁Israeli	-3543
▁So	-3544
▁asked	-3545
60	-3546
▁promote	-3547
rd	-3548
▁maximum	-3549
▁research	-3550
▁Provision	-3551
osp	-3552
▁2004-200	-3553
15	-3554
▁Bar	-3555
▁Liberia	-3556
▁capital	-3557
RC	-3558
▁introduced	-3559
▁Decolonization	-3560
▁dam	-3561
▁entire	-3562
ecti	-3563
▁deg	-3564
▁Each	-3565
secutor	-3566
/60/	-3567
▁Non	-3568
pris	-3569
▁say	-3570
▁Opening	-3571
▁Millennium	-3572
/24	-3573
▁seg	-3574
▁Cost	-3575
▁Science	-3576
CN	-3577
jected	-3578
▁Appro	-3579
▁responsible	-3580
selves	-3581
otes	-3582
lad	-3583
▁wee	-3584
ocracy	-3585
▁Consult	-3586
LO	-3587
rought	-3588
▁opinion	-3589
▁overall	-3590
kra	-3591
▁(2)	-3592
▁enter	-3593
▁Partnership	-3594
▁treaties	-3595
ream	-3596
ingle	-3597
ercial	-3598
▁facilities	-3599
▁described	-3600
▁goals	-3601
▁Number	-3602
ournal	-3603
▁definition	-3604
▁Family	-3605
▁alloc	-3606
▁dollars	-3607
▁detailed	-3608
▁detention	-3609
tific	-3610
▁39	-3611
-201	-3612
active	-3613
▁speaker	-3614
▁alleg	-3615
ounting	-3616
▁Signature	-3617
25	-3618
▁Are	-3619
ins	-3620
▁Progress	-3621
▁enh	-3622
kraine	-3623
17	-3624
itness	-3625
SP	-3626
▁supp	-3627
▁Final	-3628
3).	-3629
▁Impro	-3630
▁Persons	-3631
▁deleted	-3632
▁Annual	-3633
▁Bosnia	-3634
▁compliance	-3635
▁Guid	-3636
▁appear	-3637
▁Great	-3638
▁recosting	-3639
▁UNID	-3640
▁letter	-3641
▁Sim	-3642
▁ed	-3643
▁calc	-3644
▁requests	-3645
▁consolidated	-3646
Commission	-3647
2).	-3648
▁young	-3649
key	-3650
▁courts	-3651
/10	-3652
▁38	-3653
▁assets	-3654
▁Observer	-3655
pon	-3656
▁sen	-3657
enses	-3658
ivered	-3659
▁Elect	-3660
▁strategies	-3661
▁please	-3662
▁sixty	-3663
▁successful	-3664
▁writ	-3665
ittees	-3666
entific	-3667
▁Ben	-3668
▁direct	-3669
AP	-3670
▁Police	-3671
LE	-3672
▁climate	-3673
rew	-3674
before	-3675
zeg	-3676
▁Road	-3677
▁inj	-3678
▁parts	-3679
/61/	-3680
▁equality	-3681
▁investment	-3682
▁Dar	-3683
veness	-3684
▁Several	-3685
▁situations	-3686
ause	-3687
▁Community	-3688
ysical	-3689
▁Stud	-3690
ologies	-3691
▁suggested	-3692
▁Indicators	-3693
▁reservations	-3694
▁Burund	-3695
▁53	-3696
▁Kh	-3697
▁events	-3698
▁cy	-3699
iopia	-3700
▁Cy	-3701
▁reached	-3702
▁violations	-3703
fact	-3704
sight	-3705
▁adequate	-3706
▁favour	-3707
▁delivered	-3708
▁char	-3709
▁clari	-3710
▁specified	-3711
▁Traffic	-3712
▁primary	-3713
▁Mexico	-3714
▁mentioned	-3715
▁Adopted	-3716
zegov	-3717
▁better	-3718
▁sponsors	-3719
▁estimated	-3720
▁submission	-3721
▁Not	-3722
curement	-3723
▁families	-3724
▁gran	-3725
▁centres	-3726
▁replace	-3727
NG	-3728
zegovina	-3729
▁once	-3730
▁details	-3731
▁never	-3732
isters	-3733
plication	-3734
▁Herzegovina	-3735
▁regulations	-3736
.3.	-3737
▁occur	-3738
▁62	-3739
▁2009.	-3740
)1	-3741
MENT	-3742
urisdic	-3743
▁direction	-3744
▁penal	-3745
ols	-3746
▁Islamic	-3747
TO	-3748
▁Resources	-3749
▁associ	-3750
▁examples	-3751
▁initiative	-3752
DA	-3753
/63/	-3754
▁(1)	-3755
rary	-3756
anctions	-3757
/25	-3758
▁happ	-3759
▁Prof	-3760
▁draf	-3761
▁Harmonization	-3762
▁Only	-3763
▁Intern	-3764
arget	-3765
HCR	-3766
gypt	-3767
▁negotiations	-3768
▁42	-3769
▁ECE	-3770
▁paid	-3771
lution	-3772
▁AD	-3773
Gen	-3774
▁preparation	-3775
▁live	-3776
-8	-3777
SC	-3778
▁Nig	-3779
▁determined	-3780
▁Vehic	-3781
▁internal	-3782
▁missions	-3783
▁organized	-3784
▁Haiti	-3785
imension	-3786
▁independent	-3787
▁36	-3788
inea	-3789
▁Class	-3790
▁incorporated	-3791
▁entit	-3792
▁vessel	-3793
hab	-3794
▁When	-3795
ware	-3796
▁hop	-3797
ING	-3798
▁INF	-3799
atures	-3800
▁adjust	-3801
▁vulner	-3802
▁knowledge	-3803
book	-3804
ions	-3805
▁minimum	-3806
▁Coll	-3807
▁priorities	-3808
▁Control	-3809
▁47	-3810
▁strategic	-3811
▁Internal	-3812
-7	-3813
▁emergency	-3814
rop	-3815
onia	-3816
▁Ku	-3817
▁lin	-3818
ulate	-3819
▁Burundi	-3820
ple	-3821
▁greater	-3822
▁Kore	-3823
▁higher	-3824
▁pun	-3825
▁hours	-3826
▁Submitted	-3827
4).	-3828
▁times	-3829
▁Drug	-3830
▁Military	-3831
ectiveness	-3832
▁2:	-3833
onst	-3834
▁VII	-3835
urned	-3836
▁birth	-3837
iting	-3838
▁Norway	-3839
▁useful	-3840
nic	-3841
▁Rw	-3842
▁Somalia	-3843
▁exercise	-3844
EE	-3845
▁Expert	-3846
▁displaced	-3847
▁eth	-3848
▁Guinea	-3849
▁rein	-3850
▁partners	-3851
▁participate	-3852
/62/	-3853
▁extreme	-3854
ilitation	-3855
▁travel	-3856
▁difficulties	-3857
▁remar	-3858
1).	-3859
▁class	-3860
▁heard	-3861
alls	-3862
▁div	-3863
gentina	-3864
▁Trust	-3865
▁practical	-3866
▁site	-3867
ars	-3868
▁Claim	-3869
▁speed	-3870
▁Strategy	-3871
▁commitments	-3872
▁audit	-3873
▁signed	-3874
▁urban	-3875
portion	-3876
▁explan	-3877
voire	-3878
▁pressure	-3879
.3.1	-3880
▁Thus	-3881
▁round	-3882
ne	-3883
aria	-3884
▁UNIDO	-3885
▁EU	-3886
▁Optional	-3887
fur	-3888
Ivoire	-3889
aps	-3890
▁Dem	-3891
vered	-3892
▁reflected	-3893
uption	-3894
ementing	-3895
▁Inspection	-3896
▁summar	-3897
▁series	-3898
▁Prosecutor	-3899
All	-3900
requ	-3901
▁laws	-3902
▁torture	-3903
▁electronic	-3904
▁word	-3905
▁Analysis	-3906
-20	-3907
▁IS	-3908
▁TO	-3909
▁dri	-3910
ought	-3911
▁requires	-3912
20	-3913
▁Both	-3914
andum	-3915
▁Bi	-3916
rict	-3917
▁Slo	-3918
▁UNHCR	-3919
emorandum	-3920
▁turn	-3921
ealand	-3922
▁Documents	-3923
▁dou	-3924
▁majority	-3925
▁CH	-3926
▁Tod	-3927
▁Zealand	-3928
▁outl	-3929
stance	-3930
reen	-3931
▁factors	-3932
plementing	-3933
▁expenses	-3934
▁complex	-3935
▁cho	-3936
▁Paragraphs	-3937
▁41	-3938
▁consequ	-3939
/2,	-3940
▁ide	-3941
acles	-3942
▁Defin	-3943
▁Conf	-3944
▁temper	-3945
▁gra	-3946
▁agencies	-3947
▁Credentials	-3948
▁brought	-3949
▁briefing	-3950
xim	-3951
▁Inland	-3952
▁Sweden	-3953
▁ongoing	-3954
alais	-3955
▁house	-3956
comm	-3957
▁listed	-3958
▁Appendix	-3959
▁potential	-3960
▁datab	-3961
▁seminar	-3962
▁communications	-3963
▁citizens	-3964
▁expenditure	-3965
▁Set	-3966
▁pat	-3967
▁forty	-3968
▁counsel	-3969
▁beginning	-3970
rease	-3971
tenance	-3972
▁Gaz	-3973
itle	-3974
▁Found	-3975
▁bring	-3976
▁Ethiopia	-3977
▁Today	-3978
▁joined	-3979
ume	-3980
▁Fig	-3981
South	-3982
▁outer	-3983
........	-3984
opted	-3985
▁Palais	-3986
▁Georgia	-3987
mark	-3988
▁maintain	-3989
EM	-3990
▁highl	-3991
▁Present	-3992
eline	-3993
▁Task	-3994
▁governance	-3995
▁expenditures	-3996
ua	-3997
▁goal	-3998
▁throughout	-3999
▁Sa	-4000
▁Current	-4001
▁half	-4002
▁shown	-4003
tle	-4004
▁accom	-4005
ison	-4006
▁left	-4007
oon	-4008
▁average	-4009
▁outside	-4010
ique	-4011
▁Back	-4012
▁elimin	-4013
▁covered	-4014
▁43	-4015
-199	-4016
ames	-4017
▁transition	-4018
.11	-4019
▁Common	-4020
▁Ukraine	-4021
▁Authority	-4022
▁den	-4023
▁votes	-4024
▁Appointment	-4025
▁assessments	-4026
▁Eastern	-4027
▁Humanitarian	-4028
▁2.	-4029
▁radi	-4030
▁49	-4031
rast	-4032
ilipp	-4033
▁(3	-4034
▁2008-200	-4035
▁Prov	-4036
▁Violence	-4037
▁function	-4038
▁financing	-4039
tial	-4040
pecially	-4041
▁clearly	-4042
Th	-4043
▁Do	-4044
▁AG	-4045
▁victim	-4046
▁debt	-4047
▁Advis	-4048
▁declaration	-4049
▁UNCC	-4050
jan	-4051
▁fight	-4052
▁Darfur	-4053
▁carry	-4054
▁opportunity	-4055
▁opportunities	-4056
▁46	-4057
▁km	-4058
sign	-4059
▁Air	-4060
▁Tre	-4061
▁Terror	-4062
▁informed	-4063
▁Also	-4064
▁arbit	-4065
▁targe	-4066
ula	-4067
▁offices	-4068
▁2006-2007	-4069
11	-4070
ganda	-4071
▁contact	-4072
▁enj	-4073
▁Spain	-4074
▁judicial	-4075
puty	-4076
▁cond	-4077
▁Matters	-4078
▁products	-4079
igrants	-4080
▁soon	-4081
▁states	-4082
riculture	-4083
tilateral	-4084
AO	-4085
▁think	-4086
ened	-4087
▁recognized	-4088
▁2010	-4089
▁evidence	-4090
.20	-4091
▁63	-4092
▁witness	-4093
▁followed	-4094
▁Northern	-4095
▁registration	-4096
▁criteria	-4097
▁Dangerous	-4098
ST	-4099
▁mo	-4100
▁membership	-4101
ibility	-4102
▁Det	-4103
lated	-4104
action	-4105
▁types	-4106
▁supply	-4107
aces	-4108
rucial	-4109
▁why	-4110
ximately	-4111
▁improve	-4112
▁1.	-4113
▁ce	-4114
▁single	-4115
▁conclude	-4116
▁Foundation	-4117
5).	-4118
mad	-4119
iary	-4120
7).	-4121
▁Vehicle	-4122
▁materials	-4123
▁added	-4124
▁crucial	-4125
face	-4126
lex	-4127
▁immedi	-4128
▁integration	-4129
▁Den	-4130
▁saf	-4131
▁consum	-4132
▁Standard	-4133
▁pa	-4134
▁effects	-4135
▁entitled	-4136
ta	-4137
▁Deleg	-4138
▁because	-4139
▁civilians	-4140
Ar	-4141
OL	-4142
andid	-4143
▁conflicts	-4144
erve	-4145
▁reduced	-4146
▁Nuclear	-4147
50	-4148
hec	-4149
site	-4150
▁Three	-4151
ored	-4152
▁restric	-4153
▁communities	-4154
PC	-4155
emn	-4156
Adopted	-4157
▁**	-4158
▁values	-4159
TER	-4160
▁visit	-4161
▁allowed	-4162
▁individuals	-4163
▁fem	-4164
servers	-4165
▁building	-4166
▁dimension	-4167
▁border	-4168
▁cause	-4169
▁VI	-4170
▁especially	-4171
oral	-4172
▁Prior	-4173
bi	-4174
UMAN	-4175
▁Italy	-4176
-10	-4177
uled	-4178
▁cross	-4179
▁Kuwa	-4180
idents	-4181
vere	-4182
▁fuel	-4183
▁trends	-4184
▁Conclusion	-4185
more	-4186
▁fulf	-4187
▁subsequently	-4188
▁194	-4189
aires	-4190
▁closed	-4191
▁demand	-4192
▁encouraged	-4193
.2.,	-4194
▁permanent	-4195
-6	-4196
▁taking	-4197
oundary	-4198
▁Specific	-4199
▁memorandum	-4200
fort	-4201
▁tas	-4202
▁model	-4203
▁concept	-4204
▁benefit	-4205
obilization	-4206
▁Peacekeeping	-4207
▁aud	-4208
onses	-4209
lu	-4210
▁55/2	-4211
onesia	-4212
▁ratified	-4213
forc	-4214
▁urg	-4215
▁room	-4216
▁percent	-4217
▁external	-4218
▁AC	-4219
prus	-4220
▁Nos	-4221
▁dead	-4222
▁prices	-4223
▁contribute	-4224
ime	-4225
▁sanctions	-4226
▁ways	-4227
EL	-4228
▁aid	-4229
▁stop	-4230
MP	-4231
eals	-4232
▁2000)	-4233
▁interpret	-4234
aily	-4235
▁Rev	-4236
cepted	-4237
▁disp	-4238
elling	-4239
In	-4240
istent	-4241
▁Moreover	-4242
▁leave	-4243
▁Cal	-4244
▁vac	-4245
irmed	-4246
▁tr	-4247
▁side	-4248
▁known	-4249
▁Turkey	-4250
▁51	-4251
▁HUMAN	-4252
iver	-4253
▁Customs	-4254
CON	-4255
▁Sen	-4256
▁Deputy	-4257
▁x	-4258
▁processes	-4259
▁apprec	-4260
▁Investment	-4261
▁Val	-4262
▁West	-4263
amental	-4264
▁former	-4265
▁segment	-4266
▁revision	-4267
▁universal	-4268
▁fifth	-4269
▁Lu	-4270
▁exten	-4271
▁range	-4272
ery	-4273
▁Ec	-4274
anced	-4275
▁Contin	-4276
▁publication	-4277
▁sy	-4278
8).	-4279
ony	-4280
istr	-4281
Part	-4282
hest	-4283
▁Sah	-4284
▁content	-4285
akh	-4286
know	-4287
▁Egypt	-4288
riti	-4289
.1,	-4290
▁food	-4291
9).	-4292
stat	-4293
▁Lib	-4294
▁inspection	-4295
▁Cyprus	-4296
head	-4297
▁Torture	-4298
losure	-4299
ECD	-4300
▁Compl	-4301
▁thous	-4302
▁medical	-4303
OV	-4304
▁phase	-4305
▁conferences	-4306
▁endors	-4307
▁Journal	-4308
▁Post	-4309
▁welcomed	-4310
DI	-4311
.12	-4312
zech	-4313
▁conv	-4314
▁want	-4315
▁Rwanda	-4316
▁cooper	-4317
▁Decade	-4318
ventions	-4319
▁1999,	-4320
▁Kyoto	-4321
HCH	-4322
-11	-4323
▁Ah	-4324
▁receive	-4325
osla	-4326
▁protect	-4327
▁jurisdic	-4328
▁substance	-4329
ired	-4330
racts	-4331
▁4,	-4332
▁70	-4333
▁temperature	-4334
▁gener	-4335
ling	-4336
▁insert	-4337
▁enjoy	-4338
▁around	-4339
▁trust	-4340
▁ready	-4341
▁stability	-4342
HO	-4343
▁host	-4344
▁compet	-4345
▁(21	-4346
▁Reduction	-4347
ture	-4348
▁topic	-4349
/12	-4350
▁Mul	-4351
▁wide	-4352
▁peaceful	-4353
CONF	-4354
▁Room	-4355
▁Korea	-4356
▁began	-4357
▁Poverty	-4358
▁emb	-4359
▁ord	-4360
▁collection	-4361
70	-4362
▁rap	-4363
ritre	-4364
▁nor	-4365
▁i	-4366
▁Id	-4367
ombia	-4368
▁camp	-4369
▁Go	-4370
▁serve	-4371
▁Advancement	-4372
▁near	-4373
▁Background	-4374
kin	-4375
▁Comb	-4376
▁core	-4377
esh	-4378
atter	-4379
▁obligation	-4380
▁UNEP	-4381
▁2004-2005	-4382
isl	-4383
ses	-4384
airo	-4385
▁bra	-4386
ustry	-4387
▁twenty	-4388
TC	-4389
-27	-4390
▁Operational	-4391
▁3:	-4392
▁complainant	-4393
▁Pap	-4394
▁Territ	-4395
rigin	-4396
▁agg	-4397
▁Land	-4398
▁poor	-4399
unately	-4400
▁Application	-4401
▁1996	-4402
▁draw	-4403
▁Mohammed	-4404
▁establish	-4405
▁migration	-4406
▁217	-4407
▁mom	-4408
▁Eritre	-4409
▁contains	-4410
rastructure	-4411
/26	-4412
▁alone	-4413
aboration	-4414
▁deep	-4415
▁wor	-4416
▁Forms	-4417
▁medium	-4418
▁democracy	-4419
ani	-4420
▁Sam	-4421
▁Bang	-4422
▁making	-4423
atern	-4424
▁submit	-4425
tre	-4426
uay	-4427
▁susp	-4428
▁Space	-4429
theless	-4430
▁effectiveness	-4431
▁eas	-4432
▁Supreme	-4433
ront	-4434
▁Imp	-4435
▁Port	-4436
▁Proposal	-4437
▁publications	-4438
12	-4439
IA	-4440
▁candid	-4441
▁Freedom	-4442
▁fe	-4443
▁combat	-4444
▁Another	-4445
)]	-4446
Fourth	-4447
▁Establishment	-4448
overy	-4449
▁territory	-4450
WP	-4451
▁Press	-4452
▁Oce	-4453
▁repe	-4454
ugosla	-4455
▁Loc	-4456
alities	-4457
▁Cro	-4458
ka	-4459
ISSION	-4460
▁assist	-4461
▁Peoples	-4462
.4.1	-4463
▁COMMIT	-4464
emic	-4465
Chairman	-4466
▁studies	-4467
▁etc	-4468
▁using	-4469
▁survey	-4470
▁2002-2003	-4471
▁conference	-4472
▁invitation	-4473
▁Furthermore	-4474
▁solid	-4475
▁Philipp	-4476
▁NGOs	-4477
.4.	-4478
▁generally	-4479
based	-4480
▁90	-4481
▁1995	-4482
▁remed	-4483
▁killed	-4484
▁exploitation	-4485
▁From	-4486
▁obst	-4487
▁Planning	-4488
▁multi	-4489
▁Rac	-4490
▁history	-4491
▁observer	-4492
▁inclusion	-4493
▁continuing	-4494
19	-4495
parations	-4496
otal	-4497
legal	-4498
▁mort	-4499
▁Belgium	-4500
▁accepted	-4501
8),	-4502
▁1.1	-4503
▁Jama	-4504
arus	-4505
istic	-4506
umbers	-4507
▁having	-4508
▁Finland	-4509
▁findings	-4510
gol	-4511
ests	-4512
▁reach	-4513
▁rep	-4514
▁workers	-4515
▁convention	-4516
▁alternative	-4517
ugee	-4518
▁Having	-4519
▁moment	-4520
▁distribution	-4521
occo	-4522
▁3.1	-4523
▁cycle	-4524
▁either	-4525
▁lessons	-4526
▁Transmitted	-4527
▁sl	-4528
▁run	-4529
spoke	-4530
▁Serb	-4531
▁Basic	-4532
▁composed	-4533
lut	-4534
.3.,	-4535
▁Four	-4536
▁UNFPA	-4537
ali	-4538
▁5,	-4539
▁true	-4540
▁start	-4541
▁requirement	-4542
▁aut	-4543
ength	-4544
▁seen	-4545
▁Network	-4546
For	-4547
XXI	-4548
▁80	-4549
wide	-4550
▁longer	-4551
anmar	-4552
▁remarks	-4553
▁ID	-4554
▁inn	-4555
▁Figure	-4556
▁planned	-4557
▁database	-4558
alk	-4559
▁PRO	-4560
▁Yugosla	-4561
▁Argentina	-4562
plan	-4563
▁Fourth	-4564
▁approaches	-4565
*,	-4566
▁Es	-4567
▁face	-4568
▁Officer	-4569
isc	-4570
yer	-4571
▁Eval	-4572
▁Kuwait	-4573
▁Syrian	-4574
▁2008-2009	-4575
37	-4576
▁scheduled	-4577
▁attached	-4578
▁instrument	-4579
▁reply	-4580
▁extent	-4581
ump	-4582
▁Ed	-4583
▁interests	-4584
▁participated	-4585
▁announ	-4586
▁tw	-4587
▁jus	-4588
essional	-4589
usal	-4590
wal	-4591
ives	-4592
▁opened	-4593
▁statistical	-4594
▁Pos	-4595
▁OECD	-4596
▁format	-4597
▁)	-4598
▁responses	-4599
▁TR	-4600
▁Society	-4601
▁partnerships	-4602
▁tasks	-4603
▁Sahara	-4604
▁Ver	-4605
iences	-4606
▁movement	-4607
illing	-4608
acement	-4609
▁Future	-4610
▁Questions	-4611
IM	-4612
▁mind	-4613
boundary	-4614
▁1990	-4615
▁Chief	-4616
▁retained	-4617
▁themselves	-4618
/54	-4619
HCHR	-4620
AW	-4621
uty	-4622
▁units	-4623
▁Decisions	-4624
▁COMMISSION	-4625
▁reads	-4626
▁attended	-4627
employment	-4628
/22	-4629
▁Settl	-4630
lot	-4631
anks	-4632
▁ethnic	-4633
▁culture	-4634
▁schedule	-4635
▁Operations	-4636
▁(4	-4637
▁acqu	-4638
▁guidance	-4639
▁description	-4640
▁title	-4641
▁placed	-4642
▁learned	-4643
▁intended	-4644
▁positions	-4645
ct	-4646
▁Qu	-4647
▁Fran	-4648
▁admis	-4649
imb	-4650
aging	-4651
▁media	-4652
▁break	-4653
▁Eritrea	-4654
▁written	-4655
▁occupied	-4656
▁[2	-4657
▁Sea	-4658
▁Mand	-4659
▁963	-4660
▁losses	-4661
▁sexual	-4662
▁Auditors	-4663
▁avo	-4664
▁Judg	-4665
▁repro	-4666
▁load	-4667
▁lives	-4668
▁Myanmar	-4669
▁mer	-4670
▁destruction	-4671
▁fundamental	-4672
ews	-4673
iency	-4674
stream	-4675
▁answer	-4676
vak	-4677
▁Paris	-4678
▁causes	-4679
▁delete	-4680
▁Indonesia	-4681
▁government	-4682
zone	-4683
raints	-4684
▁seven	-4685
▁centre	-4686
TH	-4687
▁Model	-4688
fortunately	-4689
▁options	-4690
▁extended	-4691
▁conventions	-4692
▁Ext	-4693
▁Charg	-4694
▁crimes	-4695
▁central	-4696
▁Accordingly	-4697
▁0.	-4698
▁hon	-4699
▁decla	-4700
igation	-4701
forcement	-4702
anim	-4703
▁updated	-4704
▁Amendment	-4705
▁implementing	-4706
ova	-4707
▁Employment	-4708
▁Identi	-4709
▁returned	-4710
▁SU	-4711
ixed	-4712
▁bar	-4713
▁home	-4714
▁depend	-4715
▁presentation	-4716
▁Ma	-4717
▁Ken	-4718
arity	-4719
▁appointed	-4720
▁dangerous	-4721
▁ten	-4722
▁changed	-4723
IAL	-4724
let	-4725
▁1994	-4726
▁adjourn	-4727
▁initial	-4728
▁Business	-4729
▁il	-4730
▁Inst	-4731
14	-4732
rency	-4733
▁renumber	-4734
▁Gh	-4735
▁highest	-4736
▁tests	-4737
▁Colombia	-4738
▁investigation	-4739
▁Internet	-4740
▁administration	-4741
▁Austria	-4742
▁Framework	-4743
naire	-4744
▁launc	-4745
▁Uganda	-4746
▁explanation	-4747
verse	-4748
acts	-4749
ulg	-4750
▁OHCHR	-4751
▁excep	-4752
▁mess	-4753
▁size	-4754
▁North	-4755
▁Articles	-4756
▁Definition	-4757
▁summarized	-4758
▁Leg	-4759
▁Address	-4760
▁observers	-4761
▁WP	-4762
▁War	-4763
▁bis	-4764
enced	-4765
▁Gaza	-4766
▁1998.	-4767
▁facts	-4768
▁express	-4769
▁6,	-4770
vail	-4771
▁Mad	-4772
▁applies	-4773
▁records	-4774
atem	-4775
▁reduce	-4776
▁Actions	-4777
▁substan	-4778
▁Refugees	-4779
▁physical	-4780
▁released	-4781
▁Standards	-4782
▁Population	-4783
▁fore	-4784
▁affairs	-4785
▁separate	-4786
by	-4787
comes	-4788
SE	-4789
chang	-4790
▁super	-4791
03	-4792
ma	-4793
pet	-4794
▁Rem	-4795
▁extra	-4796
▁youth	-4797
ils	-4798
▁Method	-4799
▁Statute	-4800
/18	-4801
▁bl	-4802
amer	-4803
isation	-4804
▁Strategic	-4805
VI	-4806
44	-4807
No	-4808
ciliation	-4809
ude	-4810
▁Cer	-4811
▁keep	-4812
▁sev	-4813
▁dise	-4814
▁Every	-4815
▁element	-4816
▁REG	-4817
anti	-4818
▁6.2	-4819
▁Ali	-4820
ically	-4821
▁notes	-4822
▁resid	-4823
▁Chemical	-4824
▁reservation	-4825
▁unanim	-4826
▁appreci	-4827
▁400	-4828
▁Survey	-4829
▁pension	-4830
▁Terrorism	-4831
UC	-4832
▁2/	-4833
▁Chargé	-4834
▁Proposals	-4835
wise	-4836
-12	-4837
▁exha	-4838
▁formal	-4839
▁integrated	-4840
aign	-4841
▁endorsed	-4842
▁Concluding	-4843
▁Electronic	-4844
▁lit	-4845
▁mark	-4846
▁agree	-4847
▁approximately	-4848
atia	-4849
▁Day	-4850
ributed	-4851
▁religious	-4852
▁remaining	-4853
que	-4854
▁Total	-4855
▁figure	-4856
▁inputs	-4857
IP	-4858
arco	-4859
▁opp	-4860
▁2001)	-4861
▁trial	-4862
▁expand	-4863
▁Discussion	-4864
▁along	-4865
▁damage	-4866
▁personal	-4867
ancy	-4868
▁pros	-4869
▁2003)	-4870
▁Ratification	-4871
▁ratification	-4872
▁protected	-4873
.29	-4874
▁Lim	-4875
outhern	-4876
▁Procedure	-4877
▁miss	-4878
▁balance	-4879
▁commercial	-4880
▁201	-4881
▁AIDS	-4882
thcoming	-4883
▁Nigeria	-4884
▁drafting	-4885
▁committee	-4886
-15	-4887
▁technologies	-4888
▁IA	-4889
facture	-4890
bai	-4891
▁Long	-4892
islative	-4893
▁vulnerable	-4894
affaires	-4895
▁Meetings	-4896
▁consequences	-4897
▁75	-4898
TEE	-4899
▁Prac	-4900
▁thirty	-4901
▁certific	-4902
▁highligh	-4903
my	-4904
▁Up	-4905
▁led	-4906
▁observed	-4907
elf	-4908
baijan	-4909
zerbaijan	-4910
▁Abdul	-4911
TING	-4912
atest	-4913
onial	-4914
▁harm	-4915
▁substances	-4916
▁ILO	-4917
▁Belarus	-4918
▁Operative	-4919
**	-4920
alled	-4921
▁hands	-4922
▁panel	-4923
▁seats	-4924
▁closely	-4925
▁payment	-4926
18	-4927
▁Never	-4928
▁website	-4929
0).	-4930
▁Ur	-4931
▁job	-4932
▁chec	-4933
▁racial	-4934
▁penalty	-4935
▁Enh	-4936
▁(1999)	-4937
▁improved	-4938
▁maintained	-4939
▁Preparation	-4940
.25	-4941
▁Again	-4942
urg	-4943
atch	-4944
▁seem	-4945
▁COMMITTEE	-4946
bek	-4947
▁credit	-4948
▁expression	-4949
roy	-4950
fficiency	-4951
ondon	-4952
▁Chile	-4953
▁Emerg	-4954
Les	-4955
ean	-4956
kew	-4957
ESCO	-4958
/2003	-4959
▁External	-4960
▁reviewed	-4961
util	-4962
▁Comprehensive	-4963
▁strengthened	-4964
▁papers	-4965
▁Evaluation	-4966
▁sam	-4967
▁tri	-4968
▁link	-4969
▁relief	-4970
▁LDC	-4971
alment	-4972
▁numbers	-4973
13	-4974
▁length	-4975
▁created	-4976
▁perspective	-4977
▁move	-4978
▁Guidelines	-4979
gu	-4980
▁accused	-4981
WA	-4982
airobi	-4983
▁frequ	-4984
▁amounts	-4985
▁concluding	-4986
▁tax	-4987
▁Dist	-4988
atemala	-4989
▁appendix	-4990
73	-4991
aysia	-4992
rete	-4993
▁Del	-4994
▁Brit	-4995
▁coordin	-4996
▁Claimant	-4997
▁recently	-4998
▁2200	-4999
▁(212)	-5000
▁School	-5001
▁factor	-5002
▁Revision	-5003
▁jurisdiction	-5004
▁code	-5005
-14	-5006
off	-5007
▁10.10	-5008
▁sectors	-5009
▁indicate	-5010
▁component	-5011
▁7,	-5012
▁Lo	-5013
▁ICT	-5014
ounted	-5015
▁72	-5016
▁Natural	-5017
▁leadership	-5018
▁CD	-5019
▁Ne	-5020
▁Nam	-5021
ambia	-5022
ladesh	-5023
▁Pa	-5024
road	-5025
▁sal	-5026
▁eliminate	-5027
izes	-5028
▁imm	-5029
▁Open	-5030
▁components	-5031
iles	-5032
▁6.1	-5033
▁hoped	-5034
▁Impact	-5035
▁Britain	-5036
▁encourage	-5037
▁civilian	-5038
▁mortality	-5039
▁concent	-5040
rag	-5041
kewise	-5042
▁valid	-5043
▁Effects	-5044
▁Program	-5045
▁week	-5046
▁Forty	-5047
▁Integrated	-5048
ape	-5049
▁2002)	-5050
▁Acting	-5051
▁freedoms	-5052
▁operating	-5053
oz	-5054
▁manner	-5055
aring	-5056
▁started	-5057
▁Ty	-5058
▁prec	-5059
▁chemical	-5060
▁household	-5061
▁outstanding	-5062
▁Comments	-5063
geria	-5064
treal	-5065
▁hard	-5066
▁Armen	-5067
▁forum	-5068
▁suppl	-5069
aritime	-5070
▁relationship	-5071
▁manu	-5072
▁supports	-5073
▁Universal	-5074
▁strengthening	-5075
ein	-5076
▁Subcomm	-5077
▁Amendments	-5078
hel	-5079
rah	-5080
oman	-5081
▁marriage	-5082
▁Czech	-5083
▁lower	-5084
UNC	-5085
-26	-5086
▁1/	-5087
▁Ham	-5088
▁fire	-5089
▁sufficient	-5090
▁Nevertheless	-5091
hol	-5092
▁red	-5093
▁doing	-5094
▁inten	-5095
tr	-5096
anz	-5097
▁regulation	-5098
ellow	-5099
tified	-5100
sequent	-5101
▁attacks	-5102
▁surface	-5103
itable	-5104
▁Vic	-5105
▁1993	-5106
▁Nairobi	-5107
▁Montreal	-5108
ET	-5109
▁Kaz	-5110
▁regime	-5111
▁Peru	-5112
▁admin	-5113
▁recon	-5114
▁covers	-5115
▁Coordin	-5116
▁pattern	-5117
.5.	-5118
▁wid	-5119
aining	-5120
▁occas	-5121
actions	-5122
▁correct	-5123
▁relation	-5124
▁minorities	-5125
cer	-5126
▁complaints	-5127
▁nationality	-5128
uds	-5129
oring	-5130
▁female	-5131
▁origin	-5132
▁reflect	-5133
▁students	-5134
▁Committees	-5135
urd	-5136
▁solutions	-5137
▁achievements	-5138
▁duty	-5139
▁renew	-5140
ighting	-5141
▁perpet	-5142
See	-5143
0,000	-5144
▁places	-5145
▁accounting	-5146
riting	-5147
▁indeed	-5148
▁collective	-5149
▁Indeed	-5150
▁almost	-5151
▁vessels	-5152
▁NO	-5153
▁(198	-5154
▁dism	-5155
▁expect	-5156
▁strongly	-5157
▁Respon	-5158
Leste	-5159
▁waste	-5160
▁Presentation	-5161
▁reiter	-5162
▁2000-200	-5163
▁Field	-5164
▁mother	-5165
emporary	-5166
▁release	-5167
ece	-5168
▁Role	-5169
▁Forthcoming	-5170
▁settlements	-5171
▁Qual	-5172
▁target	-5173
▁facilitate	-5174
▁independence	-5175
.3.2	-5176
▁SP	-5177
▁lines	-5178
▁Promoting	-5179
▁...	-5180
▁Drugs	-5181
▁Interim	-5182
▁produce	-5183
/0	-5184
▁arri	-5185
▁economies	-5186
kind	-5187
▁Finally	-5188
emp	-5189
ki	-5190
▁courses	-5191
▁voluntary	-5192
▁Resolutions	-5193
DE	-5194
eav	-5195
unte	-5196
▁fee	-5197
▁Stock	-5198
▁award	-5199
▁definitions	-5200
▁enough	-5201
erce	-5202
unch	-5203
▁REC	-5204
ancing	-5205
rative	-5206
▁late	-5207
▁option	-5208
▁termin	-5209
ruitment	-5210
ugal	-5211
iring	-5212
Dec	-5213
hers	-5214
▁Rome	-5215
▁Costa	-5216
▁struct	-5217
▁Following	-5218
▁admissibility	-5219
▁sixth	-5220
▁insurance	-5221
epal	-5222
▁Denmark	-5223
▁secondary	-5224
▁construction	-5225
▁3.	-5226
▁Inf	-5227
▁cle	-5228
ordan	-5229
▁engine	-5230
41	-5231
▁97	-5232
ylum	-5233
▁dated	-5234
▁delivery	-5235
▁questionnaire	-5236
▁League	-5237
▁prohibited	-5238
-30	-5239
▁Rest	-5240
▁alia	-5241
▁London	-5242
▁Weapons	-5243
▁delay	-5244
▁donors	-5245
▁background	-5246
Add	-5247
ults	-5248
▁Iraqi	-5249
▁ahead	-5250
▁inscribed	-5251
▁Azerbaijan	-5252
ilding	-5253
▁Equality	-5254
▁mor	-5255
anies	-5256
icing	-5257
▁Narco	-5258
▁circum	-5259
apt	-5260
▁esc	-5261
▁Transi	-5262
▁consists	-5263
▁came	-5264
▁Morocco	-5265
▁4:	-5266
▁while	-5267
▁tables	-5268
▁presence	-5269
unis	-5270
▁10.15	-5271
▁unanimously	-5272
▁selected	-5273
LA	-5274
▁OP	-5275
akhstan	-5276
▁indicator	-5277
▁tru	-5278
▁base	-5279
▁Poland	-5280
▁endeav	-5281
▁settlement	-5282
▁Consultations	-5283
▁vill	-5284
▁appointment	-5285
yond	-5286
▁Ear	-5287
▁Possible	-5288
▁Dr	-5289
related	-5290
▁Outcome	-5291
▁obtained	-5292
▁promoting	-5293
ira	-5294
▁(1998),	-5295
▁Forests	-5296
▁violation	-5297
nels	-5298
with	-5299
▁Reaff	-5300
▁Defence	-5301
▁letters	-5302
TIC	-5303
acter	-5304
▁launched	-5305
uador	-5306
▁compe	-5307
formity	-5308
▁racism	-5309
▁beyond	-5310
larations	-5311
▁Governing	-5312
▁IM	-5313
▁aware	-5314
▁territories	-5315
▁Red	-5316
▁2005)	-5317
▁welcomes	-5318
inary	-5319
▁temporary	-5320
▁instalment	-5321
▁consultation	-5322
▁Contributions	-5323
▁hoc	-5324
▁Hung	-5325
▁Admin	-5326
▁price	-5327
ambular	-5328
iteracy	-5329
taining	-5330
EV	-5331
ley	-5332
▁larg	-5333
inance	-5334
tically	-5335
▁destroy	-5336
▁associated	-5337
▁procurement	-5338
▁Unfortunately	-5339
▁globalization	-5340
▁budge	-5341
missions	-5342
▁Effective	-5343
▁takes	-5344
▁Arabic	-5345
▁Statements	-5346
▁Fax	-5347
▁sections	-5348
putes	-5349
▁Rica	-5350
48	-5351
/19	-5352
▁Mrs	-5353
▁weight	-5354
SS	-5355
▁FAO	-5356
▁classi	-5357
▁relative	-5358
▁65	-5359
▁bi	-5360
▁Nic	-5361
▁Exam	-5362
▁ended	-5363
▁growing	-5364
habilitation	-5365
▁earl	-5366
▁erad	-5367
▁pled	-5368
▁Reference	-5369
arc	-5370
oney	-5371
▁bilateral	-5372
▁consumption	-5373
▁applications	-5374
▁emp	-5375
owers	-5376
▁toler	-5377
▁resume	-5378
▁deliber	-5379
▁recovery	-5380
▁replaced	-5381
oph	-5382
▁5.1	-5383
vakia	-5384
ps	-5385
cell	-5386
down	-5387
▁defence	-5388
▁confirmed	-5389
▁(2004)	-5390
/13	-5391
ashing	-5392
▁offer	-5393
lutants	-5394
ruption	-5395
▁Prohib	-5396
▁campaign	-5397
▁preambular	-5398
ECE	-5399
▁ple	-5400
▁alleged	-5401
▁protocol	-5402
/11	-5403
▁Team	-5404
▁Least	-5405
▁decides	-5406
▁multilateral	-5407
.45	-5408
▁produced	-5409
ITR	-5410
▁SB	-5411
▁seek	-5412
▁trac	-5413
▁UNESCO	-5414
abit	-5415
▁IAEA	-5416
▁threats	-5417
▁emission	-5418
-24	-5419
onds	-5420
erusal	-5421
▁Senior	-5422
erusalem	-5423
▁withdrew	-5424
▁Developing	-5425
▁drawn	-5426
▁arising	-5427
▁Independent	-5428
ze	-5429
▁Abu	-5430
▁latter	-5431
▁workshops	-5432
bt	-5433
MENTS	-5434
▁LDCs	-5435
uration	-5436
▁Eurostat	-5437
▁4.1	-5438
▁Operation	-5439
▁Camb	-5440
▁Fact	-5441
▁composition	-5442
▁forthcoming	-5443
▁mut	-5444
avigation	-5445
▁Att	-5446
▁UNITA	-5447
▁Reform	-5448
▁accompl	-5449
▁illegal	-5450
▁mandates	-5451
▁Scientific	-5452
▁Process	-5453
▁industrial	-5454
▁occupation	-5455
closed	-5456
DG	-5457
icit	-5458
zbek	-5459
▁names	-5460
avy	-5461
udi	-5462
uri	-5463
▁invent	-5464
▁understanding	-5465
▁Bl	-5466
▁2.3	-5467
▁Hol	-5468
▁mun	-5469
▁Gran	-5470
500	-5471
irms	-5472
▁WHO	-5473
▁divided	-5474
▁granted	-5475
▁infrastructure	-5476
▁entity	-5477
ORT	-5478
▁Joh	-5479
azard	-5480
fying	-5481
▁Term	-5482
▁lost	-5483
▁permit	-5484
▁expires	-5485
▁Conventions	-5486
hood	-5487
▁operative	-5488
EF	-5489
▁las	-5490
rents	-5491
▁board	-5492
▁Housing	-5493
▁differences	-5494
Pro	-5495
▁Perform	-5496
sidential	-5497
.05	-5498
abled	-5499
clusive	-5500
▁Initiative	-5501
roll	-5502
▁REGUL	-5503
▁Finance	-5504
▁Similar	-5505
39	-5506
▁abst	-5507
▁caused	-5508
▁topics	-5509
▁arrested	-5510
/17	-5511
oud	-5512
▁sil	-5513
ailand	-5514
▁Croatia	-5515
▁reality	-5516
▁writing	-5517
▁Biological	-5518
former	-5519
▁Seminar	-5520
▁constitute	-5521
▁Palestinians	-5522
▁born	-5523
▁Kenya	-5524
▁theme	-5525
▁Independence	-5526
ras	-5527
bour	-5528
mbuds	-5529
ameroon	-5530
▁reading	-5531
▁Ministers	-5532
▁Hall	-5533
gative	-5534
viation	-5535
▁Romania	-5536
▁Voluntary	-5537
-18	-5538
otor	-5539
▁1992	-5540
ONOM	-5541
▁stri	-5542
▁vital	-5543
▁Kazakhstan	-5544
▁transmitted	-5545
oli	-5546
gola	-5547
iqué	-5548
▁sci	-5549
▁Body	-5550
▁punishment	-5551
▁Mu	-5552
ches	-5553
▁cash	-5554
▁contracts	-5555
▁Eng	-5556
▁Appeals	-5557
ills	-5558
cludes	-5559
▁choice	-5560
▁compar	-5561
▁visited	-5562
▁achieving	-5563
▁prisoners	-5564
Is	-5565
▁Lt	-5566
▁Ens	-5567
losing	-5568
▁Where	-5569
▁organs	-5570
tegration	-5571
▁intention	-5572
▁Scope	-5573
▁ECONOM	-5574
▁distin	-5575
▁Developed	-5576
▁responsibility	-5577
ITRAL	-5578
▁Priority	-5579
▁considerable	-5580
▁get	-5581
▁Arbit	-5582
▁Major	-5583
▁intern	-5584
▁Bangladesh	-5585
pling	-5586
▁woman	-5587
/16	-5588
▁Compliance	-5589
▁corrections	-5590
Rev	-5591
▁Guatemala	-5592
▁dang	-5593
▁Estim	-5594
yd	-5595
yan	-5596
▁Bah	-5597
▁concrete	-5598
cribe	-5599
▁Inves	-5600
▁principal	-5601
▁Subcommittee	-5602
24	-5603
▁Local	-5604
▁REGULATION	-5605
ding	-5606
ship	-5607
▁Uzbek	-5608
▁Sector	-5609
rat	-5610
▁64	-5611
▁depri	-5612
▁UNCITRAL	-5613
▁Ministerial	-5614
mp	-5615
-25	-5616
▁4.	-5617
▁Malaysia	-5618
▁likewise	-5619
▁obstacles	-5620
▁maintenance	-5621
pite	-5622
▁opening	-5623
▁religion	-5624
▁stressed	-5625
▁Pat	-5626
Geneva	-5627
▁eight	-5628
-17	-5629
udiciary	-5630
raf	-5631
▁2004)	-5632
▁ir	-5633
▁(3)	-5634
▁product	-5635
tis	-5636
▁rev	-5637
▁urgent	-5638
▁Improving	-5639
▁extremely	-5640
/15	-5641
ATIONAL	-5642
▁avoid	-5643
▁Climate	-5644
inese	-5645
▁radio	-5646
▁Minimum	-5647
▁migrants	-5648
▁consist	-5649
streaming	-5650
▁Alleg	-5651
▁Change	-5652
▁create	-5653
▁exhaust	-5654
▁immediately	-5655
ains	-5656
▁Capital	-5657
▁ECONOMIC	-5658
load	-5659
mises	-5660
Sw	-5661
▁Turk	-5662
▁believ	-5663
▁billion	-5664
▁negative	-5665
▁commission	-5666
▁prostitution	-5667
▁visits	-5668
▁targets	-5669
▁reportedly	-5670
▁squ	-5671
/2004	-5672
inding	-5673
▁Mechan	-5674
▁improvement	-5675
▁Taking	-5676
▁markets	-5677
ashington	-5678
▁Territory	-5679
▁character	-5680
▁involvement	-5681
▁firm	-5682
▁grad	-5683
▁sought	-5684
fications	-5685
▁rejected	-5686
avi	-5687
ita	-5688
▁surve	-5689
▁demonst	-5690
▁Lank	-5691
▁volume	-5692
-13	-5693
/2002	-5694
▁payments	-5695
▁Principles	-5696
▁candidates	-5697
▁Ltd	-5698
▁scale	-5699
▁tools	-5700
▁Performance	-5701
▁2.4	-5702
▁Corpor	-5703
▁convic	-5704
-16	-5705
▁kg	-5706
tingu	-5707
▁Host	-5708
▁nomin	-5709
▁compris	-5710
ifications	-5711
▁Mov	-5712
▁Yet	-5713
▁liqu	-5714
▁soldi	-5715
▁Revised	-5716
▁convened	-5717
PV	-5718
li	-5719
▁Small	-5720
▁dro	-5721
▁oral	-5722
estments	-5723
▁Princip	-5724
▁condition	-5725
▁Ca	-5726
heme	-5727
▁asylum	-5728
▁rather	-5729
▁shared	-5730
Ex	-5731
ario	-5732
▁ago	-5733
ranch	-5734
▁stock	-5735
▁68	-5736
ouses	-5737
▁Order	-5738
▁annexes	-5739
53	-5740
no	-5741
▁66	-5742
▁nine	-5743
▁Period	-5744
▁Yugoslavia	-5745
-0	-5746
▁Il	-5747
▁San	-5748
ruguay	-5749
▁sites	-5750
▁circumstances	-5751
/28	-5752
▁detain	-5753
▁illicit	-5754
▁occurred	-5755
▁$1	-5756
where	-5757
ership	-5758
▁prosec	-5759
▁sample	-5760
▁PAR	-5761
▁Sol	-5762
abitat	-5763
▁Youth	-5764
uela	-5765
▁WTO	-5766
/20	-5767
▁67	-5768
▁Key	-5769
▁uses	-5770
▁Algeria	-5771
▁Steering	-5772
▁unemployment	-5773
ilt	-5774
ameter	-5775
▁percentage	-5776
itim	-5777
▁Sex	-5778
▁pop	-5779
lined	-5780
ircraft	-5781
osystem	-5782
▁declared	-5783
000.	-5784
▁1997.	-5785
▁1998,	-5786
▁corruption	-5787
▁measurement	-5788
▁Har	-5789
▁entities	-5790
▁constraints	-5791
▁util	-5792
issued	-5793
▁officials	-5794
▁net	-5795
▁oil	-5796
▁Provisions	-5797
enez	-5798
▁ever	-5799
▁Lanka	-5800
▁2.5	-5801
enegal	-5802
▁responded	-5803
▁adjournment	-5804
▁distributed	-5805
umed	-5806
aters	-5807
▁tele	-5808
▁earlier	-5809
TEN	-5810
rence	-5811
▁Items	-5812
▁Nepal	-5813
▁impris	-5814
▁Colonial	-5815
▁Reporting	-5816
▁affecting	-5817
▁HR	-5818
▁MEE	-5819
earing	-5820
ecution	-5821
henomen	-5822
▁Altern	-5823
▁Quality	-5824
▁Pollution	-5825
car	-5826
exts	-5827
matic	-5828
prises	-5829
signed	-5830
▁influ	-5831
▁Compon	-5832
▁MEETING	-5833
/29	-5834
▁Ev	-5835
▁grate	-5836
▁across	-5837
▁Chinese	-5838
▁grateful	-5839
.29)	-5840
forced	-5841
▁honour	-5842
▁refugee	-5843
▁permitted	-5844
▁providing	-5845
GR	-5846
STA	-5847
▁encoun	-5848
▁accession	-5849
▁Agriculture	-5850
21	-5851
28	-5852
▁passeng	-5853
egu	-5854
▁purch	-5855
▁Accession	-5856
▁pollution	-5857
.35	-5858
▁Mah	-5859
▁Sev	-5860
▁ship	-5861
▁vision	-5862
▁2010-201	-5863
▁Lebanese	-5864
▁companies	-5865
IK	-5866
UNCIL	-5867
▁Studies	-5868
▁nations	-5869
▁combined	-5870
▁subsequent	-5871
▁ge	-5872
▁Categ	-5873
▁COUNCIL	-5874
▁disputes	-5875
▁Uzbekistan	-5876
▁withdrawal	-5877
-21	-5878
▁Prep	-5879
▁port	-5880
▁Econom	-5881
▁servicing	-5882
WG	-5883
gn	-5884
▁Sch	-5885
▁replies	-5886
▁phenomen	-5887
▁commentary	-5888
27	-5889
▁charge	-5890
▁dimensions	-5891
PP	-5892
▁Armenia	-5893
▁Migration	-5894
▁competent	-5895
oler	-5896
uated	-5897
▁Requests	-5898
▁currency	-5899
lor	-5900
ense	-5901
▁cit	-5902
▁Const	-5903
▁Adopts	-5904
▁strength	-5905
▁Ecuador	-5906
▁reproduced	-5907
rich	-5908
▁acknow	-5909
▁Oversight	-5910
▁5:	-5911
▁makes	-5912
▁engaged	-5913
▁oversight	-5914
▁terrorists	-5915
▁enforcement	-5916
▁Sing	-5917
▁Penal	-5918
▁belong	-5919
mbudsman	-5920
▁der	-5921
▁kept	-5922
aching	-5923
▁little	-5924
▁Emergency	-5925
▁adjustments	-5926
ko	-5927
dec	-5928
ead	-5929
▁rise	-5930
▁scientific	-5931
▁Trafficking	-5932
aci	-5933
▁Require	-5934
▁Equal	-5935
▁located	-5936
DS	-5937
-29	-5938
▁Web	-5939
/2005	-5940
▁completion	-5941
.40	-5942
▁sw	-5943
▁judge	-5944
▁efficiency	-5945
▁Philippines	-5946
45	-5947
▁became	-5948
▁slight	-5949
▁Thailand	-5950
▁incidents	-5951
kh	-5952
holm	-5953
plom	-5954
▁CED	-5955
arent	-5956
▁lamp	-5957
ployed	-5958
▁(2006)	-5959
aptation	-5960
FC	-5961
▁assign	-5962
▁coverage	-5963
▁Integration	-5964
▁mid	-5965
endar	-5966
▁Inte	-5967
▁Vari	-5968
▁Racial	-5969
▁Tel	-5970
▁neigh	-5971
▁wished	-5972
/21	-5973
▁COP	-5974
▁log	-5975
ercury	-5976
▁Detail	-5977
▁confirm	-5978
▁message	-5979
▁science	-5980
▁calculated	-5981
ago	-5982
atar	-5983
▁highlighted	-5984
/2001	-5985
ental	-5986
▁away	-5987
▁Center	-5988
▁injured	-5989
▁measured	-5990
▁tal	-5991
reased	-5992
▁Among	-5993
▁marked	-5994
▁focused	-5995
ENT	-5996
iving	-5997
PT	-5998
SG	-5999
ACT	-6000
▁Bet	-6001
▁Ren	-6002
▁Upd	-6003
etary	-6004
▁likely	-6005
▁reviews	-6006
▁Prohibition	-6007
▁headquarters	-6008
▁STA	-6009
prise	-6010
▁Free	-6011
ynamic	-6012
▁merits	-6013
▁offered	-6014
▁emerging	-6015
▁methodology	-6016
▁71	-6017
▁degrad	-6018
▁addressing	-6019
▁export	-6020
▁pending	-6021
▁deadline	-6022
▁sixtieth	-6023
.13	-6024
lim	-6025
aint	-6026
▁ask	-6027
▁yes	-6028
▁recognize	-6029
Sec	-6030
resh	-6031
General	-6032
islation	-6033
▁Against	-6034
61	-6035
ME	-6036
icip	-6037
▁subs	-6038
▁Overall	-6039
TP	-6040
ARY	-6041
bon	-6042
/...	-6043
ights	-6044
ulgaria	-6045
▁overview	-6046
vii	-6047
resp	-6048
▁Yes	-6049
changed	-6050
▁Now	-6051
▁Angola	-6052
▁linked	-6053
enezuela	-6054
▁Building	-6055
▁Tunis	-6056
▁Investig	-6057
▁decrease	-6058
atell	-6059
ommod	-6060
▁spir	-6061
▁risks	-6062
▁simply	-6063
▁Company	-6064
▁resolve	-6065
▁industry	-6066
▁guideline	-6067
awi	-6068
▁98	-6069
▁da	-6070
SA	-6071
agn	-6072
tes	-6073
▁REP	-6074
▁elig	-6075
irming	-6076
▁Serbia	-6077
▁limits	-6078
▁judgement	-6079
▁suggestion	-6080
▁suggestions	-6081
35	-6082
.6.	-6083
aim	-6084
▁Ber	-6085
▁Brief	-6086
▁tenth	-6087
▁mainly	-6088
▁Cameroon	-6089
TED	-6090
▁69	-6091
▁embar	-6092
▁illust	-6093
▁thousands	-6094
67	-6095
uls	-6096
.4.,	-6097
abil	-6098
rade	-6099
versity	-6100
IOS	-6101
▁Rad	-6102
▁Sel	-6103
▁bank	-6104
▁going	-6105
▁Census	-6106
▁humanity	-6107
▁Consequently	-6108
-22	-6109
GRA	-6110
▁Five	-6111
▁page	-6112
▁carriage	-6113
▁communiqué	-6114
▁Mandate	-6115
▁Consolid	-6116
▁Diversity	-6117
.1)	-6118
ats	-6119
▁78	-6120
▁device	-6121
▁doc	-6122
phone	-6123
▁Granting	-6124
▁claimant	-6125
▁encountered	-6126
/3,	-6127
▁flex	-6128
session	-6129
▁budgets	-6130
▁minutes	-6131
▁perpetr	-6132
▁Exchange	-6133
▁Reissued	-6134
▁solidarity	-6135
▁certificate	-6136
▁(6	-6137
▁8,	-6138
▁Abst	-6139
▁flows	-6140
▁Private	-6141
▁construc	-6142
▁supra	-6143
▁actual	-6144
▁Material	-6145
▁interpretation	-6146
/52	-6147
tine	-6148
venia	-6149
▁destroyed	-6150
ithu	-6151
▁calls	-6152
▁dismiss	-6153
▁otherwise	-6154
Act	-6155
▁Alban	-6156
▁preven	-6157
▁disaster	-6158
▁employed	-6159
▁outcomes	-6160
▁Stockholm	-6161
▁declarations	-6162
▁mach	-6163
▁Chang	-6164
▁Accounts	-6165
▁UNAM	-6166
▁reduc	-6167
▁satis	-6168
▁6.	-6169
ises	-6170
inated	-6171
▁Power	-6172
▁Alleged	-6173
▁condemn	-6174
▁diversity	-6175
▁Educational	-6176
▁subprogramme	-6177
:*	-6178
Ind	-6179
▁Ach	-6180
essor	-6181
olute	-6182
▁aims	-6183
▁weeks	-6184
▁executive	-6185
▁authorized	-6186
rant	-6187
▁Does	-6188
▁rapid	-6189
▁reaff	-6190
▁everyone	-6191
ush	-6192
▁Bal	-6193
▁Manu	-6194
▁Account	-6195
▁legitim	-6196
▁represents	-6197
CES	-6198
▁bul	-6199
▁slow	-6200
▁Daily	-6201
▁Person	-6202
▁decide	-6203
▁parents	-6204
gle	-6205
▁Sri	-6206
▁try	-6207
▁hosp	-6208
▁Elections	-6209
▁reintegration	-6210
inc	-6211
ites	-6212
▁Mic	-6213
▁Scale	-6214
▁fulfil	-6215
▁Calls	-6216
▁cooperate	-6217
▁EM	-6218
arag	-6219
▁tro	-6220
ulsion	-6221
aternal	-6222
▁85	-6223
▁Has	-6224
arily	-6225
▁immun	-6226
▁imped	-6227
▁facing	-6228
▁remedies	-6229
▁extension	-6230
An	-6231
fully	-6232
▁wound	-6233
▁coming	-6234
▁forced	-6235
▁square	-6236
▁IDB	-6237
▁priv	-6238
ortion	-6239
▁Jordan	-6240
▁Membership	-6241
▁manufacture	-6242
▁recruitment	-6243
ull	-6244
▁XX	-6245
▁Jean	-6246
▁Trend	-6247
▁thematic	-6248
▁deployment	-6249
CC	-6250
ura	-6251
iding	-6252
▁OIOS	-6253
▁histor	-6254
▁Disaster	-6255
▁Component	-6256
▁signature	-6257
▁understand	-6258
▁chair	-6259
▁degree	-6260
▁disapp	-6261
▁Adviser	-6262
.18	-6263
/27	-6264
▁Lat	-6265
▁lic	-6266
▁donor	-6267
▁regul	-6268
apore	-6269
▁Settlements	-6270
▁News	-6271
▁Output	-6272
▁liquid	-6273
oa	-6274
▁Reserv	-6275
▁Challen	-6276
▁restrictions	-6277
▁Editor	-6278
▁appoint	-6279
/30	-6280
bert	-6281
▁Ban	-6282
▁Pan	-6283
▁company	-6284
▁Mohammad	-6285
▁Submission	-6286
▁5.	-6287
▁Kar	-6288
▁Ram	-6289
▁lib	-6290
▁safe	-6291
▁Ghana	-6292
▁lamps	-6293
▁Jerusalem	-6294
▁Washington	-6295
▁proportion	-6296
▁Coordinator	-6297
▁abol	-6298
▁shows	-6299
▁Record	-6300
▁Venezuela	-6301
rown	-6302
▁00	-6303
▁ww	-6304
▁Food	-6305
▁Conduct	-6306
▁diameter	-6307
▁minority	-6308
rs	-6309
▁sm	-6310
▁Judge	-6311
▁texts	-6312
ography	-6313
▁normal	-6314
▁heading	-6315
▁imposed	-6316
ival	-6317
▁easy	-6318
▁acced	-6319
odities	-6320
▁Former	-6321
▁extend	-6322
▁absence	-6323
▁contributed	-6324
iry	-6325
mon	-6326
▁innov	-6327
▁Conclusions	-6328
▁Globalization	-6329
▁6:	-6330
▁CR	-6331
▁har	-6332
/2006	-6333
▁survi	-6334
▁verification	-6335
lavery	-6336
▁dates	-6337
▁outlined	-6338
▁examination	-6339
▁traditional	-6340
ox	-6341
▁enhance	-6342
▁soldiers	-6343
▁allocated	-6344
▁acceptance	-6345
.14	-6346
▁www	-6347
▁None	-6348
▁danger	-6349
▁grounds	-6350
▁Narcotic	-6351
▁distance	-6352
▁Continuation	-6353
▁fa	-6354
▁book	-6355
▁aggression	-6356
▁sk	-6357
▁SOC	-6358
▁Time	-6359
▁brac	-6360
▁signs	-6361
▁deliberations	-6362
▁EN	-6363
▁dil	-6364
68	-6365
.50	-6366
auriti	-6367
▁continu	-6368
▁Overview	-6369
▁rehabilitation	-6370
▁briefly	-6371
ricultural	-6372
▁($	-6373
▁Indian	-6374
ena	-6375
atal	-6376
▁amb	-6377
uster	-6378
▁Ahmed	-6379
▁Congo	-6380
▁announced	-6381
-28	-6382
itted	-6383
▁Recogn	-6384
▁ballot	-6385
▁Culture	-6386
▁suffered	-6387
▁corrected	-6388
▁witnesses	-6389
▁Tog	-6390
▁ban	-6391
▁Erad	-6392
aneous	-6393
▁filed	-6394
▁things	-6395
▁Factors	-6396
▁resulted	-6397
▁Ombudsman	-6398
▁CC	-6399
▁River	-6400
▁significantly	-6401
90	-6402
▁Gre	-6403
▁1996.	-6404
▁cease	-6405
▁awards	-6406
portionment	-6407
▁association	-6408
▁imprisonment	-6409
2(	-6410
ived	-6411
▁Legislative	-6412
▁cod	-6413
▁Roma	-6414
▁Includes	-6415
ographical	-6416
yers	-6417
▁bene	-6418
▁briefings	-6419
▁Recommended	-6420
▁san	-6421
▁Here	-6422
▁Paper	-6423
▁subsid	-6424
▁annexed	-6425
▁accommod	-6426
▁possibility	-6427
▁1.2	-6428
▁sides	-6429
▁eighth	-6430
▁difference	-6431
▁WOR	-6432
▁mob	-6433
▁Name	-6434
▁path	-6435
▁Transboundary	-6436
En	-6437
.19	-6438
TUR	-6439
▁island	-6440
▁Portugal	-6441
▁suffering	-6442
ops	-6443
▁cut	-6444
times	-6445
France	-6446
▁fruit	-6447
▁Jamaica	-6448
▁Workshop	-6449
▁constant	-6450
▁effectively	-6451
bre	-6452
▁vir	-6453
▁UNMIK	-6454
Germany	-6455
▁Trends	-6456
▁Dialogue	-6457
▁Procurement	-6458
ANS	-6459
iro	-6460
pre	-6461
▁House	-6462
Article	-6463
▁Southern	-6464
▁creation	-6465
arts	-6466
▁1.6	-6467
▁prepar	-6468
▁recognition	-6469
▁Requirements	-6470
BC	-6471
na	-6472
▁You	-6473
▁custom	-6474
▁consent	-6475
▁outline	-6476
▁withdrawn	-6477
lin	-6478
water	-6479
▁defend	-6480
▁spirit	-6481
▁absolute	-6482
▁appropriation	-6483
▁presentations	-6484
▁Atomic	-6485
▁Cambod	-6486
▁UNITAR	-6487
7:	-6488
ger	-6489
ourg	-6490
▁3.2	-6491
▁awa	-6492
▁dealt	-6493
▁users	-6494
▁Hungary	-6495
▁unac	-6496
▁involving	-6497
▁allocation	-6498
TIES	-6499
▁weak	-6500
▁quanti	-6501
▁Addendum	-6502
italization	-6503
▁substantial	-6504
oming	-6505
▁INTER	-6506
▁testing	-6507
tian	-6508
asters	-6509
▁designed	-6510
▁Currently	-6511
▁increasingly	-6512
tise	-6513
▁CEDAW	-6514
ameters	-6515
▁marine	-6516
▁stands	-6517
▁judiciary	-6518
▁Relationship	-6519
▁syn	-6520
▁whom	-6521
▁2009,	-6522
▁charg	-6523
▁station	-6524
▁120	-6525
▁money	-6526
▁failed	-6527
auritius	-6528
▁Conditions	-6529
SEQ	-6530
▁(7	-6531
▁Bh	-6532
itig	-6533
mosp	-6534
elled	-6535
▁Chris	-6536
▁emphasized	-6537
▁commissions	-6538
za	-6539
range	-6540
▁determine	-6541
▁disabilities	-6542
▁apportionment	-6543
▁clarification	-6544
human	-6545
▁equally	-6546
▁Category	-6547
▁execution	-6548
▁Preparations	-6549
ots	-6550
▁mis	-6551
▁Tanz	-6552
unteers	-6553
istrative	-6554
▁Professor	-6555
tel	-6556
▁300	-6557
▁fair	-6558
▁Cross	-6559
amation	-6560
▁performed	-6561
▁participating	-6562
CPR	-6563
▁Su	-6564
▁Pay	-6565
▁tank	-6566
▁sense	-6567
▁CONTEN	-6568
▁incident	-6569
▁structures	-6570
▁Last	-6571
▁UNIF	-6572
▁severe	-6573
▁offence	-6574
▁variety	-6575
▁resolved	-6576
▁5.2	-6577
▁Taj	-6578
▁UNSEQ	-6579
▁clean	-6580
IF	-6581
.5.1	-6582
▁Unless	-6583
▁phenomenon	-6584
xic	-6585
▁73	-6586
iaison	-6587
▁CONTENTS	-6588
▁allowance	-6589
▁notification	-6590
▁IT	-6591
▁preced	-6592
▁eligible	-6593
▁seminars	-6594
gun	-6595
▁76	-6596
fers	-6597
xemb	-6598
▁Age	-6599
itage	-6600
ancies	-6601
umerous	-6602
▁depart	-6603
▁benefic	-6604
▁regularly	-6605
▁encouraging	-6606
”;	-6607
emy	-6608
ishe	-6609
force	-6610
▁1991	-6611
▁2008)	-6612
▁Rural	-6613
▁elabor	-6614
▁complaint	-6615
▁br	-6616
▁Occ	-6617
house	-6618
iable	-6619
▁Lithu	-6620
▁liber	-6621
azardous	-6622
▁seventh	-6623
▁detained	-6624
80	-6625
law	-6626
room	-6627
▁race	-6628
▁refers	-6629
▁leading	-6630
▁initiated	-6631
▁supplement	-6632
▁educational	-6633
▁Mus	-6634
▁RID	-6635
▁Sug	-6636
.4.2	-6637
▁ISO	-6638
▁Jos	-6639
▁Khal	-6640
▁Test	-6641
▁acces	-6642
▁audited	-6643
▁devices	-6644
▁nothing	-6645
▁visible	-6646
▁Congress	-6647
▁controls	-6648
▁mobilization	-6649
CL	-6650
uate	-6651
▁devo	-6652
▁norms	-6653
isheries	-6654
▁USD	-6655
▁Hand	-6656
▁Mold	-6657
▁Explo	-6658
▁setting	-6659
▁Institution	-6660
▁Transitional	-6661
cel	-6662
▁duties	-6663
▁Judicial	-6664
▁Tanzania	-6665
fare	-6666
▁Aud	-6667
▁ign	-6668
ander	-6669
iform	-6670
▁doubt	-6671
▁10,	-6672
cluded	-6673
▁SOCIAL	-6674
▁assigned	-6675
▁conformity	-6676
▁Identification	-6677
eds	-6678
▁quite	-6679
grad	-6680
▁Arabia	-6681
▁census	-6682
▁nation	-6683
▁minister	-6684
▁AR	-6685
utri	-6686
▁Based	-6687
▁brake	-6688
onstruction	-6689
▁Individual	-6690
▁confidence	-6691
▁guarantees	-6692
uting	-6693
vance	-6694
▁Objec	-6695
▁century	-6696
▁aircraft	-6697
▁Maintenance	-6698
Al	-6699
Rus	-6700
▁cas	-6701
▁daily	-6702
▁detainees	-6703
AF	-6704
▁z	-6705
ORD	-6706
▁John	-6707
▁improving	-6708
▁transactions	-6709
charge	-6710
▁Langu	-6711
▁aimed	-6712
ribunals	-6713
xembourg	-6714
▁Singapore	-6715
▁acceptable	-6716
▁appreciate	-6717
▁collaboration	-6718
▁considerations	-6719
Can	-6720
OPS	-6721
▁(5	-6722
▁74	-6723
▁Gas	-6724
▁mal	-6725
▁pic	-6726
▁diss	-6727
▁Recent	-6728
▁regret	-6729
▁Sixtieth	-6730
ja	-6731
uda	-6732
▁diam	-6733
▁gave	-6734
▁qual	-6735
ulsory	-6736
▁Associ	-6737
▁Observ	-6738
▁notice	-6739
olerance	-6740
▁Initial	-6741
▁Position	-6742
▁Treatment	-6743
▁experiences	-6744
▁Facilitation	-6745
▁introduction	-6746
16	-6747
▁Wel	-6748
▁hor	-6749
▁SUMM	-6750
enting	-6751
▁Extra	-6752
▁Tajik	-6753
▁corpor	-6754
ato	-6755
rier	-6756
GRAMM	-6757
▁advis	-6758
▁unique	-6759
▁reforms	-6760
▁distingu	-6761
▁emphasis	-6762
▁identify	-6763
▁identity	-6764
SO	-6765
▁depos	-6766
▁failure	-6767
79	-6768
IES	-6769
Pre	-6770
elt	-6771
lying	-6772
▁symb	-6773
▁Without	-6774
▁advance	-6775
▁Bon	-6776
▁Minor	-6777
▁Zambia	-6778
▁deliver	-6779
▁dig	-6780
/2000	-6781
istrar	-6782
▁timely	-6783
▁Pension	-6784
▁Expendit	-6785
▁Yearbook	-6786
awa	-6787
lock	-6788
▁112	-6789
▁fri	-6790
posal	-6791
▁Slovenia	-6792
▁Cre	-6793
▁Round	-6794
▁charges	-6795
▁dealing	-6796
▁repeated	-6797
▁guarantee	-6798
32	-6799
▁4.2	-6800
▁Have	-6801
▁2006)	-6802
▁worked	-6803
▁Reaffirming	-6804
▁Arms	-6805
▁Tour	-6806
▁contents	-6807
▁mil	-6808
▁Bulgaria	-6809
▁2000-2001	-6810
▁Economics	-6811
▁selection	-6812
▁unilateral	-6813
▁availability	-6814
▁premises	-6815
▁sustained	-6816
▁Procedures	-6817
sell	-6818
ster	-6819
▁(15	-6820
▁FDI	-6821
▁tot	-6822
▁Rail	-6823
▁VIII	-6824
▁fall	-6825
▁teac	-6826
▁1995)	-6827
▁Level	-6828
▁built	-6829
▁monitor	-6830
▁usually	-6831
▁ow	-6832
▁Men	-6833
▁gap	-6834
▁Salv	-6835
▁Views	-6836
▁headl	-6837
▁Medium	-6838
▁Nicarag	-6839
▁counter	-6840
▁Officers	-6841
▁brackets	-6842
ductory	-6843
munition	-6844
▁largest	-6845
▁Prepared	-6846
fire	-6847
▁UNR	-6848
▁Publ	-6849
termin	-6850
▁Forces	-6851
▁denied	-6852
atellite	-6853
iversary	-6854
▁meaning	-6855
▁........	-6856
▁sanitation	-6857
ker	-6858
enue	-6859
▁imper	-6860
▁highly	-6861
▁Mohamed	-6862
▁examined	-6863
▁Corruption	-6864
▁EUR	-6865
▁reb	-6866
Russian	-6867
ressive	-6868
umbered	-6869
▁unable	-6870
▁expanded	-6871
sc	-6872
COP	-6873
rgy	-6874
ocra	-6875
▁self	-6876
▁tool	-6877
leventh	-6878
▁colour	-6879
▁package	-6880
▁Policies	-6881
▁Mauritius	-6882
▁Much	-6883
▁city	-6884
istered	-6885
▁powers	-6886
▁transit	-6887
▁Response	-6888
MO	-6889
/51	-6890
▁End	-6891
▁map	-6892
▁dign	-6893
▁Compar	-6894
▁employees	-6895
▁generations	-6896
oles	-6897
▁tun	-6898
▁Supp	-6899
▁pour	-6900
vereign	-6901
▁Assist	-6902
▁SUMMARY	-6903
▁register	-6904
▁provisional	-6905
▁MO	-6906
ager	-6907
zing	-6908
▁Hel	-6909
▁ratio	-6910
▁Decree	-6911
▁aspect	-6912
va	-6913
▁Mun	-6914
▁summit	-6915
▁Movement	-6916
▁PROGRAMM	-6917
▁sampling	-6918
▁sovereign	-6919
New	-6920
wealth	-6921
▁prepare	-6922
though	-6923
▁Market	-6924
▁Examples	-6925
▁Maritime	-6926
▁Conferences	-6927
29	-6928
▁NPT	-6929
▁1997,	-6930
▁While	-6931
▁instruc	-6932
▁interview	-6933
▁Commercial	-6934
▁Luxembourg	-6935
▁FR	-6936
teen	-6937
ught	-6938
▁cla	-6939
orage	-6940
▁died	-6941
sidency	-6942
.3.3	-6943
▁CIS	-6944
uable	-6945
▁Stri	-6946
▁Conflic	-6947
▁ecosystem	-6948
▁agriculture	-6949
▁legislation	-6950
▁3/	-6951
▁MON	-6952
▁outlays	-6953
lder	-6954
▁inser	-6955
▁committees	-6956
38	-6957
▁7:	-6958
uras	-6959
▁José	-6960
orders	-6961
ritish	-6962
▁Abdel	-6963
▁79	-6964
▁(10	-6965
▁3.5	-6966
▁Sir	-6967
▁reven	-6968
▁Cambodia	-6969
▁Secondly	-6970
▁staffing	-6971
▁combating	-6972
▁seriously	-6973
▁determination	-6974
HR	-6975
rgyz	-6976
▁sale	-6977
▁tend	-6978
▁Green	-6979
▁quarter	-6980
▁diseases	-6981
▁Challenges	-6982
▁guaranteed	-6983
▁Commonwealth	-6984
Pa	-6985
FOR	-6986
aso	-6987
▁95	-6988
▁Chad	-6989
Actual	-6990
▁modern	-6991
▁relates	-6992
cles	-6993
▁(4)	-6994
▁Cop	-6995
ridge	-6996
▁10.20	-6997
▁behind	-6998
Aust	-6999
▁Qatar	-7000
▁front	-7001
▁stress	-7002
▁widely	-7003
▁impacts	-7004
▁filament	-7005
▁certainly	-7006
ham	-7007
▁(9	-7008
▁105	-7009
▁Guide	-7010
▁whose	-7011
▁Oceans	-7012
▁Target	-7013
▁safegu	-7014
▁Regular	-7015
▁unaccept	-7016
▁Organisation	-7017
▁establishing	-7018
▁TRA	-7019
▁cust	-7020
ivalent	-7021
▁Moldova	-7022
▁holding	-7023
ming	-7024
▁11,	-7025
ansion	-7026
▁serving	-7027
UT	-7028
empt	-7029
▁75,	-7030
▁Rod	-7031
▁Urban	-7032
▁defer	-7033
▁motor	-7034
▁Explan	-7035
▁themes	-7036
▁thousand	-7037
43	-7038
oor	-7039
oul	-7040
table	-7041
▁begun	-7042
▁Alliance	-7043
▁carrying	-7044
▁considers	-7045
▁parameters	-7046
▁Composition	-7047
69	-7048
▁"6	-7049
▁1)	-7050
egro	-7051
▁ESC	-7052
▁Top	-7053
iques	-7054
▁ideas	-7055
▁update	-7056
location	-7057
▁Despite	-7058
▁interpretative	-7059
uk	-7060
▁fat	-7061
▁1995.	-7062
▁abuse	-7063
▁affect	-7064
▁Medical	-7065
▁Periodic	-7066
▁Registrar	-7067
▁worldwide	-7068
▁Strategies	-7069
▁allegations	-7070
22	-7071
rey	-7072
otel	-7073
tially	-7074
▁Study	-7075
▁grave	-7076
▁British	-7077
▁embargo	-7078
▁efficient	-7079
▁existence	-7080
▁Governance	-7081
OVIC	-7082
ction	-7083
▁Barb	-7084
▁mere	-7085
igence	-7086
▁1990.	-7087
▁UNOPS	-7088
▁copies	-7089
▁served	-7090
▁appears	-7091
▁finance	-7092
▁extensive	-7093
▁Type	-7094
Canada	-7095
▁obvious	-7096
▁Salvador	-7097
▁specifically	-7098
yal	-7099
▁Sugges	-7100
▁curric	-7101
▁deeply	-7102
▁search	-7103
missible	-7104
▁inventory	-7105
▁adjustment	-7106
▁internally	-7107
00.	-7108
oma	-7109
▁7.	-7110
case	-7111
▁lay	-7112
issau	-7113
mitting	-7114
▁devoted	-7115
▁12,	-7116
raint	-7117
▁latest	-7118
▁budgetary	-7119
▁Tajikistan	-7120
▁capacities	-7121
▁8.	-7122
▁(12	-7123
▁GDP	-7124
ighty	-7125
▁passed	-7126
▁exception	-7127
▁Signatures	-7128
▁completely	-7129
▁processing	-7130
▁sponsoring	-7131
▁supporting	-7132
▁Trial	-7133
▁Contract	-7134
CB	-7135
ades	-7136
▁(16	-7137
▁boys	-7138
▁Enter	-7139
▁Bru	-7140
▁sound	-7141
▁Recommends	-7142
▁accordingly	-7143
▁transferred	-7144
mail	-7145
stein	-7146
▁links	-7147
▁quick	-7148
▁worth	-7149
▁mankind	-7150
▁immediate	-7151
▁ministerial	-7152
▁917	-7153
▁pra	-7154
▁Franc	-7155
▁works	-7156
SD	-7157
▁Ki	-7158
claim	-7159
▁Transfer	-7160
▁networks	-7161
▁enjoyment	-7162
▁ourselves	-7163
▁Organizations	-7164
▁identification	-7165
wan	-7166
▁1.4	-7167
▁CES	-7168
icated	-7169
▁heavy	-7170
▁Latvia	-7171
▁played	-7172
▁deterior	-7173
▁extradition	-7174
eh	-7175
▁9,	-7176
▁XI	-7177
abwe	-7178
▁CRC	-7179
▁mix	-7180
▁burd	-7181
▁town	-7182
▁Ocean	-7183
▁hearing	-7184
▁liberty	-7185
▁Suppression	-7186
Mal	-7187
ruel	-7188
▁idea	-7189
imbabwe	-7190
▁(2001)	-7191
▁inside	-7192
pan	-7193
ched	-7194
▁sets	-7195
▁dispute	-7196
▁install	-7197
▁evaluations	-7198
9:	-7199
ATE	-7200
Euro	-7201
CEFACT	-7202
▁Allow	-7203
▁Appeal	-7204
▁features	-7205
▁Notification	-7206
4:	-7207
▁6.8	-7208
▁drugs	-7209
▁Groups	-7210
▁Slovakia	-7211
Am	-7212
.7.	-7213
rogen	-7214
▁Benin	-7215
▁analy	-7216
▁behavi	-7217
▁dynamic	-7218
▁associations	-7219
oty	-7220
▁500	-7221
▁PRES	-7222
▁10.30	-7223
▁cargo	-7224
▁simple	-7225
▁enhanced	-7226
▁undermin	-7227
▁Lithuania	-7228
▁unchanged	-7229
▁containing	-7230
▁enterprises	-7231
▁Subsequently	-7232
▁unacceptable	-7233
▁88	-7234
lege	-7235
▁Dep	-7236
▁Whole	-7237
▁pregn	-7238
▁classes	-7239
▁specify	-7240
▁Nicaragua	-7241
▁eradication	-7242
ques	-7243
▁Dav	-7244
acity	-7245
▁Once	-7246
▁cell	-7247
▁tour	-7248
rating	-7249
▁Clear	-7250
▁objects	-7251
▁Domestic	-7252
▁learning	-7253
ason	-7254
▁Acad	-7255
▁German	-7256
▁Kyrgyz	-7257
▁Funding	-7258
▁petition	-7259
▁Eradication	-7260
Par	-7261
.1.,	-7262
▁Met	-7263
▁UNRWA	-7264
▁mutual	-7265
▁Results	-7266
▁God	-7267
▁1540	-7268
▁Lead	-7269
▁Greece	-7270
▁Prison	-7271
▁Russia	-7272
▁dignity	-7273
haps	-7274
▁Pal	-7275
▁stages	-7276
▁Efforts	-7277
▁Senegal	-7278
▁Systems	-7279
▁PROGRAMME	-7280
-31	-7281
HRC	-7282
▁110	-7283
▁55/25,	-7284
▁endeavour	-7285
51	-7286
PS	-7287
inery	-7288
▁stay	-7289
▁vary	-7290
▁green	-7291
▁stake	-7292
▁tanks	-7293
▁officer	-7294
.55	-7295
aka	-7296
tar	-7297
atri	-7298
▁faced	-7299
▁Points	-7300
▁Request	-7301
▁annually	-7302
▁addresses	-7303
▁finalized	-7304
▁Volunteers	-7305
▁constructive	-7306
roc	-7307
▁EX	-7308
burg	-7309
▁scen	-7310
Japan	-7311
cepts	-7312
erend	-7313
plies	-7314
uling	-7315
Bissau	-7316
▁Hague	-7317
▁Yemen	-7318
angible	-7319
▁RECORD	-7320
▁decade	-7321
▁respective	-7322
look	-7323
▁Tow	-7324
▁Symb	-7325
▁went	-7326
▁Point	-7327
▁teams	-7328
▁happen	-7329
▁exports	-7330
▁sustain	-7331
▁Participants	-7332
isk	-7333
back	-7334
iens	-7335
kina	-7336
reet	-7337
▁6.5	-7338
▁instance	-7339
iy	-7340
alle	-7341
iers	-7342
uthors	-7343
▁Saudi	-7344
▁Organic	-7345
▁ep	-7346
pped	-7347
▁Care	-7348
▁else	-7349
▁Armed	-7350
without	-7351
▁complement	-7352
▁Disabilities	-7353
72	-7354
▁83	-7355
atform	-7356
oration	-7357
▁Island	-7358
▁UNMOVIC	-7359
▁circulated	-7360
▁Saf	-7361
▁poss	-7362
▁corresp	-7363
▁collected	-7364
FP	-7365
SR	-7366
Sp	-7367
END	-7368
▁Os	-7369
ocks	-7370
▁1.5	-7371
▁5.4	-7372
▁sure	-7373
▁urge	-7374
▁Monten	-7375
▁Related	-7376
▁Facility	-7377
▁division	-7378
▁resident	-7379
▁hung	-7380
▁lists	-7381
▁Respect	-7382
▁District	-7383
▁occasion	-7384
GC	-7385
aret	-7386
▁5.3	-7387
▁Enc	-7388
ijing	-7389
▁breakdown	-7390
▁suspended	-7391
ares	-7392
▁Was	-7393
▁farm	-7394
▁Sales	-7395
▁fixed	-7396
reasing	-7397
▁Pollutants	-7398
▁Spe	-7399
▁Proper	-7400
ervation	-7401
▁Tourism	-7402
▁Tunisia	-7403
▁reconciliation	-7404
.)	-7405
66	-7406
▁Ib	-7407
kers	-7408
▁cities	-7409
▁launch	-7410
▁engagement	-7411
▁ax	-7412
erated	-7413
▁1996,	-7414
▁parent	-7415
▁substitute	-7416
▁prosecution	-7417
23	-7418
get	-7419
▁Tok	-7420
uries	-7421
▁Coal	-7422
▁competition	-7423
▁euro	-7424
▁gives	-7425
ourable	-7426
▁Persistent	-7427
▁navigation	-7428
▁formulation	-7429
ExB	-7430
▁SC	-7431
quiry	-7432
▁homes	-7433
▁compared	-7434
▁Montenegro	-7435
vements	-7436
▁Sexual	-7437
▁manual	-7438
▁Uruguay	-7439
▁wording	-7440
▁residence	-7441
DR	-7442
GE	-7443
▁4.3	-7444
▁Vir	-7445
ceans	-7446
rahim	-7447
▁Determin	-7448
▁overcome	-7449
▁nationals	-7450
▁compulsory	-7451
▁Revitalization	-7452
St	-7453
CER	-7454
▁DC	-7455
▁Ju	-7456
▁(14	-7457
▁10:	-7458
▁Pot	-7459
▁10.05	-7460
▁exped	-7461
▁stead	-7462
▁advant	-7463
▁object	-7464
▁formula	-7465
▁transfers	-7466
▁Arbitration	-7467
1:	-7468
/50	-7469
▁Tob	-7470
▁Faso	-7471
risons	-7472
▁moved	-7473
▁analys	-7474
Revision	-7475
▁charged	-7476
▁morning	-7477
▁surveys	-7478
▁Multilateral	-7479
▁afford	-7480
▁pursued	-7481
ican	-7482
▁Obl	-7483
eless	-7484
icipal	-7485
▁INTERN	-7486
▁Changes	-7487
▁reflects	-7488
▁explained	-7489
ocide	-7490
reoty	-7491
▁wind	-7492
▁inequ	-7493
▁controll	-7494
▁IF	-7495
oting	-7496
▁ADOP	-7497
▁Goal	-7498
▁elimination	-7499
8:	-7500
/14	-7501
mer	-7502
▁oppos	-7503
▁unless	-7504
▁equivalent	-7505
▁vulnerability	-7506
band	-7507
▁ICP	-7508
▁MDG	-7509
▁kil	-7510
▁Carn	-7511
▁frag	-7512
olivia	-7513
entions	-7514
erendum	-7515
▁funded	-7516
aternity	-7517
▁Problem	-7518
▁Practice	-7519
▁offences	-7520
▁Assistant	-7521
▁acknowled	-7522
▁anniversary	-7523
-01	-7524
▁8:	-7525
▁99	-7526
▁Fij	-7527
urban	-7528
▁Design	-7529
▁exceeding	-7530
▁expertise	-7531
és	-7532
int	-7533
▁Mc	-7534
.157	-7535
hiri	-7536
tify	-7537
▁150	-7538
graph	-7539
.2/56/	-7540
▁2007)	-7541
▁Avail	-7542
▁Accept	-7543
ellowship	-7544
▁Accounting	-7545
▁households	-7546
▁appointments	-7547
▁accountability	-7548
▁IND	-7549
▁EMEP	-7550
▁Immun	-7551
▁grant	-7552
▁balances	-7553
▁numerous	-7554
▁Construction	-7555
▁Parliamentary	-7556
▁art	-7557
.2/57/	-7558
▁ICCPR	-7559
▁Achiev	-7560
▁Victims	-7561
▁starting	-7562
▁stations	-7563
▁adaptation	-7564
MS	-7565
rup	-7566
▁2)	-7567
ibia	-7568
▁MIN	-7569
▁Vis	-7570
ULTUR	-7571
iling	-7572
▁Will	-7573
aiting	-7574
▁fields	-7575
decision	-7576
▁commend	-7577
▁facilitation	-7578
sk	-7579
dam	-7580
oth	-7581
aired	-7582
ieties	-7583
▁Canad	-7584
▁closing	-7585
▁changing	-7586
▁calculation	-7587
izon	-7588
▁3.4	-7589
▁Terms	-7590
▁authors	-7591
▁becoming	-7592
▁normally	-7593
82	-7594
ESS	-7595
omet	-7596
IDENT	-7597
acted	-7598
elfth	-7599
▁cong	-7600
▁Phase	-7601
Islamic	-7602
▁Estonia	-7603
▁pleased	-7604
▁welfare	-7605
▁valuation	-7606
▁mainstreaming	-7607
ISH	-7608
Ital	-7609
▁Don	-7610
▁1980	-7611
rations	-7612
▁Direct	-7613
▁attemp	-7614
▁biennial	-7615
▁PRESIDENT	-7616
▁87	-7617
after	-7618
▁rear	-7619
▁Earth	-7620
▁Malta	-7621
▁Tenth	-7622
▁behaviour	-7623
▁ownership	-7624
31	-7625
95	-7626
CA	-7627
▁pi	-7628
▁(13	-7629
▁Maced	-7630
▁older	-7631
ocieties	-7632
▁binding	-7633
▁amounted	-7634
▁ammunition	-7635
ez	-7636
VEN	-7637
kes	-7638
vin	-7639
ribute	-7640
vation	-7641
▁Occup	-7642
ensable	-7643
▁Income	-7644
▁reserve	-7645
▁designated	-7646
100	-7647
agas	-7648
▁Gab	-7649
reness	-7650
▁Produc	-7651
▁conting	-7652
▁forests	-7653
▁Industry	-7654
▁Interpret	-7655
▁Mechanism	-7656
▁relevance	-7657
▁submissions	-7658
ying	-7659
▁gases	-7660
▁Before	-7661
▁customs	-7662
▁disease	-7663
rap	-7664
▁Pur	-7665
alien	-7666
.5/56/	-7667
▁pages	-7668
▁succeed	-7669
▁subjects	-7670
▁Production	-7671
▁EL	-7672
Italy	-7673
▁WORK	-7674
.157/24	-7675
▁Physical	-7676
▁Reducing	-7677
▁Reported	-7678
▁experien	-7679
▁subjected	-7680
▁Ratifications	-7681
▁Pass	-7682
▁2002:	-7683
▁bound	-7684
▁camps	-7685
▁Libyan	-7686
▁contrary	-7687
▁sentenced	-7688
BER	-7689
▁Jan	-7690
▁gtr	-7691
celer	-7692
▁arch	-7693
hiriya	-7694
▁prevail	-7695
Re	-7696
lah	-7697
▁(8	-7698
▁Sat	-7699
▁willing	-7700
ye	-7701
600	-7702
800	-7703
▁Er	-7704
▁Pack	-7705
▁Multi	-7706
ULTURAL	-7707
▁Concer	-7708
▁secure	-7709
▁Facilit	-7710
▁mercury	-7711
▁neighbour	-7712
icate	-7713
ssels	-7714
▁1989	-7715
▁argu	-7716
▁(2005)	-7717
▁Others	-7718
▁burden	-7719
▁Beijing	-7720
▁Symbols	-7721
▁packing	-7722
▁disasters	-7723
▁tolerance	-7724
▁Jamahiriya	-7725
▁modalities	-7726
CD	-7727
ette	-7728
▁POP	-7729
▁recept	-7730
▁custody	-7731
▁thought	-7732
▁inserted	-7733
▁relatively	-7734
▁Registration	-7735
▁9.	-7736
lood	-7737
ozamb	-7738
▁comply	-7739
▁deaths	-7740
▁tested	-7741
▁cluster	-7742
▁missing	-7743
▁proposes	-7744
▁receiving	-7745
▁imperative	-7746
▁arbitration	-7747
rand	-7748
▁(24	-7749
▁gross	-7750
▁secret	-7751
▁stable	-7752
▁CULTURAL	-7753
urb	-7754
▁81	-7755
ourse	-7756
fferen	-7757
▁Arrang	-7758
▁Intell	-7759
▁belief	-7760
▁Albania	-7761
▁Interior	-7762
▁INTERNATIONAL	-7763
set	-7764
▁Mos	-7765
▁(197	-7766
▁Prom	-7767
▁mine	-7768
▁pred	-7769
ocratic	-7770
▁enable	-7771
▁symbol	-7772
▁College	-7773
▁94	-7774
utan	-7775
▁MONUC	-7776
▁atmosp	-7777
▁Comment	-7778
clamation	-7779
▁requiring	-7780
▁investigations	-7781
36	-7782
ford	-7783
▁nom	-7784
▁Need	-7785
pections	-7786
▁GC	-7787
/47,	-7788
▁ADR	-7789
▁pip	-7790
rolment	-7791
▁moving	-7792
▁appeals	-7793
▁empower	-7794
▁Enhancing	-7795
▁Presidential	-7796
RF	-7797
/4,	-7798
▁dry	-7799
panied	-7800
▁venue	-7801
atories	-7802
ATIONS	-7803
ecture	-7804
▁ninth	-7805
alienable	-7806
▁Approval	-7807
▁Commerce	-7808
▁Combating	-7809
▁transboundary	-7810
06	-7811
ulum	-7812
▁Thematic	-7813
▁comprises	-7814
▁consolidation	-7815
▁*/	-7816
▁9:	-7817
ipped	-7818
▁bear	-7819
▁Branch	-7820
▁movements	-7821
55	-7822
Bra	-7823
ann	-7824
▁Hence	-7825
▁deserv	-7826
▁Details	-7827
▁borders	-7828
▁closure	-7829
▁congrat	-7830
▁Emissions	-7831
▁Delegation	-7832
▁Pet	-7833
sellor	-7834
▁envis	-7835
tenstein	-7836
▁Bahrain	-7837
▁Between	-7838
▁pointed	-7839
▁Register	-7840
▁Zimbabwe	-7841
▁describe	-7842
▁limitations	-7843
.16	-7844
/31	-7845
▁lot	-7846
▁Viet	-7847
▁realization	-7848
wh	-7849
ded	-7850
ota	-7851
▁82	-7852
▁asset	-7853
▁heads	-7854
▁innoc	-7855
▁except	-7856
▁nearly	-7857
▁periods	-7858
▁preparing	-7859
Bel	-7860
oha	-7861
para	-7862
▁Preven	-7863
▁scheme	-7864
▁targeted	-7865
▁valuable	-7866
▁populations	-7867
▁Developments	-7868
ux	-7869
.2/58/	-7870
▁investments	-7871
ticip	-7872
▁Huss	-7873
▁Mali	-7874
▁Madrid	-7875
▁Namibia	-7876
ozambique	-7877
▁hazardous	-7878
echtenstein	-7879
AB	-7880
try	-7881
▁Dj	-7882
wana	-7883
ients	-7884
riers	-7885
▁Mahm	-7886
▁Solid	-7887
▁conver	-7888
▁sharing	-7889
3:	-7890
▁4/	-7891
gest	-7892
idad	-7893
▁124	-7894
▁2.6	-7895
▁win	-7896
▁exists	-7897
▁reserves	-7898
▁reasonable	-7899
lam	-7900
oted	-7901
celand	-7902
▁1994.	-7903
▁disposal	-7904
▁Alternative	-7905
ERAL	-7906
orrow	-7907
▁zone	-7908
▁Region	-7909
▁grants	-7910
▁ADOPTION	-7911
▁Recorded	-7912
▁Partnerships	-7913
▁Mac	-7914
▁Skin	-7915
itizen	-7916
▁strug	-7917
article	-7918
onduras	-7919
▁teachers	-7920
▁electoral	-7921
▁administer	-7922
▁projection	-7923
▁AB	-7924
heric	-7925
▁precise	-7926
▁calendar	-7927
▁facility	-7928
▁Directorate	-7929
▁Hist	-7930
▁feel	-7931
▁heart	-7932
▁actors	-7933
▁Brussels	-7934
▁parliament	-7935
▁preparations	-7936
ert	-7937
leb	-7938
▁XV	-7939
-198	-7940
▁Sheet	-7941
▁voted	-7942
▁casual	-7943
▁hunger	-7944
▁senior	-7945
▁Canadian	-7946
300	-7947
▁-/	-7948
▁reti	-7949
etable	-7950
▁Towards	-7951
▁Combined	-7952
▁assessed	-7953
▁inflation	-7954
▁accessible	-7955
▁Liechtenstein	-7956
/53	-7957
▁Pop	-7958
▁lab	-7959
▁gaps	-7960
▁none	-7961
▁distinguished	-7962
ael	-7963
▁fear	-7964
▁Ahmad	-7965
▁obtain	-7966
▁silent	-7967
▁Bolivia	-7968
▁claimed	-7969
▁continent	-7970
▁sentences	-7971
▁procedural	-7972
▁Ox	-7973
imal	-7974
onom	-7975
orge	-7976
▁Art	-7977
allel	-7978
ambers	-7979
▁roles	-7980
▁train	-7981
ousands	-7982
▁decline	-7983
▁Consider	-7984
▁electric	-7985
▁dismissed	-7986
▁respected	-7987
▁Programmes	-7988
▁Submitting	-7989
PE	-7990
ipl	-7991
▁City	-7992
regular	-7993
▁(2003)	-7994
▁depends	-7995
▁passing	-7996
rame	-7997
irect	-7998
▁Fiji	-7999
▁feed	-8000
▁Property	-8001
▁fighting	-8002
▁Martin	-8003
▁storage	-8004
▁integral	-8005
▁delegates	-8006
▁indicates	-8007
▁mandatory	-8008
▁concentration	-8009
ga	-8010
.17	-8011
▁Du	-8012
olved	-8013
▁Notes	-8014
▁mitig	-8015
▁TIRExB	-8016
utrition	-8017
▁previously	-8018
UD	-8019
ott	-8020
EPAD	-8021
▁(18	-8022
▁GEF	-8023
▁Certain	-8024
▁intervention	-8025
Ha	-8026
AIR	-8027
▁3.3	-8028
▁Goals	-8029
▁enorm	-8030
▁truth	-8031
▁passenger	-8032
▁Pun	-8033
▁fax	-8034
▁symp	-8035
▁(2001	-8036
▁Peter	-8037
▁monit	-8038
entieth	-8039
▁double	-8040
▁Monetary	-8041
▁ordinary	-8042
ino	-8043
▁OS	-8044
▁10.	-8045
▁aqu	-8046
▁alarm	-8047
▁input	-8048
isition	-8049
▁Problems	-8050
▁directly	-8051
▁Insurance	-8052
▁interactive	-8053
▁constitution	-8054
▁Basel	-8055
▁treated	-8056
▁modified	-8057
▁Substances	-8058
▁objections	-8059
▁Applications	-8060
Con	-8061
ums	-8062
▁Iv	-8063
/2007	-8064
▁Best	-8065
▁Text	-8066
▁felt	-8067
▁advoc	-8068
▁cited	-8069
▁Replies	-8070
▁Structure	-8071
/46	-8072
▁Fl	-8073
▁gre	-8074
▁sus	-8075
▁ones	-8076
▁defic	-8077
▁talks	-8078
▁skills	-8079
▁species	-8080
▁Conflict	-8081
▁influence	-8082
▁constitutes	-8083
74	-8084
exp	-8085
isp	-8086
rees	-8087
itary	-8088
urning	-8089
▁guide	-8090
▁consci	-8091
▁Iceland	-8092
President	-8093
▁momentum	-8094
ERS	-8095
adi	-8096
▁(25	-8097
▁GEN	-8098
▁hus	-8099
allah	-8100
▁Even	-8101
ention	-8102
ftware	-8103
▁offers	-8104
▁inhuman	-8105
▁interim	-8106
▁village	-8107
▁maternal	-8108
▁receivable	-8109
▁techniques	-8110
▁Reservations	-8111
▁Administrative	-8112
",	-8113
2:	-8114
LISH	-8115
▁2.7	-8116
▁Aid	-8117
▁Why	-8118
▁fif	-8119
▁Tele	-8120
▁raise	-8121
▁urged	-8122
▁Commit	-8123
▁removal	-8124
▁assembly	-8125
▁Democracy	-8126
▁Macedonia	-8127
▁Suggested	-8128
▁something	-8129
▁favourable	-8130
▁liabilities	-8131
▁instructions	-8132
▁successfully	-8133
Vi	-8134
UND	-8135
▁[1	-8136
▁Bre	-8137
shall	-8138
▁tack	-8139
▁write	-8140
▁Import	-8141
▁tension	-8142
presented	-8143
▁Briefing	-8144
▁believes	-8145
▁expectations	-8146
OPE	-8147
ado	-8148
▁7.1	-8149
▁hyd	-8150
adequ	-8151
▁stopp	-8152
▁Engine	-8153
▁discipl	-8154
▁commenced	-8155
▁machinery	-8156
▁84	-8157
▁Maj	-8158
▁shel	-8159
▁Malawi	-8160
▁destin	-8161
▁explain	-8162
▁Capacity	-8163
▁tangible	-8164
▁Counsellor	-8165
▁prohibition	-8166
-00	-8167
ados	-8168
ardo	-8169
care	-8170
▁Zone	-8171
▁isol	-8172
▁impos	-8173
▁output	-8174
▁Burkina	-8175
▁Ibrahim	-8176
▁prisons	-8177
▁Consolidated	-8178
ken	-8179
▁sav	-8180
▁fill	-8181
▁pati	-8182
▁roll	-8183
▁1995,	-8184
ilation	-8185
rinking	-8186
▁refused	-8187
▁Chairmen	-8188
▁greatest	-8189
▁impeding	-8190
▁advancement	-8191
3;	-8192
▁,	-8193
Slo	-8194
▁),	-8195
▁IR	-8196
▁(17	-8197
▁Les	-8198
▁lif	-8199
▁veto	-8200
▁Young	-8201
▁REPORT	-8202
▁strict	-8203
▁transp	-8204
▁waters	-8205
pectives	-8206
▁defects	-8207
▁emerged	-8208
▁vacancies	-8209
▁improvements	-8210
sy	-8211
def	-8212
▁(11	-8213
sives	-8214
▁coast	-8215
▁Original	-8216
▁Standing	-8217
Netherlands	-8218
odity	-8219
▁6.2.2	-8220
▁running	-8221
▁Ensuring	-8222
▁expulsion	-8223
▁undertake	-8224
raud	-8225
▁SME	-8226
▁Disp	-8227
▁index	-8228
▁mobil	-8229
▁height	-8230
▁largely	-8231
▁Increase	-8232
▁estimate	-8233
▁sometimes	-8234
▁Explanatory	-8235
26	-8236
TIONS	-8237
iscal	-8238
▁Doha	-8239
▁Cooper	-8240
▁intolerance	-8241
UB	-8242
ba	-8243
CRP	-8244
rem	-8245
▁Tu	-8246
▁Who	-8247
▁hol	-8248
▁About	-8249
pectors	-8250
▁driver	-8251
▁troops	-8252
▁monthly	-8253
▁propose	-8254
ufficient	-8255
▁appealed	-8256
▁concludes	-8257
▁classified	-8258
▁Delegations	-8259
▁Professional	-8260
ami	-8261
ili	-8262
berg	-8263
rise	-8264
▁Mut	-8265
▁Char	-8266
▁55/2.	-8267
▁sensi	-8268
ception	-8269
▁drafted	-8270
▁greatly	-8271
▁picture	-8272
▁$1,	-8273
▁anti	-8274
▁door	-8275
assive	-8276
▁check	-8277
▁mixed	-8278
▁(2002)	-8279
▁formulated	-8280
▁reiterated	-8281
▁nominations	-8282
49	-8283
ek	-8284
/49	-8285
▁Imm	-8286
▁Mean	-8287
▁epid	-8288
apping	-8289
▁advice	-8290
▁radioactive	-8291
▁transitional	-8292
6:	-8293
▁IX	-8294
▁1.7	-8295
▁Aut	-8296
▁Log	-8297
▁hos	-8298
▁Bill	-8299
▁bomb	-8300
titude	-8301
▁fresh	-8302
▁mines	-8303
▁beings	-8304
▁possib	-8305
▁arbitrary	-8306
▁5/	-8307
▁Ra	-8308
▁12.	-8309
▁Ord	-8310
▁Sil	-8311
▁Bhutan	-8312
▁pledges	-8313
▁heritage	-8314
▁clarified	-8315
▁disappear	-8316
mm	-8317
▁Na	-8318
licit	-8319
▁Acts	-8320
▁Less	-8321
▁seems	-8322
▁Travel	-8323
▁wastes	-8324
▁neither	-8325
▁deprived	-8326
▁excluded	-8327
Switzerland	-8328
▁Violations	-8329
▁references	-8330
▁arrangement	-8331
FF	-8332
/38	-8333
EST	-8334
▁1.3	-8335
▁3.6	-8336
▁Che	-8337
▁Mis	-8338
.3/57/	-8339
▁TRANS	-8340
▁happened	-8341
▁interpre	-8342
▁location	-8343
▁expansion	-8344
uance	-8345
▁drop	-8346
▁file	-8347
letion	-8348
▁Relig	-8349
▁inland	-8350
▁actually	-8351
▁governing	-8352
▁Agricultural	-8353
▁;	-8354
oned	-8355
▁ker	-8356
items	-8357
▁root	-8358
abling	-8359
▁Royal	-8360
istrator	-8361
including	-8362
▁restricted	-8363
400	-8364
ATI	-8365
CMP	-8366
known	-8367
▁1993.	-8368
▁Dates	-8369
▁Swiss	-8370
▁becomes	-8371
▁millions	-8372
▁separately	-8373
57	-8374
ori	-8375
▁Ak	-8376
▁tub	-8377
rable	-8378
▁Mich	-8379
▁subreg	-8380
▁uniform	-8381
represented	-8382
▁considerably	-8383
.1)]	-8384
apon	-8385
▁nar	-8386
▁goes	-8387
▁lies	-8388
▁Intro	-8389
▁pursue	-8390
▁receip	-8391
entially	-8392
▁accidents	-8393
▁accommodation	-8394
▁ST	-8395
▁MAL	-8396
/2008	-8397
▁photo	-8398
▁recru	-8399
▁relate	-8400
▁Mozambique	-8401
.27	-8402
700	-8403
pass	-8404
▁Far	-8405
▁Area	-8406
▁Conc	-8407
▁sell	-8408
imburs	-8409
▁recip	-8410
unction	-8411
▁diamonds	-8412
▁entirely	-8413
▁revisions	-8414
EX	-8415
nez	-8416
▁1992.	-8417
▁SBSTA	-8418
▁labor	-8419
▁diplom	-8420
▁underst	-8421
▁Treaties	-8422
▁ensuring	-8423
▁telephone	-8424
▁Settlement	-8425
▁frequently	-8426
▁Verification	-8427
FT	-8428
che	-8429
▁6.3	-8430
▁Luc	-8431
▁UPR	-8432
▁fed	-8433
▁kill	-8434
▁male	-8435
▁proved	-8436
▁managed	-8437
▁wond	-8438
▁Niger	-8439
▁seeks	-8440
▁2008).	-8441
▁Nature	-8442
▁crossing	-8443
tt	-8444
isive	-8445
▁2010.	-8446
ections	-8447
▁mental	-8448
irteenth	-8449
▁Directive	-8450
▁classification	-8451
▁reconstruction	-8452
agh	-8453
dep	-8454
pol	-8455
▁AP	-8456
▁Mo	-8457
compl	-8458
edest	-8459
itals	-8460
▁cruel	-8461
illance	-8462
▁Marine	-8463
▁Noting	-8464
▁Update	-8465
▁acceler	-8466
▁operate	-8467
▁trained	-8468
▁increases	-8469
▁Abstaining	-8470
▁card	-8471
racting	-8472
▁(2000)	-8473
▁highlight	-8474
oub	-8475
▁HC	-8476
▁Us	-8477
osen	-8478
▁(5)	-8479
▁box	-8480
▁jobs	-8481
▁marks	-8482
▁(2004).	-8483
▁announc	-8484
▁Advisory	-8485
▁Belgrade	-8486
▁Differen	-8487
▁applicant	-8488
▁awareness	-8489
▁inspections	-8490
▁big	-8491
place	-8492
▁Domin	-8493
▁Plenary	-8494
▁Trustees	-8495
▁fulfilled	-8496
▁radiation	-8497
▁Communities	-8498
33	-8499
.24	-8500
▁Hass	-8501
▁Saint	-8502
agascar	-8503
centage	-8504
▁Classi	-8505
▁Judges	-8506
▁arrived	-8507
▁Aviation	-8508
▁comprise	-8509
▁distinction	-8510
NA	-8511
▁UNO	-8512
rient	-8513
▁beam	-8514
▁prob	-8515
▁seiz	-8516
▁wage	-8517
▁optim	-8518
▁posed	-8519
▁trail	-8520
▁condem	-8521
▁Turkmen	-8522
▁involve	-8523
▁partner	-8524
▁warning	-8525
▁Protocols	-8526
FI	-8527
▁1.8	-8528
▁Dan	-8529
▁Lin	-8530
▁bat	-8531
aretz	-8532
ultim	-8533
▁Life	-8534
▁TRADE	-8535
▁Timber	-8536
▁motion	-8537
▁Encoura	-8538
▁reducing	-8539
▁introduce	-8540
▁occasions	-8541
/45	-8542
▁PP	-8543
▁wall	-8544
istics	-8545
▁Seventh	-8546
▁timetable	-8547
▁considering	-8548
▁translation	-8549
▁NEPAD	-8550
▁societies	-8551
▁Concerning	-8552
▁legitimate	-8553
47	-8554
IB	-8555
QU	-8556
cas	-8557
mal	-8558
/25,	-8559
body	-8560
▁Kam	-8561
▁Off	-8562
istence	-8563
▁presents	-8564
▁acknowledged	-8565
ald	-8566
omp	-8567
rog	-8568
▁CP	-8569
ethe	-8570
▁CAT	-8571
▁Hig	-8572
▁fran	-8573
ancell	-8574
undred	-8575
▁transl	-8576
▁enormous	-8577
▁Temporary	-8578
▁decreased	-8579
pir	-8580
zen	-8581
▁AN	-8582
ille	-8583
▁Aff	-8584
▁virt	-8585
.5/55/	-8586
ESSION	-8587
▁David	-8588
▁filled	-8589
▁merely	-8590
▁trading	-8591
▁injuries	-8592
/48	-8593
▁86	-8594
▁AL	-8595
▁AM	-8596
▁14,	-8597
▁SBI	-8598
▁bill	-8599
▁Parag	-8600
▁Seven	-8601
▁sales	-8602
▁track	-8603
ickness	-8604
▁Ageing	-8605
▁master	-8606
▁attempt	-8607
▁allegedly	-8608
▁Objectives	-8609
▁respectively	-8610
lan	-8611
new	-8612
▁ut	-8613
.2.4	-8614
▁Net	-8615
▁Sale	-8616
▁Size	-8617
▁Ozone	-8618
▁inhab	-8619
etheless	-8620
▁(2001).	-8621
▁concepts	-8622
▁deferred	-8623
▁hospital	-8624
▁accompanied	-8625
/42	-8626
▁Tw	-8627
▁Ret	-8628
▁Lack	-8629
▁2003:	-8630
▁sheet	-8631
▁Virgin	-8632
▁abroad	-8633
▁Provide	-8634
▁deserve	-8635
▁renewed	-8636
▁dependent	-8637
▁sustainability	-8638
én	-8639
TRY	-8640
THER	-8641
▁117	-8642
▁1975	-8643
▁Bern	-8644
▁Kong	-8645
Brazil	-8646
▁Lakes	-8647
▁Prepar	-8648
▁models	-8649
▁demands	-8650
▁instances	-8651
▁citizenship	-8652
▁Subparagraph	-8653
.2)	-8654
Pol	-8655
asa	-8656
ney	-8657
▁3)	-8658
▁89	-8659
.5.,	-8660
acle	-8661
▁Ways	-8662
▁pill	-8663
▁1991.	-8664
▁Habitat	-8665
▁Resumed	-8666
▁answers	-8667
▁villages	-8668
▁enrolment	-8669
▁Administrator	-8670
▁administering	-8671
sen	-8672
▁unc	-8673
TICAL	-8674
iaries	-8675
ileges	-8676
▁Ensure	-8677
▁GENERAL	-8678
▁Refugee	-8679
▁thanked	-8680
▁Existing	-8681
▁headlamp	-8682
▁Description	-8683
▁transaction	-8684
▁wa	-8685
▁rib	-8686
▁saw	-8687
right	-8688
▁Togo	-8689
ndered	-8690
plicit	-8691
▁Racism	-8692
▁choose	-8693
▁father	-8694
▁though	-8695
▁Providing	-8696
▁Cur	-8697
inced	-8698
▁mode	-8699
rafting	-8700
▁Methods	-8701
▁directed	-8702
▁Allocation	-8703
▁biological	-8704
▁preventive	-8705
▁Territories	-8706
nov	-8707
▁fu	-8708
lines	-8709
▁Takes	-8710
▁driving	-8711
▁journal	-8712
▁ceasefire	-8713
▁credibility	-8714
86	-8715
oum	-8716
▁ded	-8717
▁Page	-8718
▁traged	-8719
▁Academy	-8720
▁entries	-8721
▁discharge	-8722
▁satellite	-8723
ows	-8724
▁Sm	-8725
▁15,	-8726
▁Foc	-8727
▁1244	-8728
▁pand	-8729
inland	-8730
tswana	-8731
▁river	-8732
▁Guidance	-8733
▁Paraguay	-8734
▁compound	-8735
▁district	-8736
▁parallel	-8737
▁struggle	-8738
▁separation	-8739
.2,	-8740
agg	-8741
eek	-8742
son	-8743
illa	-8744
▁109	-8745
▁(2000).	-8746
▁convinced	-8747
▁sovereignty	-8748
▁undertaking	-8749
▁Fer	-8750
▁OSCE	-8751
▁aged	-8752
▁poli	-8753
▁Cases	-8754
itrogen	-8755
▁Closed	-8756
▁EUROPE	-8757
▁(2003).	-8758
▁braking	-8759
▁citizen	-8760
abilization	-8761
▁negotiation	-8762
)(	-8763
ovi	-8764
Third	-8765
oured	-8766
using	-8767
▁loans	-8768
▁toxic	-8769
▁tried	-8770
▁module	-8771
▁anticip	-8772
▁comprom	-8773
▁packages	-8774
▁proceeds	-8775
▁resulting	-8776
▁abstentions	-8777
▁.	-8778
▁92	-8779
.2.2.	-8780
▁Falk	-8781
▁pain	-8782
▁roads	-8783
▁truly	-8784
compliance	-8785
▁prospects	-8786
▁competence	-8787
▁consistent	-8788
▁Supplementary	-8789
▁Classification	-8790
.23	-8791
acc	-8792
bas	-8793
pector	-8794
▁codes	-8795
▁disabled	-8796
▁Pu	-8797
abin	-8798
thly	-8799
▁Know	-8800
▁Writ	-8801
▁girl	-8802
▁sole	-8803
▁bench	-8804
▁manif	-8805
▁shape	-8806
▁Muslim	-8807
adequate	-8808
▁seeking	-8809
▁declined	-8810
▁Particular	-8811
89	-8812
/1,	-8813
ulph	-8814
▁130	-8815
▁kPa	-8816
▁Alex	-8817
▁ICTR	-8818
▁Priv	-8819
keting	-8820
▁colle	-8821
▁assure	-8822
▁headed	-8823
▁suffer	-8824
▁secured	-8825
▁innocent	-8826
▁teaching	-8827
▁carefully	-8828
▁consequence	-8829
▁experienced	-8830
▁Doc	-8831
▁1,000	-8832
▁exact	-8833
▁Supply	-8834
▁agency	-8835
▁firmly	-8836
▁Subject	-8837
▁ability	-8838
▁council	-8839
▁jointly	-8840
▁Botswana	-8841
▁Christian	-8842
aba	-8843
depth	-8844
▁....	-8845
.3/58/	-8846
.3/62/	-8847
▁Exerc	-8848
▁learn	-8849
▁engage	-8850
▁injury	-8851
▁Annexes	-8852
▁lasting	-8853
▁marking	-8854
▁southern	-8855
▁alternatives	-8856
▁]	-8857
ité	-8858
ulf	-8859
▁$2	-8860
udes	-8861
▁CTC	-8862
▁IMF	-8863
▁mus	-8864
ylind	-8865
▁financ	-8866
▁SESSION	-8867
permanent	-8868
▁Elements	-8869
▁Opportun	-8870
75	-8871
NI	-8872
urate	-8873
▁Emir	-8874
▁deem	-8875
marily	-8876
Finland	-8877
urances	-8878
▁Estimated	-8879
▁envisaged	-8880
▁regulatory	-8881
▁OR	-8882
aled	-8883
▁Gir	-8884
▁cou	-8885
bassy	-8886
▁Hong	-8887
▁MDGs	-8888
▁Risk	-8889
▁2007]	-8890
▁Entry	-8891
▁hopes	-8892
▁incur	-8893
▁white	-8894
▁Embassy	-8895
▁regards	-8896
▁assisted	-8897
▁Kyrgyzstan	-8898
▁rich	-8899
idated	-8900
▁promo	-8901
▁prefer	-8902
▁unions	-8903
▁Honduras	-8904
▁confident	-8905
.8.	-8906
Nor	-8907
eck	-8908
▁Ay	-8909
▁WFP	-8910
▁news	-8911
lderly	-8912
▁night	-8913
▁crises	-8914
▁Illicit	-8915
▁wounded	-8916
▁maritime	-8917
▁condemned	-8918
DF	-8919
.21	-8920
IDB	-8921
OMM	-8922
ark	-8923
ofi	-8924
▁Br	-8925
▁16,	-8926
▁hom	-8927
▁Holy	-8928
▁laid	-8929
▁faith	-8930
▁Within	-8931
▁reverse	-8932
▁Citizens	-8933
▁literacy	-8934
▁continuous	-8935
▁prescribed	-8936
▁thousandth	-8937
▁displacement	-8938
▁Infrastructure	-8939
liqu	-8940
▁Tax	-8941
ector	-8942
isure	-8943
▁POPs	-8944
▁soil	-8945
.2/59/	-8946
▁depth	-8947
acional	-8948
▁Relief	-8949
▁Bearing	-8950
▁Through	-8951
▁chaired	-8952
ructuring	-8953
▁Forestry	-8954
▁Yugoslav	-8955
▁2010-2011	-8956
▁Principal	-8957
▁religions	-8958
▁Commodities	-8959
4”	-8960
.26	-8961
.2.3	-8962
▁Dam	-8963
▁Deli	-8964
▁crew	-8965
▁fees	-8966
▁Islam	-8967
▁union	-8968
ificance	-8969
▁Proceed	-8970
▁examine	-8971
▁mothers	-8972
▁presidential	-8973
hat	-8974
olf	-8975
▁Mil	-8976
▁Fern	-8977
▁Full	-8978
▁Thom	-8979
▁acad	-8980
▁user	-8981
gement	-8982
olving	-8983
▁Compe	-8984
▁Letter	-8985
ordinary	-8986
▁husband	-8987
▁intensi	-8988
▁Marriage	-8989
cellaneous	-8990
tersessional	-8991
85	-8992
▁91	-8993
▁AT	-8994
thes	-8995
▁Fif	-8996
agers	-8997
nesty	-8998
▁Dere	-8999
▁rape	-9000
posure	-9001
▁2006;	-9002
izontal	-9003
▁degrading	-9004
▁primarily	-9005
▁demobilization	-9006
Af	-9007
LC	-9008
ente	-9009
imes	-9010
▁Syria	-9011
▁tourism	-9012
▁frequency	-9013
▁protocols	-9014
▁Democratic	-9015
▁assignment	-9016
▁recognizes	-9017
▁Arrangements	-9018
▁harmonization	-9019
77	-9020
▁Alm	-9021
▁EIA	-9022
▁SEC	-9023
asser	-9024
▁stip	-9025
arding	-9026
▁Outer	-9027
▁finds	-9028
istries	-9029
▁Express	-9030
▁Various	-9031
izational	-9032
▁Falkland	-9033
▁decisive	-9034
▁eleventh	-9035
▁buildings	-9036
▁chemicals	-9037
IU	-9038
gue	-9039
▁Cod	-9040
▁Rot	-9041
lawful	-9042
▁Sched	-9043
endable	-9044
▁Thirdly	-9045
▁Immigration	-9046
▁Institutions	-9047
▁GRE	-9048
▁pup	-9049
iment	-9050
▁GRSP	-9051
▁twice	-9052
▁carrier	-9053
▁Exercise	-9054
▁container	-9055
▁residents	-9056
▁Punishment	-9057
▁Turkmenistan	-9058
rity	-9059
▁17,	-9060
▁fer	-9061
▁sum	-9062
▁Jose	-9063
.2/60/	-9064
▁Durban	-9065
Chairmen	-9066
▁Primary	-9067
▁Carriage	-9068
▁believed	-9069
▁hearings	-9070
▁Delegates	-9071
▁Increasing	-9072
As	-9073
ouri	-9074
▁XII	-9075
▁comes	-9076
▁remin	-9077
reotypes	-9078
▁healthy	-9079
▁Handbook	-9080
▁Registry	-9081
▁ecosystems	-9082
▁perpetrator	-9083
tia	-9084
▁96	-9085
well	-9086
▁101	-9087
▁DRA	-9088
iture	-9089
▁Laws	-9090
▁quickly	-9091
▁exclusion	-9092
▁generation	-9093
▁significance	-9094
.3,	-9095
▁12:	-9096
▁mag	-9097
▁Nine	-9098
▁duly	-9099
racted	-9100
▁(2002).	-9101
▁slavery	-9102
▁purchase	-9103
▁pollutants	-9104
▁credentials	-9105
UES	-9106
▁TD	-9107
▁8.1	-9108
tably	-9109
uracy	-9110
▁Army	-9111
.3/59/	-9112
▁Counsel	-9113
▁shortly	-9114
▁belonging	-9115
▁convicted	-9116
59	-9117
GOR	-9118
odal	-9119
▁108	-9120
▁Cub	-9121
urday	-9122
▁PART	-9123
▁meat	-9124
▁INDUS	-9125
▁blood	-9126
umption	-9127
▁helped	-9128
▁houses	-9129
▁Conserv	-9130
▁durable	-9131
▁exclusive	-9132
▁correspond	-9133
▁protecting	-9134
▁Investigation	-9135
42	-9136
erb	-9137
iled	-9138
▁(20	-9139
▁107	-9140
▁ATP	-9141
▁ENG	-9142
▁Paul	-9143
.5/58/	-9144
ATEGOR	-9145
Mexico	-9146
▁carbon	-9147
▁rapidly	-9148
▁locations	-9149
▁restraint	-9150
▁Minorities	-9151
/1.	-9152
ray	-9153
zed	-9154
▁02	-9155
umin	-9156
▁Ros	-9157
▁vig	-9158
sions	-9159
▁Separ	-9160
▁easily	-9161
▁orders	-9162
viations	-9163
▁Mahmoud	-9164
▁Turkish	-9165
▁samples	-9166
▁accident	-9167
▁rapporteur	-9168
▁constituted	-9169
▁specification	-9170
▁Interpretation	-9171
▁cm	-9172
▁11.	-9173
ongol	-9174
▁(2000	-9175
▁width	-9176
ishable	-9177
▁excell	-9178
▁Consequ	-9179
▁replied	-9180
▁apparent	-9181
▁containers	-9182
▁congratulate	-9183
]:	-9184
ona	-9185
▁IP	-9186
olic	-9187
▁18,	-9188
▁3.7	-9189
▁uns	-9190
ested	-9191
.2/63/	-9192
.5/57/	-9193
▁Annan	-9194
▁Samoa	-9195
herence	-9196
▁44/25,	-9197
irmation	-9198
ditionally	-9199
▁measuring	-9200
▁attendance	-9201
▁casualties	-9202
46	-9203
aco	-9204
crip	-9205
▁Fem	-9206
▁coal	-9207
▁hour	-9208
▁wife	-9209
▁south	-9210
▁ultim	-9211
ountain	-9212
▁2005)1	-9213
▁Derech	-9214
▁phases	-9215
▁really	-9216
▁Projects	-9217
▁twentieth	-9218
▁Navigation	-9219
▁deprivation	-9220
▁Compensation	-9221
▁123	-9222
▁los	-9223
▁mist	-9224
lining	-9225
overed	-9226
▁DRAFT	-9227
▁zones	-9228
▁Border	-9229
▁Hassan	-9230
▁(2005).	-9231
▁(2006).	-9232
▁Contact	-9233
▁complic	-9234
▁repatri	-9235
▁Drafting	-9236
▁conventional	-9237
point	-9238
▁1160	-9239
▁Option	-9240
▁looked	-9241
▁trials	-9242
▁receipt	-9243
▁Definitions	-9244
han	-9245
▁11:	-9246
tility	-9247
▁files	-9248
▁Saturday	-9249
▁patterns	-9250
▁violated	-9251
▁disability	-9252
▁perpetrators	-9253
▁interventions	-9254
93	-9255
.28	-9256
oss	-9257
even	-9258
▁Hon	-9259
▁typ	-9260
estic	-9261
hemes	-9262
▁Bonn	-9263
▁Chur	-9264
▁agrees	-9265
▁ratify	-9266
▁Provisional	-9267
EW	-9268
OW	-9269
(1)	-9270
.7,	-9271
arms	-9272
uine	-9273
▁ODA	-9274
▁rot	-9275
▁army	-9276
▁fron	-9277
▁rare	-9278
▁OTHER	-9279
▁Auditor	-9280
▁decades	-9281
▁fragile	-9282
▁lawyers	-9283
▁deployed	-9284
▁epidemic	-9285
▁Acceptance	-9286
▁neighbouring	-9287
▁certification	-9288
▁Alf	-9289
▁TER	-9290
▁drew	-9291
▁send	-9292
Sweden	-9293
▁ENGLISH	-9294
▁clarify	-9295
▁digital	-9296
▁Emirates	-9297
▁translated	-9298
km	-9299
ré	-9300
dad	-9301
ima	-9302
ulty	-9303
▁UND	-9304
▁Kofi	-9305
▁Resp	-9306
▁Sund	-9307
locked	-9308
▁drinking	-9309
▁Potential	-9310
▁accounted	-9311
▁maintaining	-9312
▁receptacles	-9313
▁(23	-9314
▁Bay	-9315
▁Mag	-9316
▁Maur	-9317
reight	-9318
▁stood	-9319
▁stocks	-9320
▁indirect	-9321
▁monitored	-9322
▁necessity	-9323
▁reiterate	-9324
▁exceptions	-9325
▁Traditional	-9326
▁governments	-9327
asc	-9328
lav	-9329
cing	-9330
rice	-9331
role	-9332
vity	-9333
▁Que	-9334
▁Van	-9335
incial	-9336
ustries	-9337
▁Negoti	-9338
▁formed	-9339
▁salary	-9340
▁Liaison	-9341
▁kilomet	-9342
▁Knowledge	-9343
▁endeavours	-9344
▁threatened	-9345
▁Publication	-9346
▁Contemporary	-9347
TB	-9348
mi	-9349
den	-9350
isal	-9351
▁Gib	-9352
▁Ten	-9353
olesc	-9354
▁warm	-9355
▁Benef	-9356
▁execu	-9357
▁Panama	-9358
udgetary	-9359
▁insufficient	-9360
▁justification	-9361
MC	-9362
.31	-9363
▁Ba	-9364
outi	-9365
▁Suc	-9366
5,000	-9367
▁2009)	-9368
▁spoke	-9369
▁remedy	-9370
employed	-9371
▁everything	-9372
▁Distribution	-9373
)**	-9374
▁DP	-9375
while	-9376
▁Mart	-9377
▁ibid	-9378
▁prop	-9379
iction	-9380
▁Exten	-9381
cessive	-9382
Argentina	-9383
▁multiple	-9384
engagement	-9385
▁conducting	-9386
▁specifications	-9387
ila	-9388
▁9.3	-9389
▁Bak	-9390
▁beat	-9391
▁celeb	-9392
▁diver	-9393
▁Conven	-9394
▁clause	-9395
▁CATEGOR	-9396
▁Library	-9397
▁regimes	-9398
▁Expected	-9399
▁assurances	-9400
DT	-9401
▁125	-9402
▁POL	-9403
▁Raj	-9404
pring	-9405
igrant	-9406
▁Areas	-9407
▁Unity	-9408
▁unity	-9409
▁yield	-9410
▁Sources	-9411
▁engines	-9412
ispensable	-9413
▁Manufacture	-9414
▁observation	-9415
arte	-9416
▁CLA	-9417
▁Ger	-9418
▁rad	-9419
▁van	-9420
iently	-9421
▁CHAIR	-9422
▁banks	-9423
▁province	-9424
rabudgetary	-9425
▁impossible	-9426
▁Expenditure	-9427
▁indispensable	-9428
▁modifications	-9429
ho	-9430
.33	-9431
URE	-9432
▁121	-9433
▁Camp	-9434
▁irre	-9435
▁Labor	-9436
ulating	-9437
▁chosen	-9438
▁approve	-9439
▁edition	-9440
▁malaria	-9441
▁software	-9442
▁officially	-9443
02	-9444
AIN	-9445
LOS	-9446
▁Pi	-9447
▁Ash	-9448
▁Bou	-9449
▁Cris	-9450
.2/62/	-9451
▁2003;	-9452
▁Hotel	-9453
▁holds	-9454
Programme	-9455
▁duration	-9456
▁Represent	-9457
Environment	-9458
▁accomplished	-9459
▁beneficiaries	-9460
.22	-9461
ault	-9462
▁13,	-9463
▁unf	-9464
▁chan	-9465
▁1994,	-9466
▁lands	-9467
tivated	-9468
▁cylind	-9469
▁Strengthen	-9470
▁frameworks	-9471
▁historical	-9472
▁empowerment	-9473
▁necessarily	-9474
yg	-9475
▁"5	-9476
EVEL	-9477
▁Tom	-9478
Habitat	-9479
illions	-9480
section	-9481
▁Instru	-9482
tilities	-9483
▁tragedy	-9484
▁speaking	-9485
expendable	-9486
▁municipal	-9487
▁curriculum	-9488
▁utilization	-9489
▁Intelligence	-9490
cow	-9491
dra	-9492
ller	-9493
▁Real	-9494
advant	-9495
ulphur	-9496
▁fraud	-9497
▁equity	-9498
▁affects	-9499
▁advanced	-9500
▁withdraw	-9501
▁registered	-9502
▁6)	-9503
ENCE	-9504
yana	-9505
▁ICC	-9506
▁ton	-9507
▁Rein	-9508
raction	-9509
▁Limited	-9510
▁acceded	-9511
▁mobility	-9512
▁supplies	-9513
fficiently	-9514
▁Percentage	-9515
87	-9516
▁roc	-9517
notes	-9518
▁1987	-9519
making	-9520
▁Until	-9521
▁metal	-9522
▁retain	-9523
▁Economy	-9524
▁organic	-9525
▁Conservation	-9526
marks	-9527
▁promis	-9528
▁involves	-9529
▁suitable	-9530
▁Addressing	-9531
▁Agreements	-9532
▁Unemployment	-9533
PM	-9534
att	-9535
kok	-9536
lass	-9537
▁104	-9538
▁Mine	-9539
.3/56/	-9540
▁Anton	-9541
▁CLAIM	-9542
▁block	-9543
ductive	-9544
grading	-9545
▁forums	-9546
▁metals	-9547
▁stockp	-9548
signment	-9549
▁evident	-9550
▁opposed	-9551
▁statute	-9552
▁Chambers	-9553
▁Evidence	-9554
▁equipped	-9555
▁tribunal	-9556
65	-9557
.6.1	-9558
▁USA	-9559
▁thor	-9560
▁shell	-9561
▁repeat	-9562
▁spouse	-9563
▁utmost	-9564
▁inhabit	-9565
▁Personnel	-9566
EG	-9567
RS	-9568
▁Ant	-9569
▁Lay	-9570
▁pet	-9571
▁Fail	-9572
▁Seek	-9573
roleum	-9574
▁thing	-9575
▁wheel	-9576
▁twelfth	-9577
▁Although	-9578
▁barriers	-9579
▁Fellowship	-9580
▁comparison	-9581
TIS	-9582
lew	-9583
▁Ital	-9584
▁Near	-9585
▁(1999	-9586
▁overf	-9587
▁Lastly	-9588
▁Manual	-9589
▁trying	-9590
▁existed	-9591
▁flexible	-9592
▁fisheries	-9593
▁Solidarity	-9594
▁understood	-9595
NO	-9596
je	-9597
/32	-9598
las	-9599
▁aw	-9600
▁15.	-9601
▁hum	-9602
▁pace	-9603
▁told	-9604
▁Sport	-9605
▁Promote	-9606
▁legally	-9607
▁schemes	-9608
▁properly	-9609
▁survival	-9610
liquidated	-9611
▁Available	-9612
▁Improvement	-9613
▁modification	-9614
oked	-9615
elfare	-9616
▁grown	-9617
▁plant	-9618
ongolia	-9619
reshold	-9620
▁elderly	-9621
▁intends	-9622
▁Civilian	-9623
▁INDUSTRY	-9624
▁Chemicals	-9625
▁commodity	-9626
▁controlled	-9627
▁safeguards	-9628
Gu	-9629
.34	-9630
ola	-9631
▁Bec	-9632
Views	-9633
▁spok	-9634
▁(2007)	-9635
▁Criteria	-9636
▁flexibility	-9637
900	-9638
▁0.5	-9639
▁Bone	-9640
▁skin	-9641
-23/3,	-9642
▁2000]	-9643
▁2005;	-9644
arities	-9645
holders	-9646
▁separated	-9647
▁Significant	-9648
▁5)	-9649
▁UK	-9650
▁(22	-9651
▁Adj	-9652
▁CER	-9653
idity	-9654
▁1203	-9655
abinet	-9656
▁Papua	-9657
▁deals	-9658
▁spent	-9659
▁Diplom	-9660
▁Gibral	-9661
▁Should	-9662
▁define	-9663
▁permits	-9664
▁Otherwise	-9665
▁passengers	-9666
▁perspectives	-9667
8;	-9668
ADR	-9669
ano	-9670
▁4)	-9671
▁Fa	-9672
▁dé	-9673
ENDA	-9674
sych	-9675
till	-9676
▁Sus	-9677
▁1199	-9678
▁Grow	-9679
▁eigh	-9680
▁acting	-9681
▁prayer	-9682
election	-9683
▁Hussein	-9684
▁friends	-9685
▁deserves	-9686
▁genocide	-9687
▁creditors	-9688
▁justified	-9689
▁Madagascar	-9690
▁limitation	-9691
▁Interactive	-9692
▁Investments	-9693
▁acclamation	-9694
sub	-9695
▁Step	-9696
Second	-9697
▁taxes	-9698
gressive	-9699
urniture	-9700
▁Detention	-9701
▁munitions	-9702
▁measurements	-9703
▁accomplishment	-9704
62	-9705
83	-9706
91	-9707
LIC	-9708
weg	-9709
▁"2	-9710
cies	-9711
enos	-9712
rist	-9713
▁Kim	-9714
letin	-9715
olars	-9716
▁Harm	-9717
▁Loss	-9718
▁Rich	-9719
▁kinds	-9720
▁entail	-9721
▁invest	-9722
▁orient	-9723
▁thanks	-9724
Slovakia	-9725
▁Closing	-9726
▁Lessons	-9727
▁keeping	-9728
uneration	-9729
▁Attention	-9730
▁Enterprise	-9731
▁foundation	-9732
Fed	-9733
elau	-9734
Annex	-9735
Spain	-9736
▁lose	-9737
.2/61/	-9738
▁963-5	-9739
▁Funds	-9740
▁moral	-9741
▁newly	-9742
▁Regret	-9743
▁pupils	-9744
▁inquiry	-9745
▁payable	-9746
▁prosper	-9747
▁suggest	-9748
▁Peaceful	-9749
▁deletion	-9750
▁handling	-9751
▁sensitive	-9752
▁Completion	-9753
▁concession	-9754
MT	-9755
moon	-9756
zero	-9757
▁phr	-9758
▁buyer	-9759
▁frame	-9760
▁simpl	-9761
▁wrong	-9762
ultures	-9763
▁Confed	-9764
▁Restric	-9765
▁Welfare	-9766
▁brother	-9767
▁promoted	-9768
▁immigration	-9769
ky	-9770
TIR	-9771
rors	-9772
uggl	-9773
▁Had	-9774
▁Mer	-9775
inces	-9776
▁negl	-9777
▁1999)	-9778
▁34/18	-9779
▁Canal	-9780
▁gains	-9781
rinidad	-9782
▁Higher	-9783
▁RECOMM	-9784
▁extrem	-9785
inations	-9786
▁confisc	-9787
▁delayed	-9788
▁killing	-9789
▁quantity	-9790
▁Bilateral	-9791
.62	-9792
isi	-9793
▁18.	-9794
▁OIC	-9795
ulted	-9796
▁feas	-9797
▁scour	-9798
▁UNIFEM	-9799
▁freely	-9800
▁Gazette	-9801
▁looking	-9802
▁stopped	-9803
▁covering	-9804
▁exposure	-9805
▁Corporate	-9806
▁Establishing	-9807
▁Mainstreaming	-9808
81	-9809
.32	-9810
cut	-9811
emi	-9812
▁ER	-9813
▁SA	-9814
China	-9815
▁Cath	-9816
▁Rele	-9817
▁thin	-9818
▁Judgment	-9819
▁Marshall	-9820
▁Sectoral	-9821
▁Consensus	-9822
▁Gibraltar	-9823
▁conscience	-9824
▁inspectors	-9825
▁Determination	-9826
▁Ni	-9827
esia	-9828
▁157	-9829
▁19,	-9830
aling	-9831
▁NOTE	-9832
▁Rece	-9833
▁fell	-9834
ensing	-9835
▁Aires	-9836
▁Micron	-9837
▁Scheme	-9838
▁Thomas	-9839
▁militi	-9840
▁ruling	-9841
▁savings	-9842
▁customary	-9843
▁emphasize	-9844
▁opposition	-9845
▁functioning	-9846
▁certificates	-9847
Min	-9848
▁Sab	-9849
▁pen	-9850
▁via	-9851
ilson	-9852
▁GRSG	-9853
▁Sant	-9854
▁Refer	-9855
▁borne	-9856
ternoon	-9857
▁(2008)	-9858
▁attach	-9859
▁tunnels	-9860
▁penalties	-9861
▁enterprise	-9862
▁preventing	-9863
CLUD	-9864
▁Mass	-9865
ographic	-9866
▁partial	-9867
▁Electoral	-9868
▁degradation	-9869
▁manufacturer	-9870
.36	-9871
/1)	-9872
erem	-9873
lots	-9874
wood	-9875
▁3.8	-9876
▁Tri	-9877
▁lie	-9878
▁pan	-9879
▁gear	-9880
▁tell	-9881
▁5.2.2	-9882
▁proud	-9883
▁Moscow	-9884
▁UNIFIL	-9885
▁Wilson	-9886
▁harmon	-9887
▁Maximum	-9888
▁Personal	-9889
▁reimburs	-9890
▁Including	-9891
▁appreciated	-9892
▁inhabitants	-9893
FER	-9894
cont	-9895
▁Calc	-9896
Europe	-9897
Oceans	-9898
▁Innov	-9899
▁Title	-9900
▁asser	-9901
▁larger	-9902
▁summer	-9903
judicial	-9904
▁Michael	-9905
▁genuine	-9906
▁2005-200	-9907
▁mandated	-9908
▁RECOMMEND	-9909
▁Similarly	-9910
▁commended	-9911
▁modelling	-9912
▁tribunals	-9913
breviations	-9914
▁Australian	-9915
▁wan	-9916
Czech	-9917
agram	-9918
▁Pros	-9919
.2/55/	-9920
TATION	-9921
▁2006]	-9922
▁963-9	-9923
▁Strip	-9924
▁arise	-9925
▁Tobago	-9926
▁lawyer	-9927
▁varied	-9928
▁Mongolia	-9929
▁Supplies	-9930
reditation	-9931
▁Languages	-9932
▁inclusive	-9933
▁Procedural	-9934
▁meditation	-9935
▁pertaining	-9936
▁instruction	-9937
ros	-9938
▁01	-9939
▁93	-9940
eman	-9941
orse	-9942
unci	-9943
▁mic	-9944
orted	-9945
isture	-9946
▁Radio	-9947
▁Buenos	-9948
▁remark	-9949
▁rendered	-9950
▁workplan	-9951
ornography	-9952
▁abolition	-9953
▁excellent	-9954
▁Recognizing	-9955
▁appropriations	-9956
▁fit	-9957
ISION	-9958
iller	-9959
▁SMEs	-9960
▁wood	-9961
.3/63/	-9962
Norway	-9963
▁aband	-9964
▁INCLUD	-9965
▁Robert	-9966
▁STATIS	-9967
▁bureau	-9968
▁serves	-9969
▁(1999).	-9970
▁unknown	-9971
▁enforced	-9972
▁executed	-9973
▁messages	-9974
▁terrorist	-9975
▁inequality	-9976
▁Approximately	-9977
64	-9978
RES	-9979
azi	-9980
ela	-9981
▁***	-9982
▁wors	-9983
EVELOP	-9984
rement	-9985
▁Limit	-9986
informal	-9987
▁DEVELOP	-9988
▁command	-9989
▁disturb	-9990
▁2003-200	-9991
▁Governor	-9992
▁pandemic	-9993
▁Micronesia	-9994
▁innovative	-9995
▁Associations	-9996
▁geographical	-9997
UP	-9998
zi	-9999
Sah	-10000
▁"(	-10001
▁16.	-10002
▁22,	-10003
▁7.7	-10004
▁Bul	-10005
▁Mel	-10006
clude	-10007
oster	-10008
pping	-10009
▁tons	-10010
member	-10011
zation	-10012
▁Recon	-10013
▁Thank	-10014
▁config	-10015
▁phrase	-10016
▁Friends	-10017
▁Payment	-10018
▁Tokelau	-10019
▁fishing	-10020
▁perhaps	-10021
▁underlined	-10022
▁Regrettably	-10023
▁determining	-10024
like	-10025
▁(6)	-10026
ading	-10027
tedly	-10028
▁1267	-10029
▁1979	-10030
▁Cour	-10031
▁PROP	-10032
▁dram	-10033
sities	-10034
▁Light	-10035
▁Threat	-10036
▁pedest	-10037
▁avoided	-10038
▁vacancy	-10039
▁Language	-10040
▁historic	-10041
▁Tribunals	-10042
▁Experience	-10043
▁allowances	-10044
▁Introductory	-10045
/33	-10046
/99	-10047
ikh	-10048
STRA	-10049
▁0.1	-10050
▁tel	-10051
ustion	-10052
▁6.2.1	-10053
▁Datab	-10054
▁Place	-10055
▁meets	-10056
▁AGENDA	-10057
▁Instit	-10058
▁Norweg	-10059
titution	-10060
▁Bangkok	-10061
▁Marking	-10062
▁Slavery	-10063
efficient	-10064
▁Products	-10065
▁supervis	-10066
▁Judgement	-10067
▁elaborate	-10068
▁Proceedings	-10069
▁Confederation	-10070
52	-10071
58	-10072
De	-10073
cast	-10074
mann	-10075
▁Cla	-10076
▁flag	-10077
▁divor	-10078
▁faces	-10079
▁varies	-10080
▁Closure	-10081
▁Instead	-10082
▁Italian	-10083
▁ensured	-10084
▁finding	-10085
▁explicit	-10086
▁Increased	-10087
▁proceeded	-10088
▁Presidency	-10089
▁Nonetheless	-10090
spap	-10091
▁Gon	-10092
▁Mans	-10093
▁5.2.1	-10094
▁Clearly	-10095
olescents	-10096
▁dilution	-10097
▁recalled	-10098
▁standing	-10099
▁INCLUDING	-10100
▁Religious	-10101
▁projections	-10102
yo	-10103
.4,	-10104
WTO	-10105
hell	-10106
itch	-10107
onym	-10108
▁IRU	-10109
▁Jus	-10110
▁WIT	-10111
edish	-10112
▁Norm	-10113
▁SUPP	-10114
▁Oxford	-10115
▁suppor	-10116
▁revenue	-10117
▁northern	-10118
▁profession	-10119
▁(“	-10120
acco	-10121
▁Cas	-10122
▁hal	-10123
being	-10124
vinas	-10125
▁zero	-10126
▁2005]	-10127
▁books	-10128
▁leads	-10129
▁audits	-10130
essation	-10131
▁Faculty	-10132
▁Approved	-10133
▁addendum	-10134
▁advances	-10135
▁eliminated	-10136
▁Measurement	-10137
▁acquisition	-10138
SI	-10139
To	-10140
VE	-10141
aya	-10142
uous	-10143
▁103	-10144
astic	-10145
▁1239	-10146
Uganda	-10147
irable	-10148
▁2007;	-10149
Austral	-10150
▁Monaco	-10151
▁distinct	-10152
▁arguments	-10153
▁provinces	-10154
▁thirteenth	-10155
▁Competition	-10156
▁Confirmation	-10157
▁investigated	-10158
ffs	-10159
▁Dri	-10160
▁Gol	-10161
▁Shi	-10162
inety	-10163
.3/55/	-10164
.5/59/	-10165
ensity	-10166
▁Early	-10167
▁absor	-10168
▁Applic	-10169
▁giving	-10170
▁Trading	-10171
▁helpful	-10172
▁creating	-10173
▁Opportunities	-10174
)).	-10175
/40	-10176
▁600	-10177
▁AGR	-10178
berto	-10179
terrey	-10180
thesis	-10181
ulates	-10182
▁Eight	-10183
▁Issue	-10184
▁plays	-10185
▁branch	-10186
▁hundred	-10187
▁leisure	-10188
▁liberal	-10189
▁Sciences	-10190
▁Norwegian	-10191
▁integrity	-10192
▁Transition	-10193
▁pornography	-10194
uct	-10195
▁Mi	-10196
.5.3	-10197
▁Tor	-10198
▁hit	-10199
ricts	-10200
▁Termin	-10201
▁accede	-10202
▁broader	-10203
▁academic	-10204
▁chapters	-10205
▁rational	-10206
▁Different	-10207
▁connected	-10208
▁retention	-10209
▁difficulty	-10210
▁structural	-10211
▁Implementing	-10212
▁surveillance	-10213
▁Effectiveness	-10214
It	-10215
/54/	-10216
Belg	-10217
held	-10218
ilot	-10219
▁(30	-10220
▁Bad	-10221
▁cat	-10222
▁rig	-10223
rates	-10224
ribut	-10225
▁2002;	-10226
▁brings	-10227
▁online	-10228
▁awarded	-10229
Thousands	-10230
▁Jurisdic	-10231
▁Renumber	-10232
▁financed	-10233
▁threshold	-10234
▁immunities	-10235
▁13.	-10236
▁177	-10237
▁rob	-10238
▁Luis	-10239
▁vent	-10240
▁(2002	-10241
▁Heads	-10242
▁Claims	-10243
▁PROPOS	-10244
Australia	-10245
▁sectoral	-10246
▁kilometres	-10247
▁photograph	-10248
-97	-10249
ALL	-10250
viii	-10251
▁$2,	-10252
▁6.7	-10253
▁fin	-10254
akers	-10255
▁Func	-10256
▁Vlad	-10257
▁inad	-10258
▁tyre	-10259
▁vast	-10260
ensive	-10261
raisal	-10262
▁Short	-10263
▁Mutual	-10264
▁Sunday	-10265
▁incomp	-10266
▁Swedish	-10267
▁display	-10268
▁reliable	-10269
▁Fisheries	-10270
▁depending	-10271
▁satisfied	-10272
▁Preparatory	-10273
LD	-10274
ini	-10275
Coun	-10276
valu	-10277
/1999	-10278
andan	-10279
▁1986	-10280
▁2-27	-10281
▁973.	-10282
border	-10283
seekers	-10284
▁Patric	-10285
▁Fernand	-10286
▁filling	-10287
▁contacts	-10288
▁entering	-10289
▁possibilities	-10290
VIR	-10291
yes	-10292
▁"3	-10293
▁122	-10294
▁IMP	-10295
▁Pau	-10296
▁hat	-10297
▁tom	-10298
oking	-10299
▁1373	-10300
▁Said	-10301
herent	-10302
viously	-10303
isations	-10304
▁Workers	-10305
▁checked	-10306
▁imports	-10307
▁accuracy	-10308
▁slightly	-10309
▁supplied	-10310
▁2002-2005	-10311
▁evaluated	-10312
▁recruited	-10313
▁Corporation	-10314
/39	-10315
ENG	-10316
Rom	-10317
▁Int	-10318
arest	-10319
▁2753	-10320
▁rail	-10321
.3/60/	-10322
minent	-10323
changes	-10324
▁Victor	-10325
▁manufact	-10326
▁Reaffirms	-10327
▁Secondary	-10328
zo	-10329
CCC	-10330
Nig	-10331
iam	-10332
▁ME	-10333
hips	-10334
utch	-10335
VIRON	-10336
ophob	-10337
ractor	-10338
▁2009]	-10339
▁aspir	-10340
▁convey	-10341
▁deemed	-10342
▁intend	-10343
▁Withdra	-10344
▁mixture	-10345
▁2001-200	-10346
▁Complain	-10347
▁formation	-10348
▁regulated	-10349
▁introductory	-10350
Sa	-10351
ilty	-10352
plus	-10353
seen	-10354
▁113	-10355
▁Gal	-10356
▁Guided	-10357
▁breach	-10358
▁minute	-10359
▁damaged	-10360
▁Monterrey	-10361
▁witnessed	-10362
▁disclosure	-10363
▁elaborated	-10364
▁replacement	-10365
▁configuration	-10366
ora	-10367
rov	-10368
▁Sk	-10369
▁20,	-10370
▁5000	-10371
▁Obst	-10372
▁trag	-10373
Poland	-10374
▁calib	-10375
▁lived	-10376
assment	-10377
resting	-10378
▁delays	-10379
▁discre	-10380
▁fitted	-10381
▁34/180,	-10382
▁Manager	-10383
▁drawing	-10384
▁leaving	-10385
▁portion	-10386
▁NATIONAL	-10387
▁collabor	-10388
▁cultures	-10389
▁stronger	-10390
▁elsewhere	-10391
▁Populations	-10392
RI	-10393
bu	-10394
baj	-10395
▁14.	-10396
icine	-10397
rozen	-10398
viron	-10399
▁1988	-10400
ifying	-10401
▁Maria	-10402
▁Oblig	-10403
regation	-10404
▁calling	-10405
▁federal	-10406
▁liaison	-10407
▁nitrogen	-10408
▁department	-10409
▁Extradition	-10410
International	-10411
▁transmission	-10412
▁substantially	-10413
84	-10414
AU	-10415
fe	-10416
/64	-10417
enh	-10418
▁CE	-10419
▁Ir	-10420
umer	-10421
▁140	-10422
iones	-10423
▁1737	-10424
▁Gren	-10425
ECTION	-10426
▁2004]	-10427
▁contam	-10428
▁mobile	-10429
▁Purpose	-10430
▁capable	-10431
▁declare	-10432
▁Consultants	-10433
▁Inalienable	-10434
▁anticipated	-10435
▁BY	-10436
amed	-10437
India	-10438
agues	-10439
pread	-10440
▁GRRF	-10441
▁cold	-10442
▁1989.	-10443
▁1990,	-10444
▁Girls	-10445
▁coerc	-10446
▁inher	-10447
▁packaging	-10448
▁compromise	-10449
▁encourages	-10450
▁mitigation	-10451
-3,	-10452
▁7)	-10453
▁CM	-10454
▁115	-10455
▁Deb	-10456
▁pump	-10457
▁Gross	-10458
▁adults	-10459
▁attain	-10460
▁sports	-10461
▁turned	-10462
▁coastal	-10463
▁profile	-10464
▁signing	-10465
▁suspend	-10466
idespread	-10467
▁Abstract	-10468
▁Japanese	-10469
▁transmit	-10470
▁nominated	-10471
▁television	-10472
uz	-10473
/7/	-10474
MEND	-10475
eces	-10476
▁(26	-10477
▁2.8	-10478
▁RES	-10479
▁Syn	-10480
itious	-10481
▁Media	-10482
▁Tuvalu	-10483
▁broken	-10484
Malvinas	-10485
▁Neither	-10486
▁Nothing	-10487
▁wondered	-10488
▁Published	-10489
▁Comparison	-10490
▁immigrants	-10491
▁Mobilization	-10492
97	-10493
Gh	-10494
XXV	-10495
aug	-10496
ict	-10497
▁--	-10498
ENCH	-10499
erto	-10500
orth	-10501
tier	-10502
arios	-10503
▁pose	-10504
▁UNCCD	-10505
▁aquif	-10506
▁focal	-10507
atorium	-10508
▁signal	-10509
▁wanted	-10510
▁cancell	-10511
▁feature	-10512
▁scourge	-10513
▁reaching	-10514
▁candidate	-10515
▁Initiatives	-10516
56	-10517
.43	-10518
iga	-10519
▁ox	-10520
▁sch	-10521
▁Juan	-10522
▁shar	-10523
ountry	-10524
▁10.25	-10525
▁AMEND	-10526
/52/47,	-10527
entical	-10528
▁autonom	-10529
▁showing	-10530
▁sponsor	-10531
▁attacked	-10532
▁baseline	-10533
▁hospitals	-10534
▁Collection	-10535
▁Withdrawal	-10536
▁particulate	-10537
kg	-10538
.41	-10539
akar	-10540
▁Jac	-10541
▁fal	-10542
-2000	-10543
▁Gonz	-10544
▁Pres	-10545
▁Take	-10546
atible	-10547
▁angle	-10548
Belgium	-10549
Uruguay	-10550
▁Column	-10551
▁UNAIDS	-10552
▁batter	-10553
▁gather	-10554
secutors	-10555
umptions	-10556
▁motorcy	-10557
▁databases	-10558
▁disadvant	-10559
▁reaffirmed	-10560
71	-10561
/43	-10562
LAC	-10563
▁(28	-10564
▁111	-10565
▁13:	-10566
▁Hen	-10567
▁IPC	-10568
▁Anti	-10569
▁prej	-10570
.3/61/	-10571
▁Origin	-10572
▁atomic	-10573
▁spoken	-10574
▁Amnesty	-10575
▁kernels	-10576
▁Welcomes	-10577
▁commerce	-10578
▁thorough	-10579
▁campaigns	-10580
▁realistic	-10581
▁explosives	-10582
uru	-10583
.4.3	-10584
aine	-10585
onso	-10586
tors	-10587
▁5.7	-10588
▁CISG	-10589
▁bold	-10590
ibouti	-10591
▁2008]	-10592
▁2006)1	-10593
▁Puerto	-10594
▁prompt	-10595
atically	-10596
▁Monthly	-10597
▁drivers	-10598
▁enacted	-10599
▁Platform	-10600
▁Coalition	-10601
▁foreigners	-10602
▁inadequate	-10603
▁innovation	-10604
▁possession	-10605
▁hostilities	-10606
▁Publications	-10607
HC	-10608
▁unp	-10609
-2010	-10610
hered	-10611
paras	-10612
▁Home	-10613
▁Then	-10614
mediate	-10615
▁2004)1	-10616
▁CONVEN	-10617
▁Carnet	-10618
▁Return	-10619
▁metres	-10620
▁Collective	-10621
▁Supporting	-10622
▁installation	-10623
EU	-10624
.5,	-10625
bis	-10626
oll	-10627
Egypt	-10628
▁1982	-10629
▁Oslo	-10630
▁reve	-10631
atever	-10632
lutant	-10633
▁Growth	-10634
▁Prosec	-10635
▁rising	-10636
▁Average	-10637
▁Iranian	-10638
▁returns	-10639
▁districts	-10640
▁Submissions	-10641
▁elaboration	-10642
▁subparagraphs	-10643
WC	-10644
-60	-10645
Ass	-10646
Rep	-10647
▁8)	-10648
▁Jo	-10649
.6.,	-10650
vals	-10651
▁Ped	-10652
▁bad	-10653
itive	-10654
utory	-10655
▁gone	-10656
encing	-10657
riages	-10658
▁Which	-10659
▁domin	-10660
idation	-10661
▁FRENCH	-10662
▁births	-10663
▁guilty	-10664
▁loading	-10665
▁Responsible	-10666
▁commodities	-10667
▁designation	-10668
CRC	-10669
Res	-10670
SIL	-10671
VES	-10672
atu	-10673
fold	-10674
lean	-10675
ping	-10676
▁(27	-10677
bours	-10678
▁talk	-10679
ourage	-10680
▁chain	-10681
Council	-10682
▁Joseph	-10683
▁Master	-10684
▁posted	-10685
▁married	-10686
▁seventy	-10687
▁Americas	-10688
▁Calendar	-10689
▁Commander	-10690
▁Explosive	-10691
▁Philippine	-10692
▁inventories	-10693
MA	-10694
cu	-10695
free	-10696
▁Sad	-10697
▁2002]	-10698
▁Caled	-10699
Austria	-10700
▁Guyana	-10701
▁spread	-10702
▁Defense	-10703
▁damages	-10704
▁motions	-10705
▁Estimates	-10706
▁Telephone	-10707
▁prevented	-10708
▁directions	-10709
BA	-10710
MAN	-10711
ids	-10712
▁MA	-10713
ogen	-10714
urder	-10715
▁Lear	-10716
▁appe	-10717
▁2000;	-10718
▁depar	-10719
▁looks	-10720
▁aliens	-10721
▁beaten	-10722
▁manage	-10723
▁assumed	-10724
▁density	-10725
▁Database	-10726
▁overflew	-10727
▁realized	-10728
▁receivables	-10729
▁Disengagement	-10730
GY	-10731
ji	-10732
▁6/	-10733
▁118	-10734
▁gun	-10735
▁9.30	-10736
▁Waste	-10737
▁doors	-10738
▁Invent	-10739
▁Superv	-10740
▁showed	-10741
▁Selected	-10742
▁moisture	-10743
▁urgently	-10744
▁Observers	-10745
▁Obstacles	-10746
▁claimants	-10747
▁identical	-10748
▁realities	-10749
▁CONVENTION	-10750
▁Commitment	-10751
▁Priorities	-10752
▁Formulation	-10753
▁Obligations	-10754
6;	-10755
/2.	-10756
Mor	-10757
war	-10758
Port	-10759
seas	-10760
▁Ott	-10761
▁1985	-10762
▁GRPE	-10763
▁calm	-10764
▁(2006	-10765
▁60/25	-10766
▁chlor	-10767
▁enlar	-10768
raising	-10769
▁seller	-10770
encement	-10771
▁Cabinet	-10772
▁enabling	-10773
▁severely	-10774
▁generated	-10775
▁advantages	-10776
▁presidency	-10777
IZ	-10778
Le	-10779
ika	-10780
rez	-10781
▁(0	-10782
▁PM	-10783
otho	-10784
▁MAR	-10785
ihood	-10786
▁Paulo	-10787
service	-10788
▁27531.	-10789
▁Powers	-10790
▁anyone	-10791
▁pledged	-10792
▁Certific	-10793
▁scenario	-10794
▁Officials	-10795
▁thickness	-10796
▁Facilities	-10797
▁interested	-10798
▁widespread	-10799
▁liquidation	-10800
▁supervision	-10801
▁inadmissible	-10802
▁announcements	-10803
/35	-10804
bed	-10805
▁Da	-10806
▁GH	-10807
abed	-10808
bled	-10809
▁Oil	-10810
▁Cash	-10811
▁UNODC	-10812
Nigeria	-10813
▁Crimes	-10814
▁weapon	-10815
▁thereto	-10816
▁Djibouti	-10817
▁Literacy	-10818
▁confront	-10819
▁benefited	-10820
▁Expenditures	-10821
▁Stabilization	-10822
▁parliamentary	-10823
aki	-10824
raw	-10825
tif	-10826
▁GS	-10827
ores	-10828
rued	-10829
▁193	-10830
▁Ale	-10831
▁Did	-10832
▁Mob	-10833
▁sac	-10834
Fifty	-10835
ottom	-10836
▁Tali	-10837
EMENTS	-10838
titive	-10839
▁owing	-10840
FERENCE	-10841
▁debtor	-10842
▁saying	-10843
▁wounds	-10844
▁Richard	-10845
▁adverse	-10846
▁poorest	-10847
▁smaller	-10848
▁spouses	-10849
▁attaches	-10850
▁weakness	-10851
▁complexity	-10852
▁Enforcement	-10853
▁departments	-10854
yb	-10855
▁q	-10856
.47	-10857
amy	-10858
una	-10859
▁8/	-10860
▁dr	-10861
▁27,	-10862
appro	-10863
isher	-10864
tures	-10865
under	-10866
terdam	-10867
▁1992,	-10868
▁guard	-10869
▁north	-10870
▁PROPOSAL	-10871
▁programs	-10872
▁corporate	-10873
-4,	-10874
.1),	-10875
▁CAR	-10876
▁NOx	-10877
▁exc	-10878
▁lod	-10879
atoes	-10880
nings	-10881
▁orph	-10882
Special	-10883
▁Eighty	-10884
Pakistan	-10885
▁females	-10886
▁Catholic	-10887
▁Contractual	-10888
▁transparent	-10889
▁Geographical	-10890
▁transportation	-10891
.3)	-10892
bul	-10893
fol	-10894
▁ADN	-10895
▁Adequ	-10896
Romania	-10897
▁remote	-10898
▁tragic	-10899
▁newspap	-10900
▁mountain	-10901
▁projected	-10902
▁ambassador	-10903
▁unemployed	-10904
▁challenging	-10905
▁negotiating	-10906
▁termination	-10907
ni	-10908
ida	-10909
burs	-10910
▁som	-10911
/23),	-10912
ITIES	-10913
▁Chan	-10914
▁Line	-10915
▁fate	-10916
▁13-15	-10917
▁euros	-10918
▁ships	-10919
▁divide	-10920
▁escape	-10921
▁kindly	-10922
▁unclear	-10923
▁Detailed	-10924
▁Caledonia	-10925
▁performing	-10926
▁Prosecution	-10927
)”	-10928
ema	-10929
▁AI	-10930
▁Rio	-10931
▁Sun	-10932
▁Fire	-10933
▁crop	-10934
LEMENT	-10935
ughter	-10936
atorial	-10937
titudes	-10938
▁Berlin	-10939
▁Female	-10940
▁Single	-10941
▁infant	-10942
▁revers	-10943
▁Francis	-10944
▁Illegal	-10945
▁Opinion	-10946
▁despite	-10947
▁manifest	-10948
▁Certification	-10949
.42	-10950
▁$3	-10951
▁Az	-10952
Hung	-10953
▁MSC	-10954
▁Tru	-10955
▁Cuban	-10956
▁Steps	-10957
▁route	-10958
▁Courts	-10959
▁panels	-10960
▁legitimacy	-10961
pa	-10962
BDE	-10963
▁03	-10964
agen	-10965
▁Dro	-10966
riter	-10967
▁WITH	-10968
iances	-10969
▁Andre	-10970
▁happy	-10971
Morocco	-10972
comings	-10973
▁2001)*	-10974
▁gained	-10975
▁lasted	-10976
Decision	-10977
▁freight	-10978
VIRONMENT	-10979
▁accurate	-10980
▁optional	-10981
▁Rotterdam	-10982
▁explosive	-10983
▁properties	-10984
▁underlying	-10985
▁nevertheless	-10986
ont	-10987
uck	-10988
voy	-10989
▁Tai	-10990
▁1973	-10991
▁Make	-10992
▁Week	-10993
▁Golan	-10994
▁mostly	-10995
▁strike	-10996
▁Measure	-10997
▁defines	-10998
▁totally	-10999
▁Everyone	-11000
▁linkages	-11001
▁publicly	-11002
▁abolished	-11003
▁equitable	-11004
▁executions	-11005
▁referendum	-11006
4"	-11007
Ph	-11008
Rec	-11009
max	-11010
▁Ko	-11011
tile	-11012
▁5.5	-11013
▁Jal	-11014
oxide	-11015
plied	-11016
itania	-11017
▁Index	-11018
▁autom	-11019
Hungary	-11020
▁recall	-11021
ecessary	-11022
▁Ongoing	-11023
▁adopting	-11024
▁employer	-11025
▁incurred	-11026
▁horizontal	-11027
▁accountable	-11028
▁consultants	-11029
▁contractual	-11030
▁civilizations	-11031
▁AS	-11032
loss	-11033
▁17.	-11034
▁dom	-11035
anian	-11036
▁Repro	-11037
▁poses	-11038
ophobia	-11039
▁differ	-11040
▁plants	-11041
ceptions	-11042
▁islands	-11043
▁silence	-11044
atization	-11045
▁Abdallah	-11046
▁Israelis	-11047
▁Province	-11048
▁Trinidad	-11049
▁Protecting	-11050
▁DEVELOPMENT	-11051
▁contributing	-11052
FR	-11053
Col	-11054
due	-11055
met	-11056
cean	-11057
▁250	-11058
▁29,	-11059
▁Low	-11060
▁Rico	-11061
▁[...	-11062
▁bulk	-11063
▁ribs	-11064
iments	-11065
▁error	-11066
▁Danish	-11067
▁Korean	-11068
▁Volume	-11069
▁forget	-11070
▁tonnes	-11071
Portugal	-11072
▁Options	-11073
▁Taliban	-11074
▁diverse	-11075
treatment	-11076
▁although	-11077
▁governed	-11078
▁maternity	-11079
▁variances	-11080
▁continuation	-11081
PG	-11082
▁'	-11083
aty	-11084
▁119	-11085
▁Jur	-11086
▁Book	-11087
▁Debt	-11088
▁Dest	-11089
▁forg	-11090
▁vacc	-11091
cribes	-11092
▁Ninth	-11093
▁solve	-11094
ootnote	-11095
▁2000).	-11096
▁Export	-11097
▁Ottawa	-11098
itecture	-11099
▁5.4.1.1	-11100
▁platform	-11101
▁Contracts	-11102
▁Household	-11103
▁appraisal	-11104
▁departure	-11105
▁evolution	-11106
▁acknowledge	-11107
▁assumptions	-11108
BR	-11109
hu	-11110
Tur	-11111
pers	-11112
ulos	-11113
▁6.4	-11114
▁ODP	-11115
Other	-11116
asion	-11117
usion	-11118
▁Miss	-11119
.5/61/	-11120
▁Dutch	-11121
▁Watch	-11122
▁2000)*	-11123
▁street	-11124
tivation	-11125
▁endorse	-11126
▁finally	-11127
▁ordered	-11128
Federated	-11129
▁Barbados	-11130
▁Schedule	-11131
▁opinions	-11132
▁reaction	-11133
▁Narcotics	-11134
▁gradually	-11135
▁Observations	-11136
▁confirmation	-11137
54	-11138
ORM	-11139
alo	-11140
yah	-11141
▁(29	-11142
▁Jew	-11143
acing	-11144
field	-11145
rical	-11146
▁2001]	-11147
▁Bienn	-11148
▁acute	-11149
program	-11150
▁Almost	-11151
▁Belize	-11152
▁Carlos	-11153
▁middle	-11154
▁shares	-11155
▁unders	-11156
▁debates	-11157
▁sincere	-11158
▁updating	-11159
▁subregion	-11160
▁Referendum	-11161
▁SUPPLEMENT	-11162
ITY	-11163
May	-11164
▁Fe	-11165
▁RO	-11166
anov	-11167
▁IBC	-11168
▁Kin	-11169
▁Posi	-11170
▁Vanu	-11171
.2.2.,	-11172
▁Mobil	-11173
▁White	-11174
▁meant	-11175
▁touch	-11176
▁wages	-11177
entives	-11178
▁2007).	-11179
▁remove	-11180
▁smuggl	-11181
▁William	-11182
▁awaiting	-11183
iversities	-11184
▁exercised	-11185
▁observance	-11186
▁resistance	-11187
▁relationships	-11188
/36	-11189
June	-11190
plit	-11191
▁128	-11192
▁Bud	-11193
amble	-11194
▁exit	-11195
▁outs	-11196
golese	-11197
▁accum	-11198
▁ageing	-11199
▁chance	-11200
▁compart	-11201
▁nominal	-11202
▁possess	-11203
▁tribute	-11204
▁respects	-11205
▁Admission	-11206
▁Congolese	-11207
tifications	-11208
▁analytical	-11209
▁colleagues	-11210
▁Recognition	-11211
▁atmospheric	-11212
▁confirmations	-11213
idi	-11214
tra	-11215
▁116	-11216
▁132	-11217
asure	-11218
orial	-11219
▁1970	-11220
▁Kiev	-11221
unting	-11222
▁Renew	-11223
▁chief	-11224
▁upper	-11225
▁2003).	-11226
▁2005).	-11227
▁CLAIMS	-11228
▁stream	-11229
▁tunnel	-11230
Republic	-11231
▁derived	-11232
▁dropped	-11233
▁arbitral	-11234
▁issuance	-11235
▁registry	-11236
▁Nationality	-11237
▁journalists	-11238
05	-11239
.38	-11240
▁".	-11241
amount	-11242
▁Christ	-11243
▁Effect	-11244
▁indent	-11245
riterion	-11246
▁Failure	-11247
▁Specify	-11248
▁Success	-11249
▁assured	-11250
▁Managing	-11251
▁acquired	-11252
▁Deployment	-11253
IX	-11254
ét	-11255
coh	-11256
ube	-11257
acks	-11258
▁106	-11259
iname	-11260
▁ends	-11261
▁neut	-11262
-20/2,	-11263
▁ARTIC	-11264
▁voice	-11265
certain	-11266
▁capita	-11267
▁contra	-11268
▁himself	-11269
▁urgency	-11270
▁organize	-11271
▁Direction	-11272
▁advantage	-11273
▁disclosed	-11274
▁waterways	-11275
▁interesting	-11276
▁Achievements	-11277
▁agricultural	-11278
▁capabilities	-11279
▁repatriation	-11280
.4)	-11281
ITI	-11282
▁Arc	-11283
▁son	-11284
▁alle	-11285
terday	-11286
▁ESCAP	-11287
▁towns	-11288
▁wider	-11289
▁cycles	-11290
▁(2007).	-11291
▁Disabled	-11292
▁appeared	-11293
▁forestry	-11294
▁pregnant	-11295
▁strictly	-11296
programmes	-11297
▁Economist	-11298
▁collecting	-11299
▁functional	-11300
▁adolescents	-11301
ML	-11302
éd	-11303
group	-11304
modal	-11305
▁Circ	-11306
▁Core	-11307
ulosis	-11308
▁leader	-11309
emptions	-11310
enteenth	-11311
▁Mansour	-11312
▁violent	-11313
MENTATION	-11314
▁Activity	-11315
▁Benefits	-11316
▁probably	-11317
▁Logistics	-11318
▁Sanctions	-11319
▁AMENDMENTS	-11320
▁highlights	-11321
▁productive	-11322
▁coefficient	-11323
▁9)	-11324
▁mg	-11325
arie	-11326
▁IMO	-11327
▁Kab	-11328
▁1967	-11329
▁Acqu	-11330
▁Bagh	-11331
▁Finn	-11332
Summit	-11333
▁11-13	-11334
▁prove	-11335
▁doctor	-11336
▁partly	-11337
▁volati	-11338
oubtedly	-11339
▁Antonio	-11340
▁contrad	-11341
▁degrees	-11342
erculosis	-11343
▁Enforced	-11344
▁profound	-11345
▁prohibit	-11346
celeration	-11347
▁childhood	-11348
▁dedicated	-11349
▁Disability	-11350
▁Reconciliation	-11351
07	-11352
FA	-11353
/41	-11354
ECH	-11355
rel	-11356
▁PL	-11357
fect	-11358
▁LAW	-11359
▁arg	-11360
▁2001;	-11361
Senegal	-11362
▁frozen	-11363
▁instead	-11364
▁Describe	-11365
▁Families	-11366
▁formally	-11367
▁visiting	-11368
▁scenarios	-11369
▁millennium	-11370
▁Conventional	-11371
▁Consolidation	-11372
.:	-11373
Per	-11374
uto	-11375
core	-11376
▁DIS	-11377
▁1958	-11378
▁1966	-11379
uating	-11380
▁58/4,	-11381
▁steel	-11382
defence	-11383
▁Taiwan	-11384
▁arrival	-11385
▁justify	-11386
criptions	-11387
notations	-11388
▁meantime	-11389
▁referring	-11390
▁Preventive	-11391
▁benchmarks	-11392
▁judgements	-11393
▁neighbours	-11394
▁persistent	-11395
▁quantities	-11396
▁"1	-11397
East	-11398
lets	-11399
▁21,	-11400
▁Dig	-11401
▁era	-11402
iland	-11403
tioned	-11404
▁(2003	-11405
▁ocean	-11406
▁postpon	-11407
▁symposi	-11408
▁salaries	-11409
▁thinking	-11410
▁enhancing	-11411
▁marketing	-11412
▁Immunities	-11413
▁shortcomings	-11414
▁installations	-11415
▁supplementary	-11416
▁RS	-11417
▁Mas	-11418
▁(196	-11419
▁Arch	-11420
▁huge	-11421
▁inev	-11422
▁proc	-11423
▁Heavy	-11424
▁intim	-11425
▁knows	-11426
elected	-11427
▁2004).	-11428
▁Eighth	-11429
▁Salman	-11430
▁sphere	-11431
▁spring	-11432
▁Outlook	-11433
▁clauses	-11434
nutrition	-11435
▁obstacle	-11436
▁assurance	-11437
▁ministers	-11438
▁undermine	-11439
▁specialized	-11440
▁disappearances	-11441
)-	-11442
FS	-11443
aux	-11444
qui	-11445
▁Ce	-11446
▁ha	-11447
LOUT	-11448
itae	-11449
▁114	-11450
▁Lou	-11451
▁Wal	-11452
Paris	-11453
▁Gear	-11454
▁Next	-11455
▁Purs	-11456
▁Gabon	-11457
▁Santi	-11458
▁cells	-11459
Ukraine	-11460
▁affirm	-11461
▁mining	-11462
▁Baghdad	-11463
▁Recalls	-11464
▁Reserve	-11465
▁Vanuatu	-11466
▁airport	-11467
▁disburs	-11468
▁2007-200	-11469
▁condemns	-11470
▁revenues	-11471
▁Inspector	-11472
▁pregnancy	-11473
▁renewable	-11474
▁Adaptation	-11475
▁Miscellaneous	-11476
rix	-11477
hard	-11478
tage	-11479
▁15:	-11480
▁IDF	-11481
▁row	-11482
cling	-11483
venue	-11484
▁Blue	-11485
▁2.2.7	-11486
▁UNMIS	-11487
▁vitae	-11488
▁Strike	-11489
▁estate	-11490
▁farmers	-11491
▁anything	-11492
▁applying	-11493
▁regarded	-11494
▁Meanwhile	-11495
▁Principle	-11496
▁eradicate	-11497
▁exchanges	-11498
▁fifteenth	-11499
▁complicated	-11500
▁extrabudgetary	-11501
08	-11502
NC	-11503
ADC	-11504
.1.9	-11505
OWAS	-11506
sson	-11507
▁175	-11508
▁DEC	-11509
▁Whe	-11510
▁die	-11511
First	-11512
▁1981	-11513
▁HIGH	-11514
▁Upon	-11515
▁meth	-11516
▁tens	-11517
▁(2004	-11518
▁Award	-11519
▁adult	-11520
▁fiscal	-11521
▁namely	-11522
▁tackle	-11523
▁Mercury	-11524
▁UNAMSIL	-11525
▁addenda	-11526
▁2008-201	-11527
▁Recovery	-11528
▁Prospects	-11529
▁indication	-11530
▁Discussions	-11531
▁facilitating	-11532
AG	-11533
▁cr	-11534
▁14:	-11535
▁JIU	-11536
priate	-11537
▁Credit	-11538
▁Minute	-11539
▁Rather	-11540
▁occurs	-11541
▁steady	-11542
▁Adequate	-11543
▁Establish	-11544
▁expressly	-11545
▁participant	-11546
▁practically	-11547
▁authorization	-11548
▁extraordinary	-11549
LES	-11550
och	-11551
▁GA	-11552
▁Ho	-11553
▁Ka	-11554
vert	-11555
▁0.7	-11556
▁Fat	-11557
▁IDP	-11558
▁Tal	-11559
▁seed	-11560
▁shot	-11561
-23/2,	-11562
income	-11563
isible	-11564
▁Broad	-11565
▁spare	-11566
▁Gambia	-11567
▁Modify	-11568
▁Somali	-11569
▁wealth	-11570
▁Greater	-11571
▁Perhaps	-11572
▁Dominican	-11573
▁consulted	-11574
▁translate	-11575
▁essentially	-11576
▁preservation	-11577
'.	-11578
FIC	-11579
ruck	-11580
▁133	-11581
▁Box	-11582
▁Hor	-11583
/263,	-11584
eches	-11585
▁Must	-11586
▁Took	-11587
.5/60/	-11588
▁insec	-11589
▁overl	-11590
▁Strong	-11591
European	-11592
▁modules	-11593
▁Emerging	-11594
▁drawings	-11595
▁seizures	-11596
▁Practices	-11597
▁desirable	-11598
▁Enhancement	-11599
▁Recruitment	-11600
▁combination	-11601
▁exclusively	-11602
▁administered	-11603
92	-11604
ns	-11605
abi	-11606
cipl	-11607
tled	-11608
▁10)	-11609
▁Gra	-11610
AINST	-11611
power	-11612
rique	-11613
▁1984	-11614
▁Pier	-11615
▁fish	-11616
Jordan	-11617
lantic	-11618
▁2001).	-11619
▁Launch	-11620
▁aggreg	-11621
▁AGAINST	-11622
▁Hearing	-11623
▁Suriname	-11624
▁attitude	-11625
▁Extension	-11626
▁partially	-11627
▁Mechanisms	-11628
▁adequately	-11629
▁fourteenth	-11630
▁prosperity	-11631
▁reductions	-11632
▁Comparative	-11633
▁STATISTICAL	-11634
▁appreciation	-11635
.39	-11636
/3.	-11637
eff	-11638
iri	-11639
uit	-11640
aziz	-11641
norm	-11642
▁cuts	-11643
bility	-11644
called	-11645
▁17-19	-11646
▁Palau	-11647
compass	-11648
▁Helena	-11649
▁proven	-11650
▁Lesotho	-11651
▁entrust	-11652
▁thereof	-11653
▁Incorpor	-11654
▁attempts	-11655
▁releases	-11656
▁scholars	-11657
▁tomorrow	-11658
▁Convening	-11659
▁isolation	-11660
▁subsidies	-11661
▁Unilateral	-11662
▁Cooperative	-11663
EY	-11664
.5)	-11665
ideo	-11666
riev	-11667
vian	-11668
▁EEC	-11669
▁Ill	-11670
UBLIC	-11671
month	-11672
▁2106	-11673
▁Bomb	-11674
▁clin	-11675
taking	-11676
▁Combat	-11677
▁Compet	-11678
▁ECOWAS	-11679
▁critic	-11680
▁handed	-11681
▁narrow	-11682
▁diagram	-11683
▁Emission	-11684
▁patients	-11685
▁humankind	-11686
▁destination	-11687
▁interpreted	-11688
▁conciliation	-11689
▁intersessional	-11690
04	-11691
78	-11692
.52	-11693
/34	-11694
/37	-11695
/44	-11696
net	-11697
arks	-11698
long	-11699
▁12)	-11700
▁Aim	-11701
▁kid	-11702
▁Link	-11703
▁ensh	-11704
Thirty	-11705
▁2004;	-11706
▁CLOUT	-11707
▁helic	-11708
inement	-11709
▁Almaty	-11710
▁Prince	-11711
▁refrig	-11712
▁Dispute	-11713
▁collect	-11714
▁Migrants	-11715
▁Staffing	-11716
▁alarming	-11717
▁analyses	-11718
▁evaluate	-11719
▁Privileges	-11720
▁programming	-11721
”:	-11722
ESC	-11723
▁7/	-11724
Note	-11725
arat	-11726
▁Hold	-11727
▁Nord	-11728
▁Vill	-11729
▁noon	-11730
▁Turks	-11731
▁apart	-11732
▁ozone	-11733
ropical	-11734
▁devast	-11735
▁solely	-11736
▁divorce	-11737
▁helicop	-11738
▁Atlantic	-11739
▁Santiago	-11740
▁departed	-11741
▁(2001-200	-11742
▁encompass	-11743
▁atmosphere	-11744
▁Integrating	-11745
▁petitioners	-11746
▁remuneration	-11747
▁representation	-11748
ois	-11749
empl	-11750
ston	-11751
▁297	-11752
▁ASE	-11753
▁Gué	-11754
-1999	-11755
▁Park	-11756
▁SPEC	-11757
▁dual	-11758
ipping	-11759
▁2008;	-11760
▁Lucia	-11761
▁abduc	-11762
▁liter	-11763
▁somew	-11764
▁worse	-11765
reening	-11766
▁Causes	-11767
▁corner	-11768
▁holder	-11769
▁enshrin	-11770
▁curricula	-11771
▁constantly	-11772
▁greenhouse	-11773
▁illustrate	-11774
▁06	-11775
▁PC	-11776
ARDS	-11777
guez	-11778
▁25,	-11779
▁Ari	-11780
▁Jam	-11781
isite	-11782
▁(2);	-11783
▁Cape	-11784
▁fine	-11785
▁gain	-11786
▁Advoc	-11787
▁Theme	-11788
▁dimin	-11789
▁prejud	-11790
necessary	-11791
▁vertical	-11792
▁",	-11793
▁Ol	-11794
date	-11795
▁FIR	-11796
▁tor	-11797
tigua	-11798
▁escal	-11799
▁fuels	-11800
▁journ	-11801
▁Histor	-11802
▁Manuel	-11803
▁bottom	-11804
▁friend	-11805
▁murder	-11806
▁season	-11807
▁History	-11808
▁obliged	-11809
portation	-11810
▁powerful	-11811
paragraphs	-11812
▁Furniture	-11813
▁convening	-11814
▁workplace	-11815
▁Preventing	-11816
▁absolutely	-11817
▁harassment	-11818
▁Restrictions	-11819
▁Collaboration	-11820
▁Rehabilitation	-11821
ANT	-11822
loy	-11823
▁Kal	-11824
ERSON	-11825
▁merg	-11826
▁2000:	-11827
▁Remed	-11828
▁remit	-11829
▁INFORM	-11830
▁arbitr	-11831
Eurostat	-11832
▁exceeded	-11833
▁capability	-11834
▁deposition	-11835
▁Methodology	-11836
▁duplication	-11837
▁Investigations	-11838
”)	-11839
abe	-11840
ito	-11841
▁Ru	-11842
▁129	-11843
▁2.9	-11844
▁23,	-11845
▁26,	-11846
▁PRI	-11847
cohol	-11848
gence	-11849
▁KFOR	-11850
▁Saleh	-11851
▁alien	-11852
▁Emphas	-11853
▁Making	-11854
▁Product	-11855
▁careful	-11856
▁licence	-11857
▁waiting	-11858
▁installed	-11859
▁contingency	-11860
▁subsistence	-11861
FCs	-11862
▁Ja	-11863
amas	-11864
▁mem	-11865
anium	-11866
▁Safe	-11867
▁leak	-11868
▁reun	-11869
▁save	-11870
▁males	-11871
▁Slovak	-11872
▁checks	-11873
▁studied	-11874
▁surplus	-11875
▁Enhanced	-11876
▁immunity	-11877
▁Equipment	-11878
▁businesses	-11879
▁negotiated	-11880
▁reflection	-11881
▁communiqués	-11882
▁legislative	-11883
▁demonstrated	-11884
▁restructuring	-11885
▁characteristic	-11886
▁TC	-11887
▁Uk	-11888
gred	-11889
▁970	-11890
▁Due	-11891
▁Veg	-11892
Ghana	-11893
atics	-11894
erald	-11895
tario	-11896
▁Balk	-11897
▁Soci	-11898
appear	-11899
vertis	-11900
▁Cairo	-11901
▁Carol	-11902
▁Taken	-11903
▁exhib	-11904
persons	-11905
▁George	-11906
▁Jewish	-11907
▁flight	-11908
▁100,000	-11909
▁Figures	-11910
▁playing	-11911
▁realize	-11912
Indonesia	-11913
▁exhausted	-11914
▁preceding	-11915
▁coordinated	-11916
▁sufficiently	-11917
2;	-11918
Cor	-11919
occ	-11920
▁LL	-11921
▁SO	-11922
.1).	-11923
▁0.2	-11924
▁28,	-11925
▁3-5	-11926
▁Cho	-11927
▁Pel	-11928
space	-11929
ville	-11930
▁magn	-11931
ducing	-11932
school	-11933
▁Clari	-11934
▁Regul	-11935
▁weigh	-11936
country	-11937
itative	-11938
▁Ethnic	-11939
▁closer	-11940
▁desire	-11941
▁hosted	-11942
▁Example	-11943
▁Pattern	-11944
▁Guarante	-11945
▁Railways	-11946
▁politics	-11947
Secretariat	-11948
▁retirement	-11949
▁exploration	-11950
▁restitution	-11951
▁ambassadorial	-11952
FPA	-11953
afa	-11954
sity	-11955
tica	-11956
▁DDT	-11957
▁FIN	-11958
▁unre	-11959
▁2004:	-11960
▁Costs	-11961
▁IMPLE	-11962
▁indiv	-11963
lossary	-11964
▁Employ	-11965
▁agents	-11966
▁hatred	-11967
▁lights	-11968
▁uphold	-11969
▁inherit	-11970
▁profits	-11971
▁Continue	-11972
▁Creation	-11973
▁complied	-11974
▁explored	-11975
▁surround	-11976
▁Practical	-11977
▁Regarding	-11978
▁occupying	-11979
▁Certificate	-11980
▁calculations	-11981
▁methodologies	-11982
88	-11983
ao	-11984
.51	-11985
/65	-11986
AND	-11987
CHI	-11988
bar	-11989
▁PE	-11990
▁Ul	-11991
aker	-11992
icos	-11993
orig	-11994
▁Sav	-11995
leted	-11996
▁hind	-11997
larity	-11998
▁Black	-11999
▁Hasan	-12000
▁INSTA	-12001
▁Means	-12002
▁proof	-12003
▁60/251	-12004
▁Crisis	-12005
▁Ground	-12006
▁UNFCCC	-12007
▁Unions	-12008
▁overdue	-12009
▁Mauritania	-12010
▁Mobilizing	-12011
▁laboratory	-12012
▁negotiable	-12013
TD	-12014
We	-12015
Bar	-12016
ero	-12017
oca	-12018
.1.3	-12019
.105	-12020
fund	-12021
omon	-12022
▁Sar	-12023
henno	-12024
itude	-12025
▁fast	-12026
soever	-12027
▁[...]	-12028
▁hotel	-12029
▁imply	-12030
▁minim	-12031
▁ports	-12032
▁revis	-12033
▁Subsid	-12034
▁confron	-12035
esticides	-12036
▁Guéhenno	-12037
▁Budgetary	-12038
▁Obligation	-12039
▁orientation	-12040
keep	-12041
▁176	-12042
▁Bro	-12043
▁Die	-12044
iesel	-12045
rific	-12046
▁2037	-12047
▁Adam	-12048
▁Done	-12049
▁Remn	-12050
▁Dakar	-12051
▁Death	-12052
▁Jorge	-12053
▁black	-12054
▁litem	-12055
▁Columb	-12056
▁Modern	-12057
▁Vulner	-12058
▁lowest	-12059
▁testim	-12060
▁courage	-12061
▁pillars	-12062
▁settled	-12063
▁Occupied	-12064
▁Remnants	-12065
▁computer	-12066
▁Objective	-12067
▁certified	-12068
ANC	-12069
dis	-12070
log	-12071
rak	-12072
yle	-12073
.7.,	-12074
ACTI	-12075
uent	-12076
▁0.3	-12077
▁4.4	-12078
▁les	-12079
Afric	-12080
avily	-12081
worth	-12082
▁Rate	-12083
▁anch	-12084
▁wars	-12085
ustive	-12086
▁1993,	-12087
▁UNMEE	-12088
ellists	-12089
▁intell	-12090
▁Ontario	-12091
▁reaffirm	-12092
▁steadily	-12093
▁criterion	-12094
▁Complaints	-12095
▁discussing	-12096
▁prosecutor	-12097
▁explanations	-12098
▁NS	-12099
ANCE	-12100
aves	-12101
▁(7)	-12102
▁11)	-12103
▁7.2	-12104
ancer	-12105
books	-12106
▁Rodr	-12107
▁Johan	-12108
▁Motor	-12109
▁Surve	-12110
▁Topic	-12111
▁treat	-12112
▁fallen	-12113
▁Alfonso	-12114
▁Release	-12115
▁Improved	-12116
▁commence	-12117
▁whatever	-12118
▁Materials	-12119
▁punishable	-12120
▁interaction	-12121
▁unfortunately	-12122
)"	-12123
76	-12124
/4)	-12125
aped	-12126
cher	-12127
inki	-12128
▁Kit	-12129
-973.	-12130
▁ICRC	-12131
.1.1.,	-12132
ergies	-12133
▁Facts	-12134
▁Fresh	-12135
ORITIES	-12136
faction	-12137
▁2006).	-12138
▁Seabed	-12139
▁Barbuda	-12140
▁Carnets	-12141
▁enjoyed	-12142
enophobia	-12143
resenting	-12144
▁970-973.	-12145
▁firearms	-12146
▁Cambridge	-12147
▁Terrorist	-12148
▁Waterways	-12149
▁CONFERENCE	-12150
▁subsidiary	-12151
▁concentrations	-12152
OG	-12153
Ps	-12154
.48	-12155
.49	-12156
Cuba	-12157
OSOC	-12158
umes	-12159
▁000	-12160
▁Flo	-12161
▁Mol	-12162
▁che	-12163
▁cul	-12164
▁fix	-12165
apped	-12166
artet	-12167
ranet	-12168
▁ACTI	-12169
▁Oman	-12170
▁Comor	-12171
▁Write	-12172
▁corro	-12173
▁unequ	-12174
forcing	-12175
pecting	-12176
▁Adjust	-12177
▁Inform	-12178
▁Nasser	-12179
▁bringing	-12180
▁Inventory	-12181
▁Instrument	-12182
▁Trusteeship	-12183
▁rapporteurs	-12184
▁IMPLEMENTATION	-12185
▁liberalization	-12186
isa	-12187
ski	-12188
▁FS	-12189
ANSP	-12190
appe	-12191
lose	-12192
▁192	-12193
▁22)	-12194
▁loan	-12195
▁mail	-12196
Turkey	-12197
ighten	-12198
▁hydro	-12199
ortions	-12200
ressing	-12201
▁planet	-12202
original	-12203
▁Finnish	-12204
▁Georgian	-12205
▁operated	-12206
▁passport	-12207
▁Ordinance	-12208
▁industries	-12209
▁whatsoever	-12210
▁Corrigendum	-12211
▁compilation	-12212
▁stereotypes	-12213
▁reimbursement	-12214
AH	-12215
TEM	-12216
des	-12217
1-60	-12218
only	-12219
▁Aar	-12220
▁Ald	-12221
▁Map	-12222
enger	-12223
erved	-12224
▁Marc	-12225
.5/54/	-12226
▁(2005	-12227
▁10-12	-12228
▁1991,	-12229
▁Delhi	-12230
▁EECCA	-12231
Philipp	-12232
▁PRACTI	-12233
▁allows	-12234
▁droits	-12235
▁exactly	-12236
▁Eleventh	-12237
▁Maternal	-12238
▁abortion	-12239
▁managers	-12240
▁pensions	-12241
omatically	-12242
▁Disappear	-12243
▁precisely	-12244
TBT	-12245
ivu	-12246
.5.2	-12247
PRST	-12248
agre	-12249
▁BUS	-12250
▁COR	-12251
inter	-12252
▁Hels	-12253
▁Para	-12254
▁doub	-12255
▁pool	-12256
.1/56/	-12257
unning	-12258
▁2.2.1	-12259
▁2008:	-12260
▁ASEAN	-12261
▁Large	-12262
▁Value	-12263
▁modes	-12264
▁impose	-12265
▁muscle	-12266
▁notion	-12267
▁54/263,	-12268
▁interrog	-12269
▁Measuring	-12270
▁suppliers	-12271
▁repeatedly	-12272
SID	-12273
▁TB	-12274
This	-12275
nest	-12276
prud	-12277
▁136	-12278
▁30,	-12279
▁Meh	-12280
▁ang	-12281
trine	-12282
▁axis	-12283
▁11.30	-12284
▁INITI	-12285
enhagen	-12286
▁Arctic	-12287
▁oceans	-12288
▁sulphur	-12289
▁judgment	-12290
▁afternoon	-12291
▁questioned	-12292
oe	-12293
OND	-12294
lez	-12295
▁Mit	-12296
▁Nas	-12297
▁Vin	-12298
cases	-12299
▁1969	-12300
▁APPR	-12301
▁Dani	-12302
▁ICTY	-12303
▁acid	-12304
▁exac	-12305
▁suit	-12306
▁Clean	-12307
▁PROCE	-12308
▁Urges	-12309
▁tyres	-12310
actment	-12311
▁roster	-12312
▁seemed	-12313
▁upheld	-12314
▁ignored	-12315
▁creditor	-12316
▁killings	-12317
▁lighting	-12318
▁profiles	-12319
▁ultimate	-12320
▁marriages	-12321
▁facilitated	-12322
▁permissible	-12323
▁respondents	-12324
▁stakeholders	-12325
/2)	-12326
▁Ker	-12327
▁NAT	-12328
▁quo	-12329
CESCR	-12330
adata	-12331
ginal	-12332
spons	-12333
uters	-12334
▁visa	-12335
ectual	-12336
lement	-12337
▁Ramos	-12338
▁story	-12339
▁TRANSP	-12340
▁debris	-12341
▁eighty	-12342
▁simult	-12343
▁speech	-12344
▁uneven	-12345
▁Seventy	-12346
▁shelter	-12347
▁Derechos	-12348
▁compiled	-12349
▁waterway	-12350
NP	-12351
DCP	-12352
itz	-12353
▁$5	-12354
▁ii	-12355
USTA	-12356
irut	-12357
isen	-12358
▁$3,	-12359
▁Bus	-12360
▁Edu	-12361
agnos	-12362
▁Lord	-12363
▁Mary	-12364
▁adap	-12365
Twenty	-12366
erator	-12367
▁1577,	-12368
▁veget	-12369
Minister	-12370
velihood	-12371
▁ambient	-12372
▁lacking	-12373
▁therein	-12374
▁unified	-12375
▁voltage	-12376
▁Columbia	-12377
▁Sudanese	-12378
▁defining	-12379
▁feasible	-12380
▁steering	-12381
▁PRACTICES	-12382
▁Sometimes	-12383
▁ambitious	-12384
▁obviously	-12385
▁Efficiency	-12386
▁progressive	-12387
▁Additionally	-12388
▁conservation	-12389
▁Civilizations	-12390
/47	-12391
▁Mé	-12392
▁0.6	-12393
VITIES	-12394
▁10.45	-12395
▁Front	-12396
keepers	-12397
ticians	-12398
▁Attend	-12399
▁Mother	-12400
▁condol	-12401
iability	-12402
▁exacerb	-12403
▁answered	-12404
▁deposits	-12405
▁punished	-12406
▁defendant	-12407
▁entrusted	-12408
▁resolving	-12409
▁Represents	-12410
▁reinforced	-12411
▁suspension	-12412
▁Engineering	-12413
▁identifying	-12414
▁supervisory	-12415
▁automatically	-12416
.44	-12417
era	-12418
gel	-12419
▁3.9	-12420
▁Fil	-12421
▁Got	-12422
▁INS	-12423
▁Naj	-12424
▁bio	-12425
aught	-12426
eties	-12427
scale	-12428
trial	-12429
▁1325	-12430
▁trib	-12431
enders	-12432
▁REPOR	-12433
▁risen	-12434
▁split	-12435
▁worst	-12436
INATION	-12437
quiries	-12438
▁2003)1	-12439
▁20378.	-12440
▁Caicos	-12441
▁decree	-12442
▁rarely	-12443
▁suspic	-12444
▁timing	-12445
▁manager	-12446
▁infected	-12447
▁markings	-12448
▁compounds	-12449
▁registers	-12450
▁Continuing	-12451
▁Internally	-12452
▁boundaries	-12453
▁comparable	-12454
▁encumbered	-12455
▁RECOMMENDED	-12456
96	-12457
98	-12458
gyp	-12459
▁BO	-12460
▁Dé	-12461
▁153	-12462
▁24,	-12463
▁7.6	-12464
Saudi	-12465
▁Gene	-12466
▁Lind	-12467
▁Were	-12468
arious	-12469
▁(1997	-12470
▁droit	-12471
▁empty	-12472
▁franc	-12473
ointing	-12474
▁Aliens	-12475
▁Rodrig	-12476
▁contro	-12477
▁thirds	-12478
▁verify	-12479
national	-12480
stitutes	-12481
urisprud	-12482
▁Concept	-12483
▁Patrick	-12484
▁prerequ	-12485
▁Heritage	-12486
▁admitted	-12487
▁divisions	-12488
▁incidence	-12489
▁liability	-12490
▁ACTIVITIES	-12491
▁conviction	-12492
▁fulfilment	-12493
▁condolences	-12494
▁contractors	-12495
PO	-12496
.37	-12497
/5/	-12498
▁ju	-12499
INTS	-12500
took	-12501
▁Jul	-12502
annex	-12503
▁1048	-12504
▁Chec	-12505
ceived	-12506
▁55/25	-12507
▁Plans	-12508
urities	-12509
▁(1992)	-12510
▁Improve	-12511
▁arrests	-12512
▁promise	-12513
▁receives	-12514
▁Welcoming	-12515
▁admission	-12516
▁excessive	-12517
▁Subsequent	-12518
▁coordinate	-12519
▁Specialists	-12520
▁unnecessary	-12521
▁Reconstruction	-12522
jo	-12523
Den	-12524
iar	-12525
▁DE	-12526
URES	-12527
heid	-12528
imir	-12529
orum	-12530
▁inm	-12531
CHIEV	-12532
rying	-12533
shasa	-12534
▁Attor	-12535
▁Focus	-12536
▁Given	-12537
▁UNMIL	-12538
▁acted	-12539
aciones	-12540
▁ACHIEV	-12541
▁Beirut	-12542
▁Ukrain	-12543
undering	-12544
▁Advisor	-12545
▁Because	-12546
▁clarity	-12547
▁focuses	-12548
▁signals	-12549
▁INITIATI	-12550
▁fuelling	-12551
▁granting	-12552
▁TRANSPORT	-12553
▁recording	-12554
▁reviewing	-12555
▁illiteracy	-12556
▁moratorium	-12557
▁subsection	-12558
▁complainants	-12559
▁disciplinary	-12560
.46	-12561
Item	-12562
mand	-12563
▁AWG	-12564
▁Bol	-12565
▁Han	-12566
INESS	-12567
overe	-12568
▁729,	-12569
▁Wall	-12570
ounced	-12571
tonnes	-12572
▁19-21	-12573
▁Build	-12574
▁Frequ	-12575
▁Layer	-12576
▁Toxic	-12577
▁2002).	-12578
▁Notice	-12579
▁pieces	-12580
▁ensuing	-12581
▁sympath	-12582
▁uranium	-12583
Jerusalem	-12584
▁dissemin	-12585
▁operator	-12586
▁verified	-12587
▁2010-2011,	-12588
▁Copenhagen	-12589
▁PRIORITIES	-12590
▁attributed	-12591
▁reparation	-12592
▁communicated	-12593
El	-12594
Sh	-12595
IGN	-12596
imp	-12597
rav	-12598
OVAL	-12599
ingu	-12600
iyad	-12601
▁CCW	-12602
▁Gil	-12603
▁RAC	-12604
organ	-12605
▁junc	-12606
▁ther	-12607
forest	-12608
▁CHALL	-12609
▁Price	-12610
▁Tokyo	-12611
▁broch	-12612
▁catal	-12613
▁enemy	-12614
▁image	-12615
ictions	-12616
▁Church	-12617
▁breast	-12618
▁remind	-12619
▁tender	-12620
overeign	-12621
▁Helsinki	-12622
▁Together	-12623
▁comprised	-12624
▁enshrined	-12625
▁infection	-12626
▁prohibits	-12627
Philippines	-12628
▁competitive	-12629
▁connections	-12630
▁explanatory	-12631
▁investigate	-12632
▁specialists	-12633
▁Declarations	-12634
▁administrative	-12635
/13,	-12636
▁11/	-12637
▁Own	-12638
▁UNV	-12639
▁auc	-12640
▁mir	-12641
rians	-12642
▁CTBT	-12643
▁Lake	-12644
▁desp	-12645
▁1988.	-12646
iencies	-12647
loading	-12648
tlement	-12649
▁Kimber	-12650
▁Uniform	-12651
▁Witness	-12652
▁BUSINESS	-12653
▁frequent	-12654
▁workload	-12655
▁footnotes	-12656
resolutions	-12657
▁tolerances	-12658
▁Facilitating	-12659
▁commencement	-12660
-1,	-12661
INF	-12662
bil	-12663
▁Ou	-12664
Iraq	-12665
from	-12666
mend	-12667
▁202	-12668
▁CIV	-12669
▁ITS	-12670
▁Tem	-12671
ENGES	-12672
acent	-12673
orous	-12674
▁Card	-12675
▁Mark	-12676
▁heat	-12677
▁invo	-12678
▁murd	-12679
▁sold	-12680
▁trim	-12681
▁vers	-12682
.4.1.,	-12683
▁chart	-12684
▁facto	-12685
▁false	-12686
▁myself	-12687
appeared	-12688
▁Discipl	-12689
▁Discuss	-12690
▁essence	-12691
▁coercive	-12692
▁preserve	-12693
▁Generally	-12694
▁Objection	-12695
▁mediation	-12696
▁undertook	-12697
▁CHALLENGES	-12698
▁remarkable	-12699
▁Transmission	-12700
▁deterioration	-12701
LY	-12702
ér	-12703
.56	-12704
Mut	-12705
bec	-12706
sts	-12707
▁Aw	-12708
▁CB	-12709
anes	-12710
uant	-12711
▁Mog	-12712
▁max	-12713
▁wet	-12714
▁2625	-12715
▁merc	-12716
▁pron	-12717
0,000.	-12718
▁2001:	-12719
▁2005:	-12720
▁Corps	-12721
▁ECLAC	-12722
▁flood	-12723
▁virus	-12724
Algeria	-12725
▁10485.	-12726
▁Minist	-12727
▁career	-12728
▁(2008).	-12729
▁Entered	-12730
▁Learning	-12731
▁reconsid	-12732
▁assisting	-12733
▁happening	-12734
▁tradition	-12735
▁virtually	-12736
▁combatants	-12737
▁conditional	-12738
▁terminology	-12739
▁Consequences	-12740
him	-12741
▁Cf	-12742
.1.2	-12743
arth	-12744
lows	-12745
▁5.6	-12746
▁Hyd	-12747
▁Kat	-12748
▁Mig	-12749
▁bot	-12750
▁rou	-12751
ayman	-12752
serve	-12753
▁1978	-12754
▁Garc	-12755
▁blue	-12756
▁emer	-12757
▁evac	-12758
hentic	-12759
▁Grand	-12760
▁dwell	-12761
▁crimin	-12762
▁united	-12763
▁diamond	-12764
▁escorted	-12765
▁Ecosystem	-12766
▁Inclusion	-12767
▁Sovereign	-12768
▁expediting	-12769
▁coordinates	-12770
▁emergencies	-12771
▁indivisible	-12772
▁territorial	-12773
▁organisations	-12774
5:	-12775
NE	-12776
XV	-12777
CAT	-12778
FAO	-12779
ITA	-12780
Sub	-12781
▁PF	-12782
fall	-12783
ifts	-12784
▁254	-12785
▁751	-12786
▁sad	-12787
ffice	-12788
issue	-12789
mines	-12790
▁Aims	-12791
▁BEST	-12792
▁Chap	-12793
▁Fore	-12794
▁Grad	-12795
▁plus	-12796
▁Brown	-12797
▁Times	-12798
▁rebel	-12799
▁2008)1	-12800
▁Street	-12801
▁modest	-12802
▁packed	-12803
▁gravity	-12804
▁heavily	-12805
▁holders	-12806
▁seconds	-12807
echnology	-12808
▁somewhat	-12809
▁Important	-12810
▁attempted	-12811
▁admissible	-12812
▁Organizational	-12813
.;	-12814
da	-12815
gg	-12816
pin	-12817
comb	-12818
spec	-12819
▁4.5	-12820
▁Jen	-12821
▁Rob	-12822
▁Und	-12823
/1998	-12824
/56/7	-12825
ersed	-12826
imals	-12827
▁117:	-12828
▁Omar	-12829
▁Star	-12830
▁axle	-12831
/1999,	-12832
▁fluct	-12833
▁Michel	-12834
▁bridge	-12835
▁enroll	-12836
▁indict	-12837
▁Centres	-12838
▁bearing	-12839
▁Pursuant	-12840
▁credible	-12841
▁cylinder	-12842
▁managing	-12843
▁trailers	-12844
▁Expresses	-12845
▁Functions	-12846
▁Prisoners	-12847
▁Satellite	-12848
▁detection	-12849
▁travelled	-12850
▁protective	-12851
▁INITIATIVES	-12852
▁architecture	-12853
LM	-12854
hus	-12855
▁GO	-12856
ache	-12857
arer	-12858
asse	-12859
hand	-12860
tlen	-12861
▁(31	-12862
▁KEY	-12863
▁eye	-12864
▁Chem	-12865
▁Fuel	-12866
▁STAT	-12867
celona	-12868
▁2.2.2	-12869
▁Conse	-12870
▁Needs	-12871
gyptian	-12872
▁Fiscal	-12873
▁expire	-12874
▁enforce	-12875
▁instant	-12876
▁listing	-12877
▁Philippe	-12878
▁marginal	-12879
▁Achieving	-12880
▁Brazilian	-12881
▁Operating	-12882
▁prejudice	-12883
▁variations	-12884
▁Examination	-12885
TY	-12886
2)]	-12887
aph	-12888
oir	-12889
sim	-12890
▁HE	-12891
▁TE	-12892
▁1.9	-12893
▁126	-12894
▁Pit	-12895
Asian	-12896
party	-12897
▁prem	-12898
▁holid	-12899
▁illeg	-12900
▁micro	-12901
▁rooms	-12902
▁unres	-12903
Section	-12904
▁Agreed	-12905
▁INSTAL	-12906
▁Vessel	-12907
▁Voting	-12908
▁editor	-12909
▁routes	-12910
▁Context	-12911
▁Quartet	-12912
▁promulg	-12913
▁refusal	-12914
▁renewal	-12915
atibility	-12916
imitation	-12917
▁missiles	-12918
▁parental	-12919
▁situated	-12920
▁versions	-12921
▁Mandatory	-12922
▁Ukrainian	-12923
▁describes	-12924
▁dismissal	-12925
▁maintains	-12926
▁safeguard	-12927
▁inalienable	-12928
▁Specifically	-12929
▁preparedness	-12930
▁qualifications	-12931
aur	-12932
uce	-12933
/100	-12934
bing	-12935
rass	-12936
▁Lic	-12937
▁Mou	-12938
▁SER	-12939
UNFPA	-12940
reach	-12941
▁Abid	-12942
▁Cauc	-12943
▁stim	-12944
artoum	-12945
▁1985.	-12946
▁1999;	-12947
▁25-27	-12948
▁Serge	-12949
▁Signs	-12950
▁psych	-12951
henburg	-12952
▁Expand	-12953
▁Senate	-12954
▁decent	-12955
▁duplic	-12956
▁Kinshasa	-12957
▁homeless	-12958
▁initially	-12959
▁signatory	-12960
EH	-12961
Ms	-12962
UF	-12963
rik	-12964
▁9/	-12965
ITOR	-12966
▁138	-12967
/58/7	-12968
limin	-12969
▁Like	-12970
▁XIII	-12971
▁owned	-12972
▁2007)1	-12973
▁Polish	-12974
▁Eduardo	-12975
▁eastern	-12976
▁persist	-12977
▁advisers	-12978
▁colonial	-12979
▁consumer	-12980
▁superior	-12981
entilation	-12982
▁clearance	-12983
▁intensity	-12984
▁paramount	-12985
▁reaffirms	-12986
▁Gothenburg	-12987
▁exemptions	-12988
▁responding	-12989
▁stockpiles	-12990
▁university	-12991
▁Calculation	-12992
▁aspirations	-12993
▁willingness	-12994
▁ACHIEVEMENTS	-12995
▁Accountability	-12996
4;	-12997
YS	-12998
/4.	-12999
lov	-13000
▁AW	-13001
▁102	-13002
▁Bod	-13003
▁Mex	-13004
▁PCB	-13005
▁Rah	-13006
▁UNU	-13007
board	-13008
itely	-13009
versi	-13010
▁1949	-13011
▁ICAO	-13012
▁fled	-13013
.5/63/	-13014
orship	-13015
▁10.35	-13016
▁12.30	-13017
▁aside	-13018
▁foster	-13019
▁taught	-13020
▁trains	-13021
STRAINTS	-13022
▁Kuwaiti	-13023
▁desired	-13024
▁heating	-13025
▁precurs	-13026
▁trailer	-13027
▁tensions	-13028
▁expresses	-13029
▁fertility	-13030
▁obtaining	-13031
▁livelihood	-13032
▁proceeding	-13033
▁CONSTRAINTS	-13034
▁contributes	-13035
▁exceptional	-13036
Ge	-13037
HL	-13038
KS	-13039
(2)	-13040
ILO	-13041
▁"4	-13042
▁AE	-13043
Bang	-13044
avig	-13045
tory	-13046
▁Tay	-13047
▁Yok	-13048
▁fle	-13049
tings	-13050
▁Conn	-13051
▁Mess	-13052
▁brom	-13053
▁defe	-13054
▁rely	-13055
lights	-13056
ogenic	-13057
▁Names	-13058
▁Nauru	-13059
▁Types	-13060
▁cerem	-13061
▁Invited	-13062
▁Schools	-13063
▁alcohol	-13064
▁exposed	-13065
▁raising	-13066
▁Bulletin	-13067
▁employee	-13068
▁shipping	-13069
▁economics	-13070
▁successes	-13071
▁Regulatory	-13072
▁discipline	-13073
▁submitting	-13074
▁calibration	-13075
LR	-13076
tw	-13077
COM	-13078
IPC	-13079
uum	-13080
win	-13081
▁Zh	-13082
cons	-13083
▁Dry	-13084
▁ICJ	-13085
▁Tes	-13086
▁won	-13087
uties	-13088
▁IPCC	-13089
▁OFFI	-13090
▁Prod	-13091
▁Wood	-13092
▁ages	-13093
▁maps	-13094
▁10.40	-13095
▁2007:	-13096
▁firms	-13097
Saharan	-13098
▁boards	-13099
▁intent	-13100
▁preval	-13101
▁Lawyers	-13102
▁Website	-13103
▁dismant	-13104
▁expects	-13105
▁subcomm	-13106
▁Interest	-13107
▁Nacional	-13108
▁Students	-13109
▁consisted	-13110
▁headlamps	-13111
▁proactive	-13112
▁varieties	-13113
▁2002-2005)	-13114
▁exhaustive	-13115
▁incentives	-13116
▁cooperative	-13117
▁Jurisdiction	-13118
▁universities	-13119
DAW	-13120
INT	-13121
rie	-13122
born	-13123
chen	-13124
▁Bor	-13125
dives	-13126
▁Tong	-13127
▁conj	-13128
▁ESCWA	-13129
▁fired	-13130
losures	-13131
▁Khaled	-13132
▁Weight	-13133
▁lodged	-13134
▁resort	-13135
liminary	-13136
▁adviser	-13137
▁Khartoum	-13138
▁Sessions	-13139
▁Directors	-13140
▁thereafter	-13141
▁visibility	-13142
▁Commissions	-13143
▁Destruction	-13144
▁modernization	-13145
ny	-13146
ui	-13147
Cro	-13148
ICA	-13149
stu	-13150
▁Ri	-13151
.1.4	-13152
cape	-13153
eban	-13154
éral	-13155
▁Dou	-13156
▁ESD	-13157
▁arm	-13158
andro	-13159
emics	-13160
icide	-13161
▁Ivan	-13162
▁Mort	-13163
▁wait	-13164
▁11-14	-13165
▁1987.	-13166
▁Could	-13167
▁James	-13168
▁Remov	-13169
▁sport	-13170
Denmark	-13171
emption	-13172
▁Copies	-13173
▁Demand	-13174
▁Khalil	-13175
▁Waters	-13176
▁battle	-13177
▁guided	-13178
▁rivers	-13179
▁ARTICLE	-13180
▁Concern	-13181
▁Solomon	-13182
▁getting	-13183
ellington	-13184
▁Selection	-13185
▁circulate	-13186
▁postponed	-13187
▁precedent	-13188
▁contractor	-13189
▁meaningful	-13190
▁ministries	-13191
▁usefulness	-13192
▁INFORMATION	-13193
▁preparatory	-13194
▁acceleration	-13195
▁civilization	-13196
dh	-13197
App	-13198
ius	-13199
▁10/	-13200
▁127	-13201
▁180	-13202
▁61,	-13203
▁CEN	-13204
▁Esp	-13205
bourg	-13206
▁QUES	-13207
-26/2,	-13208
.3.1.,	-13209
▁Event	-13210
▁inlet	-13211
▁Correc	-13212
▁autumn	-13213
▁client	-13214
▁Whether	-13215
▁deficit	-13216
▁Creating	-13217
▁Vehicles	-13218
▁argument	-13219
▁interven	-13220
▁pressing	-13221
▁recourse	-13222
▁segments	-13223
▁volatile	-13224
▁Kimberley	-13225
▁Equatorial	-13226
▁explicitly	-13227
▁incorporate	-13228
▁undoubtedly	-13229
▁Negotiations	-13230
ca	-13231
ICY	-13232
oes	-13233
Bern	-13234
▁1.0	-13235
▁Ele	-13236
▁Lee	-13237
▁XIV	-13238
▁Hosp	-13239
▁UNOM	-13240
▁Wang	-13241
ulties	-13242
▁14-16	-13243
▁Lands	-13244
▁basin	-13245
▁dream	-13246
▁mutil	-13247
▁owner	-13248
▁shift	-13249
Croatia	-13250
cutting	-13251
▁UNAMID	-13252
▁hereby	-13253
▁memory	-13254
▁strive	-13255
ostering	-13256
▁observe	-13257
▁Delivery	-13258
▁feedback	-13259
▁hundreds	-13260
▁threaten	-13261
▁Responses	-13262
▁attitudes	-13263
▁completing	-13264
▁contingent	-13265
urisprudence	-13266
▁COMMITMENTS	-13267
▁foundations	-13268
RE	-13269
.6,	-13270
Eth	-13271
Reg	-13272
/273	-13273
rets	-13274
wing	-13275
▁Lit	-13276
CEDAW	-13277
ashed	-13278
▁Gulf	-13279
▁Merc	-13280
▁Summ	-13281
▁sequ	-13282
PERSON	-13283
▁54/13	-13284
▁Frank	-13285
stanbul	-13286
▁......	-13287
▁Assets	-13288
▁easier	-13289
▁pledge	-13290
▁sheets	-13291
▁unpaid	-13292
▁channel	-13293
▁harmful	-13294
▁Abdullah	-13295
▁Egyptian	-13296
▁contrast	-13297
▁councils	-13298
▁doctrine	-13299
▁inherent	-13300
▁isolated	-13301
▁operates	-13302
▁unlawful	-13303
▁utilized	-13304
▁preferred	-13305
▁testimony	-13306
▁yesterday	-13307
▁weaknesses	-13308
▁Compilation	-13309
▁disappeared	-13310
ae	-13311
ndez	-13312
▁CST	-13313
▁ECA	-13314
▁Las	-13315
▁Raf	-13316
/17),	-13317
/59/3	-13318
apest	-13319
▁dump	-13320
/2000,	-13321
▁Cover	-13322
▁Older	-13323
▁parad	-13324
▁plate	-13325
ERATION	-13326
▁defect	-13327
▁Dynamic	-13328
▁Malaria	-13329
▁helping	-13330
▁student	-13331
▁Positive	-13332
▁preamble	-13333
▁Barcelona	-13334
▁employers	-13335
▁Consultant	-13336
▁Leadership	-13337
▁consisting	-13338
............	-13339
▁Enterprises	-13340
▁Availability	-13341
▁accreditation	-13342
1;	-13343
Six	-13344
▁Gi	-13345
▁Vo	-13346
▁[(	-13347
imon	-13348
usha	-13349
▁(8)	-13350
▁800	-13351
cious	-13352
▁Brig	-13353
▁NATO	-13354
▁mill	-13355
▁sear	-13356
/2002,	-13357
▁1.2.1	-13358
▁1981.	-13359
▁Invol	-13360
▁Riyad	-13361
▁inval	-13362
athered	-13363
▁Infant	-13364
Malaysia	-13365
▁Charles	-13366
▁Deliber	-13367
▁Markets	-13368
▁routine	-13369
▁sending	-13370
▁APPROVAL	-13371
▁Bombings	-13372
▁amending	-13373
▁generate	-13374
▁juncture	-13375
▁shelters	-13376
▁Sessional	-13377
▁operators	-13378
▁readiness	-13379
▁Attendance	-13380
▁fellowship	-13381
▁interviews	-13382
▁xenophobia	-13383
▁Authorities	-13384
▁particulars	-13385
dd	-13386
cur	-13387
NING	-13388
▁AGC	-13389
-20/4	-13390
▁1977	-13391
▁7-11	-13392
▁CRIC	-13393
▁Carm	-13394
▁Wolf	-13395
ourses	-13396
▁label	-13397
ourcing	-13398
▁10,000	-13399
▁Ethics	-13400
▁Postal	-13401
▁Sports	-13402
▁Struct	-13403
▁Tables	-13404
▁tenure	-13405
▁neutral	-13406
Recalling	-13407
▁Maldives	-13408
▁airspace	-13409
▁ceremony	-13410
▁fiftieth	-13411
▁Alexander	-13412
▁Dimension	-13413
▁attending	-13414
▁promising	-13415
▁petitioner	-13416
▁manufacturing	-13417
EO	-13418
Ec	-13419
PL	-13420
Law	-13421
aja	-13422
▁SH	-13423
.3.4	-13424
ecks	-13425
▁40,	-13426
▁CMP	-13427
▁COM	-13428
▁Mur	-13429
▁haz	-13430
ifies	-13431
onian	-13432
▁Sand	-13433
▁XVII	-13434
▁bond	-13435
▁pure	-13436
▁6.2.5	-13437
▁Argen	-13438
▁Cycle	-13439
▁Muham	-13440
▁Verde	-13441
▁Daniel	-13442
▁Herald	-13443
▁milest	-13444
▁predic	-13445
▁WORKING	-13446
▁advised	-13447
▁implies	-13448
▁seizure	-13449
▁tremend	-13450
▁western	-13451
▁Genocide	-13452
▁autonomy	-13453
▁settlers	-13454
▁cessation	-13455
▁integrate	-13456
▁processed	-13457
▁consultant	-13458
▁CHAIRPERSON	-13459
▁accelerated	-13460
▁intensified	-13461
▁Implications	-13462
▁Unliquidated	-13463
▁tuberculosis	-13464
▁abbreviations	-13465
AI	-13466
ih	-13467
pi	-13468
)-(	-13469
-2,	-13470
DAF	-13471
▁WH	-13472
iest	-13473
▁134	-13474
▁38,	-13475
▁Gar	-13476
▁1751	-13477
▁Wars	-13478
pement	-13479
worthy	-13480
▁4.1.1	-13481
▁Coast	-13482
▁Speed	-13483
▁loads	-13484
▁Actual	-13485
▁Elimin	-13486
▁Living	-13487
▁quorum	-13488
▁remitt	-13489
▁Humanos	-13490
▁bottlen	-13491
▁identif	-13492
▁univers	-13493
▁chairman	-13494
▁daunting	-13495
▁Judiciary	-13496
▁exercises	-13497
▁rationale	-13498
▁appliances	-13499
▁provincial	-13500
▁consecutive	-13501
94	-13502
oo	-13503
.53	-13504
.54	-13505
.6)	-13506
OCI	-13507
▁MP	-13508
icht	-13509
olen	-13510
onie	-13511
post	-13512
▁Bey	-13513
▁Dev	-13514
roads	-13515
▁(210	-13516
▁CERD	-13517
▁Thir	-13518
▁says	-13519
letter	-13520
tinent	-13521
▁Pedro	-13522
▁Would	-13523
▁overw	-13524
▁pilot	-13525
▁plane	-13526
▁assume	-13527
▁Attacks	-13528
▁issuing	-13529
▁remember	-13530
▁returnees	-13531
▁synthesis	-13532
▁2002-2003,	-13533
▁INSTALMENT	-13534
▁appearance	-13535
▁Maintaining	-13536
▁Participant	-13537
▁Participating	-13538
▁organizational	-13539
kt	-13540
.61	-13541
Leg	-13542
ROM	-13543
esty	-13544
▁$4,	-13545
▁9.2	-13546
▁Tan	-13547
/2009	-13548
laden	-13549
▁AMIS	-13550
▁Farm	-13551
▁IDPs	-13552
▁Trac	-13553
▁boat	-13554
▁1125,	-13555
▁8.2.2	-13556
▁Super	-13557
▁grade	-13558
▁milit	-13559
▁rough	-13560
casting	-13561
▁extrad	-13562
▁patrol	-13563
▁Vincent	-13564
▁banking	-13565
▁emitted	-13566
▁restore	-13567
▁turning	-13568
▁Attorney	-13569
▁Fiftieth	-13570
▁Pressure	-13571
▁earnings	-13572
▁notified	-13573
▁overwhel	-13574
▁resolute	-13575
▁upcoming	-13576
▁concerted	-13577
▁intensive	-13578
▁everywhere	-13579
▁signatories	-13580
hr	-13581
CHA	-13582
ady	-13583
ften	-13584
heim	-13585
▁19.	-13586
▁Hab	-13587
▁Kor	-13588
▁Wid	-13589
UNECE	-13590
▁Amor	-13591
▁kidn	-13592
▁Smith	-13593
▁Veget	-13594
▁align	-13595
▁2009).	-13596
▁Attach	-13597
▁Custom	-13598
▁Pierre	-13599
▁assemb	-13600
▁refuse	-13601
▁Corresp	-13602
▁doubled	-13603
▁talking	-13604
mentioned	-13605
ributable	-13606
unciation	-13607
▁Campaign	-13608
▁Critical	-13609
▁ELECTION	-13610
▁Minority	-13611
▁Shipping	-13612
▁foreseen	-13613
▁licences	-13614
▁reserved	-13615
▁acquiring	-13616
▁Controller	-13617
▁Provincial	-13618
▁prevailing	-13619
▁(2001-2004)	-13620
▁convictions	-13621
▁disparities	-13622
▁professional	-13623
uf	-13624
/98	-13625
aza	-13626
bel	-13627
eet	-13628
mir	-13629
ICEF	-13630
Peru	-13631
omme	-13632
▁16:	-13633
▁mop	-13634
mense	-13635
▁Bali	-13636
▁CORR	-13637
▁brut	-13638
▁runs	-13639
-2002)	-13640
.5/62/	-13641
Please	-13642
Vienna	-13643
hesion	-13644
mental	-13645
▁2003]	-13646
▁Later	-13647
▁earth	-13648
▁plain	-13649
▁reject	-13650
▁screen	-13651
▁unlike	-13652
▁categor	-13653
▁diagnos	-13654
▁warrant	-13655
Guatemala	-13656
▁CATEGORY	-13657
▁Controls	-13658
▁Interpol	-13659
▁censuses	-13660
▁gathered	-13661
▁relatives	-13662
▁Thereafter	-13663
▁Fundamental	-13664
▁assignments	-13665
▁reunification	-13666
DD	-13667
GB	-13668
IO	-13669
Ter	-13670
rum	-13671
UNDP	-13672
abad	-13673
anga	-13674
rupt	-13675
Human	-13676
oning	-13677
▁Berm	-13678
▁Dise	-13679
▁deny	-13680
▁succ	-13681
.1/55/	-13682
ooting	-13683
▁falls	-13684
▁Cities	-13685
▁Nordic	-13686
aneously	-13687
▁Abidjan	-13688
▁Bahamas	-13689
▁Conting	-13690
▁broadly	-13691
▁inmates	-13692
▁invoked	-13693
▁Approach	-13694
▁optimism	-13695
▁diplomacy	-13696
▁producing	-13697
▁Intermodal	-13698
▁Contracting	-13699
▁affirmative	-13700
▁corresponds	-13701
▁attributable	-13702
-34	-13703
199	-13704
▁PS	-13705
ilos	-13706
▁20.	-13707
▁4-8	-13708
▁Dag	-13709
▁IAS	-13710
Leban	-13711
casts	-13712
night	-13713
▁IFRS	-13714
▁Sami	-13715
▁Using	-13716
▁Works	-13717
▁merit	-13718
▁sharp	-13719
▁surre	-13720
▁Vision	-13721
▁yellow	-13722
▁Rwandan	-13723
▁convene	-13724
▁deposit	-13725
▁drought	-13726
▁tensile	-13727
inguistic	-13728
▁corporal	-13729
▁expelled	-13730
▁restored	-13731
▁suspects	-13732
▁smuggling	-13733
▁Publishing	-13734
▁nomination	-13735
▁undergoing	-13736
▁Termination	-13737
▁satisfaction	-13738
OUR	-13739
nik	-13740
▁NM	-13741
▁Sr	-13742
.189	-13743
ICOM	-13744
agon	-13745
word	-13746
▁Ess	-13747
▁Lev	-13748
▁pul	-13749
sized	-13750
▁1960	-13751
▁Buch	-13752
▁Fort	-13753
▁Pere	-13754
.1/60/	-13755
ranged	-13756
▁Saeed	-13757
▁hards	-13758
fficial	-13759
▁Aarhus	-13760
▁filter	-13761
▁ranges	-13762
▁Content	-13763
▁Tobacco	-13764
▁immense	-13765
▁outlook	-13766
▁Aircraft	-13767
▁Liberian	-13768
▁Unlawful	-13769
▁auditors	-13770
▁fortieth	-13771
▁Maternity	-13772
▁Municipal	-13773
▁Stability	-13774
▁adherence	-13775
▁childcare	-13776
▁CATEGORIES	-13777
▁applicants	-13778
▁confinement	-13779
▁Constitutional	-13780
RT	-13781
▁”	-13782
cta	-13783
how	-13784
▁09	-13785
▁Rh	-13786
▁SN	-13787
)***	-13788
TAET	-13789
efin	-13790
ilia	-13791
onel	-13792
▁22.	-13793
▁24.	-13794
▁Hal	-13795
▁tit	-13796
▁Club	-13797
▁Khan	-13798
▁MOTA	-13799
▁Meat	-13800
▁TORT	-13801
-24/2,	-13802
.1/57/	-13803
assion	-13804
▁Ababa	-13805
▁Displ	-13806
▁UNDAF	-13807
▁rated	-13808
ulative	-13809
▁(1998)	-13810
▁Diffic	-13811
▁Doctor	-13812
▁ICESCR	-13813
▁brakes	-13814
▁starts	-13815
▁Profile	-13816
▁TORTURE	-13817
▁clients	-13818
▁diluted	-13819
▁perfect	-13820
▁recover	-13821
▁fruitful	-13822
▁speeches	-13823
▁investors	-13824
▁stipulates	-13825
▁Citizenship	-13826
▁Facilitator	-13827
▁allocations	-13828
ESA	-13829
aud	-13830
rim	-13831
▁ES	-13832
▁Zi	-13833
.6.3	-13834
enta	-13835
itis	-13836
life	-13837
mmet	-13838
▁135	-13839
▁145	-13840
▁155	-13841
▁Hav	-13842
▁ISS	-13843
▁Kon	-13844
▁bon	-13845
April	-13846
rible	-13847
▁1976	-13848
▁CHIL	-13849
▁Gree	-13850
▁Poor	-13851
▁Sharm	-13852
▁afore	-13853
▁regen	-13854
▁spect	-13855
English	-13856
▁(1991)	-13857
▁driven	-13858
Ethiopia	-13859
▁Twelfth	-13860
▁Vladimir	-13861
▁enrolled	-13862
▁pursuing	-13863
▁revolution	-13864
▁conjunction	-13865
▁seventeenth	-13866
▁aforementioned	-13867
*)	-13868
34	-13869
-5,	-13870
01)	-13871
Ken	-13872
bli	-13873
ifa	-13874
ouf	-13875
▁$4	-13876
▁GU	-13877
iman	-13878
▁3-4	-13879
▁MAN	-13880
▁RCD	-13881
encia	-13882
folio	-13883
shore	-13884
▁(1);	-13885
▁Pled	-13886
▁Shel	-13887
▁Town	-13888
▁bloc	-13889
ometer	-13890
stuffs	-13891
▁6.5.4	-13892
▁raped	-13893
istrate	-13894
▁cancer	-13895
▁ceased	-13896
▁ending	-13897
▁Empower	-13898
▁massive	-13899
▁Location	-13900
▁promises	-13901
▁variance	-13902
▁Editorial	-13903
▁pertinent	-13904
▁transform	-13905
▁prosecutors	-13906
▁contaminated	-13907
▁peacekeepers	-13908
▁representing	-13909
▁accessibility	-13910
yp	-13911
/3)	-13912
ava	-13913
dem	-13914
kov	-13915
urt	-13916
▁HS	-13917
▁WG	-13918
▁je	-13919
.5.4	-13920
Theme	-13921
child	-13922
ensor	-13923
▁Mach	-13924
▁Util	-13925
▁knew	-13926
▁neck	-13927
▁shor	-13928
agings	-13929
▁1249,	-13930
▁13-17	-13931
▁Analy	-13932
▁Asoci	-13933
▁WORLD	-13934
▁elong	-13935
▁Ethiop	-13936
▁UNOMIG	-13937
▁verbal	-13938
▁viewed	-13939
▁window	-13940
Colombia	-13941
▁Jurists	-13942
▁Mexican	-13943
▁Serbian	-13944
▁machine	-13945
▁publish	-13946
▁rounded	-13947
sessional	-13948
▁Likewise	-13949
Ambassador	-13950
▁gathering	-13951
▁petroleum	-13952
▁recovered	-13953
▁Processing	-13954
▁eventually	-13955
▁privileges	-13956
▁consignment	-13957
▁restriction	-13958
▁supplemented	-13959
AV	-13960
.58	-13961
two	-13962
wer	-13963
/59,	-13964
bery	-13965
▁13)	-13966
▁146	-13967
March	-13968
achel	-13969
stone	-13970
▁1971	-13971
▁Lanc	-13972
▁dark	-13973
▁gene	-13974
ycling	-13975
▁Color	-13976
▁Hamad	-13977
ocation	-13978
porters	-13979
▁Danube	-13980
▁MOTAPM	-13981
▁begins	-13982
▁theory	-13983
▁winter	-13984
▁Deplete	-13985
▁Muslims	-13986
▁chamber	-13987
▁dangers	-13988
▁Accident	-13989
▁commemor	-13990
▁Fifteenth	-13991
▁expanding	-13992
▁electrical	-13993
▁resumption	-13994
▁bottlenecks	-13995
▁comparative	-13996
▁malnutrition	-13997
TU	-13998
3)]	-13999
fan	-14000
hal	-14001
▁04	-14002
▁3(	-14003
▁SS	-14004
▁pr	-14005
eful	-14006
pled	-14007
risk	-14008
teor	-14009
▁Bog	-14010
▁Rou	-14011
grams	-14012
islav	-14013
rears	-14014
rooms	-14015
▁57/2	-14016
▁Guam	-14017
▁Shar	-14018
▁Susp	-14019
▁arts	-14020
▁gold	-14021
▁insp	-14022
▁stra	-14023
ISIONS	-14024
▁52/12	-14025
▁Brake	-14026
▁urges	-14027
ranches	-14028
▁(1997)	-14029
▁Atmosp	-14030
▁Curric	-14031
versible	-14032
▁redress	-14033
▁arranged	-14034
▁metadata	-14035
▁whenever	-14036
▁Petroleum	-14037
▁sixteenth	-14038
forestation	-14039
missibility	-14040
▁Modalities	-14041
▁Wellington	-14042
▁pedestrian	-14043
▁presenting	-14044
▁deportation	-14045
▁concentrated	-14046
▁Understanding	-14047
▁privatization	-14048
HS	-14049
▁Sl	-14050
▁UP	-14051
Head	-14052
elve	-14053
▁Yeh	-14054
▁hot	-14055
Forty	-14056
World	-14057
ariff	-14058
inson	-14059
▁Ship	-14060
▁hero	-14061
onomic	-14062
▁Often	-14063
▁bless	-14064
▁logic	-14065
▁Arusha	-14066
▁Ismail	-14067
▁Nearly	-14068
▁Reduce	-14069
▁Statis	-14070
▁UNTAET	-14071
▁errors	-14072
▁Running	-14073
▁Serious	-14074
▁Separate	-14075
▁reciproc	-14076
▁reversed	-14077
▁validity	-14078
▁succeeded	-14079
▁uncertain	-14080
Legislative	-14081
▁Aboriginal	-14082
▁requesting	-14083
▁interviewed	-14084
▁Reproductive	-14085
▁Technologies	-14086
▁Presentations	-14087
/77	-14088
9)]	-14089
▁GM	-14090
▁21.	-14091
▁9.1	-14092
▁ERW	-14093
▁Lab	-14094
▁PEP	-14095
▁cad	-14096
eries	-14097
ongue	-14098
▁1951	-14099
▁3082	-14100
▁cast	-14101
▁taste	-14102
▁visas	-14103
-10/273	-14104
aziland	-14105
▁Brakes	-14106
▁FINANC	-14107
▁Havana	-14108
▁argued	-14109
▁valued	-14110
▁Equally	-14111
▁Written	-14112
▁acquire	-14113
▁infring	-14114
Bangladesh	-14115
vironments	-14116
▁normative	-14117
veloppement	-14118
▁structured	-14119
▁discontinued	-14120
▁incompatible	-14121
▁periodically	-14122
MIN	-14123
▁CI	-14124
▁Ta	-14125
▁ke	-14126
Corr	-14127
aden	-14128
airi	-14129
vest	-14130
vors	-14131
▁160	-14132
▁KPC	-14133
▁Tun	-14134
charg	-14135
▁1983	-14136
▁Uses	-14137
▁Very	-14138
▁toll	-14139
French	-14140
▁1998;	-14141
▁CIVIL	-14142
▁UNAMA	-14143
▁cards	-14144
▁pipes	-14145
achelor	-14146
▁domain	-14147
▁ignore	-14148
▁lifted	-14149
▁quoted	-14150
▁rebels	-14151
▁tempor	-14152
▁dioxide	-14153
▁founded	-14154
▁rolling	-14155
▁Previous	-14156
▁Passenger	-14157
▁abandoned	-14158
▁narrative	-14159
▁prominent	-14160
▁providers	-14161
▁organizing	-14162
▁reiterates	-14163
▁regrettable	-14164
▁segregation	-14165
▁temperatures	-14166
FE	-14167
LS	-14168
/6,	-14169
DUC	-14170
GAN	-14171
IUM	-14172
▁$5,	-14173
▁ASS	-14174
▁CDM	-14175
▁Hiz	-14176
▁Vie	-14177
/55/3	-14178
Georg	-14179
Nepal	-14180
TRANS	-14181
ushed	-14182
▁gram	-14183
▁ital	-14184
▁pays	-14185
/1997,	-14186
ridges	-14187
▁(1995	-14188
▁1984.	-14189
▁Addis	-14190
▁Hamid	-14191
▁Salam	-14192
▁fewer	-14193
▁watch	-14194
entious	-14195
▁(2009)	-14196
▁Colomb	-14197
▁Papers	-14198
▁freeze	-14199
▁seeing	-14200
▁Respond	-14201
▁doctors	-14202
▁explore	-14203
▁journey	-14204
▁effected	-14205
▁Abdulaziz	-14206
▁collision	-14207
▁launching	-14208
▁magnitude	-14209
▁workforce	-14210
▁tremendous	-14211
▁Supervision	-14212
▁confiscated	-14213
▁economically	-14214
▁inequalities	-14215
▁intimidation	-14216
▁Consequential	-14217
▁institutional	-14218
(1	-14219
ég	-14220
DAY	-14221
CERS	-14222
Jama	-14223
airn	-14224
fuel	-14225
iced	-14226
roph	-14227
▁ITC	-14228
▁Max	-14229
▁NAP	-14230
▁PAL	-14231
▁SOL	-14232
Chile	-14233
USTAH	-14234
angan	-14235
▁122,	-14236
▁Bash	-14237
▁Hans	-14238
▁deck	-14239
.1/58/	-14240
▁3.1.2	-14241
▁3.2.1	-14242
▁Simpl	-14243
▁usual	-14244
Belarus	-14245
ectious	-14246
emorial	-14247
tifying	-14248
▁AWARDS	-14249
▁SECOND	-14250
▁Signed	-14251
▁Aldouri	-14252
▁Morning	-14253
▁Transit	-14254
▁descent	-14255
▁guiding	-14256
▁joining	-14257
▁library	-14258
▁notable	-14259
▁popular	-14260
▁tenders	-14261
▁accorded	-14262
▁generous	-14263
▁militias	-14264
▁promised	-14265
▁wherever	-14266
▁abstained	-14267
▁reinforce	-14268
otechnology	-14269
▁Applicable	-14270
▁Conformity	-14271
▁beneficial	-14272
▁recordings	-14273
▁continuously	-14274
RB	-14275
.).	-14276
EWG	-14277
RID	-14278
gor	-14279
oys	-14280
sch	-14281
ishu	-14282
▁158	-14283
▁Cec	-14284
▁kit	-14285
-2370	-14286
/27).	-14287
▁1.10	-14288
▁Marg	-14289
▁Stra	-14290
▁seas	-14291
normal	-14292
▁18-20	-14293
▁2.1.1	-14294
▁Break	-14295
▁MINUR	-14296
▁Quick	-14297
▁Stras	-14298
▁flame	-14299
Jamaica	-14300
gericht	-14301
illermo	-14302
▁Course	-14303
▁Forced	-14304
▁Harmon	-14305
▁asking	-14306
▁filing	-14307
▁hardly	-14308
▁margin	-14309
▁ratios	-14310
▁stored	-14311
itations	-14312
▁Offices	-14313
▁Outside	-14314
▁Threats	-14315
▁animals	-14316
▁municip	-14317
▁analysed	-14318
▁confined	-14319
▁Guillermo	-14320
▁Organized	-14321
▁assessing	-14322
▁screening	-14323
▁Strasbourg	-14324
▁accelerate	-14325
▁accomplish	-14326
▁literature	-14327
▁Stereotypes	-14328
▁compartment	-14329
▁consolidate	-14330
▁ventilation	-14331
▁examinations	-14332
▁investigative	-14333
3/	-14334
On	-14335
TL	-14336
Bur	-14337
▁RC	-14338
lies	-14339
otoc	-14340
ragm	-14341
▁35,	-14342
▁7.5	-14343
▁Kum	-14344
▁Por	-14345
▁Sey	-14346
▁sed	-14347
▁0.00	-14348
▁Brun	-14349
▁Half	-14350
▁SIGN	-14351
▁dial	-14352
▁trig	-14353
adishu	-14354
idable	-14355
impact	-14356
urable	-14357
▁Greek	-14358
▁Links	-14359
▁crops	-14360
▁scene	-14361
ophonie	-14362
▁Duties	-14363
▁circle	-14364
▁concur	-14365
▁edited	-14366
▁raises	-14367
▁(1998).	-14368
▁Species	-14369
▁creates	-14370
▁wishing	-14371
▁abducted	-14372
▁advertis	-14373
▁mobilize	-14374
▁abduction	-14375
▁Specification	-14376
xi	-14377
ym	-14378
avo	-14379
eca	-14380
▁PA	-14381
khaz	-14382
▁1-5	-14383
▁260	-14384
▁Maz	-14385
▁Mub	-14386
▁Nev	-14387
▁gla	-14388
isdom	-14389
itors	-14390
▁Araf	-14391
▁Fron	-14392
▁Just	-14393
▁reop	-14394
.1/61/	-14395
▁10-11	-14396
▁Guard	-14397
▁UNCDF	-14398
▁recre	-14399
imonovi	-14400
▁Cayman	-14401
▁Lancry	-14402
▁arises	-14403
December	-14404
stituted	-14405
▁Antigua	-14406
▁aquifer	-14407
▁caution	-14408
▁parking	-14409
emination	-14410
itigation	-14411
▁Identify	-14412
▁detected	-14413
▁Argentine	-14414
▁Mogadishu	-14415
▁crossings	-14416
▁remainder	-14417
▁Expression	-14418
▁fulfilling	-14419
▁networking	-14420
▁panellists	-14421
▁Replacement	-14422
▁instability	-14423
▁involuntary	-14424
▁Consultation	-14425
▁Manufacturers	-14426
▁internationale	-14427
Est	-14428
OSS	-14429
bra	-14430
dri	-14431
gas	-14432
usp	-14433
yev	-14434
▁FF	-14435
.200	-14436
/46,	-14437
arif	-14438
gent	-14439
test	-14440
▁687	-14441
▁700	-14442
▁GRB	-14443
▁[11	-14444
/16).	-14445
abeth	-14446
asury	-14447
trans	-14448
▁cool	-14449
amburg	-14450
▁19-23	-14451
▁1954,	-14452
▁2006:	-14453
Ecuador	-14454
olition	-14455
▁UNITED	-14456
▁emerge	-14457
▁incumb	-14458
▁matrix	-14459
▁profit	-14460
▁Alberto	-14461
▁Inquiry	-14462
▁Mineral	-14463
▁Mustafa	-14464
▁arrears	-14465
▁battery	-14466
▁debated	-14467
▁hazards	-14468
▁missile	-14469
▁Agencies	-14470
▁CHAIRMAN	-14471
▁Istanbul	-14472
▁OFFICERS	-14473
▁finished	-14474
▁pleasure	-14475
▁Indicator	-14476
▁construed	-14477
▁extremism	-14478
▁mobilized	-14479
▁sessional	-14480
▁substanti	-14481
▁2008-2009,	-14482
▁disturbing	-14483
▁preference	-14484
▁restoration	-14485
▁contemporary	-14486
▁dramatically	-14487
TT	-14488
/95	-14489
van	-14490
▁Hu	-14491
.261	-14492
▁45,	-14493
▁46,	-14494
▁FAR	-14495
▁MED	-14496
▁bit	-14497
▁1968	-14498
▁Dead	-14499
▁OEWG	-14500
▁POLI	-14501
▁Teac	-14502
▁Your	-14503
▁evil	-14504
▁stem	-14505
eeding	-14506
naires	-14507
posite	-14508
raries	-14509
udinal	-14510
▁2,000	-14511
▁vigil	-14512
finding	-14513
▁Abkhaz	-14514
▁couple	-14515
▁switch	-14516
▁963-919	-14517
▁Balkans	-14518
▁Cluster	-14519
▁Derecho	-14520
▁attract	-14521
▁choices	-14522
▁volunte	-14523
▁monetary	-14524
▁Complaint	-14525
▁Swaziland	-14526
▁automatic	-14527
▁declining	-14528
▁Correspond	-14529
▁Historical	-14530
▁Innovation	-14531
▁precarious	-14532
▁Strengthened	-14533
▁unliquidated	-14534
▁Disappearance	-14535
/5,	-14536
/9,	-14537
ike	-14538
ERGY	-14539
▁IPS	-14540
▁MOD	-14541
▁sin	-14542
/58/6	-14543
backs	-14544
shima	-14545
unior	-14546
▁Alej	-14547
▁Angu	-14548
▁Cher	-14549
▁Poli	-14550
▁SCCP	-14551
▁coin	-14552
▁peer	-14553
▁ORGAN	-14554
▁Still	-14555
▁noise	-14556
▁quota	-14557
▁30822.	-14558
▁Brahim	-14559
▁Reiter	-14560
▁intake	-14561
▁warmly	-14562
▁Aspects	-14563
▁Bermuda	-14564
▁handled	-14565
▁Albanian	-14566
▁attained	-14567
▁brochure	-14568
▁channels	-14569
▁honoured	-14570
▁spending	-14571
▁countering	-14572
▁Translation	-14573
▁Coordinating	-14574
▁Manufacturer	-14575
▁deteriorated	-14576
▁Justification	-14577
▁Questionnaire	-14578
▁constitutional	-14579
GS	-14580
.59	-14581
TAN	-14582
ako	-14583
ref	-14584
adou	-14585
inqu	-14586
itan	-14587
▁FRA	-14588
▁Jer	-14589
▁bus	-14590
/62/3	-14591
Women	-14592
eploy	-14593
rains	-14594
▁Fred	-14595
▁cant	-14596
▁quot	-14597
Americ	-14598
ampson	-14599
ocaine	-14600
▁9.3.1	-14601
▁navig	-14602
▁ought	-14603
icating	-14604
▁arrive	-14605
▁vacuum	-14606
regional	-14607
▁Compact	-14608
▁England	-14609
▁allocate	-14610
▁enclosed	-14611
▁entirety	-14612
▁inevitable	-14613
▁intentions	-14614
▁permission	-14615
▁Codification	-14616
▁coordinating	-14617
.60	-14618
ISE	-14619
oms	-14620
omy	-14621
▁Av	-14622
▁Si	-14623
orra	-14624
▁27.	-14625
▁GHG	-14626
▁Nom	-14627
▁(195	-14628
▁Fall	-14629
▁sake	-14630
itting	-14631
▁4.2.1	-14632
▁Bench	-14633
▁Birth	-14634
▁Serbs	-14635
▁named	-14636
▁Arafat	-14637
▁Better	-14638
▁doubts	-14639
▁endang	-14640
▁excess	-14641
▁fronts	-14642
▁hazard	-14643
▁struck	-14644
▁Driving	-14645
▁NATIONS	-14646
▁Biennial	-14647
▁MINUSTAH	-14648
▁aviation	-14649
▁evolving	-14650
▁failures	-14651
▁medicine	-14652
▁rotation	-14653
▁Interview	-14654
▁Registers	-14655
▁consumers	-14656
▁typically	-14657
▁discretion	-14658
▁eighteenth	-14659
▁Encouraging	-14660
▁extensively	-14661
▁groundwater	-14662
▁delimitation	-14663
▁overwhelming	-14664
▁reproductive	-14665
▁secretariats	-14666
▁confrontation	-14667
▁investigating	-14668
Wh	-14669
.1-	-14670
.57	-14671
4)]	-14672
kar	-14673
▁CL	-14674
▁DA	-14675
▁MS	-14676
619.	-14677
July	-14678
VIEW	-14679
aded	-14680
iana	-14681
olar	-14682
▁5-9	-14683
▁Mir	-14684
▁Opp	-14685
▁Tam	-14686
▁XVI	-14687
otten	-14688
ybrid	-14689
▁Born	-14690
▁PRTR	-14691
▁Pris	-14692
▁edge	-14693
▁eyes	-14694
▁imag	-14695
▁ment	-14696
▁scru	-14697
.1/59/	-14698
arency	-14699
rorism	-14700
▁(1996	-14701
▁10-14	-14702
▁10.50	-14703
▁21-23	-14704
▁5.4.1	-14705
▁CESCR	-14706
▁Dried	-14707
▁ideal	-14708
▁video	-14709
▁Formal	-14710
▁stolen	-14711
▁Element	-14712
▁ensures	-14713
▁omitted	-14714
▁rockets	-14715
▁volumes	-14716
▁Budapest	-14717
▁Chapters	-14718
▁Partners	-14719
▁Recently	-14720
▁Remedies	-14721
▁humidity	-14722
▁Arbitrary	-14723
▁Covenants	-14724
▁placement	-14725
▁terminated	-14726
organization	-14727
▁surrounding	-14728
▁transparency	-14729
▁corresponding	-14730
▁disadvantages	-14731
do	-14732
1)]	-14733
TOR	-14734
har	-14735
[...]
