<unk>	0
<s>	0
</s>	0
▁п	-0
ен	-1
ст	-2
ра	-3
▁в	-4
▁с	-5
ов	-6
ре	-7
▁о	-8
на	-9
но	-10
▁и	-11
ени	-12
од	-13
ни	-14
ет	-15
▁д	-16
ны	-17
ци	-18
ол	-19
ро	-20
ри	-21
ел	-22
то	-23
ко	-24
за	-25
ит	-26
▁П	-27
▁г	-28
▁по	-29
ер	-30
ка	-31
ед	-32
▁на	-33
▁м	-34
та	-35
ла	-36
ли	-37
ани	-38
го	-39
ся	-40
ств	-41
▁С	-42
ки	-43
не	-44
ение	-45
▁б	-46
▁2	-47
▁ра	-48
ред	-49
▁О	-50
ть	-51
▁у	-52
ем	-53
сс	-54
ль	-55
ения	-56
▁за	-57
▁1	-58
ста	-59
ру	-60
▁В	-61
ти	-62
▁(	-63
▁К	-64
00	-65
ми	-66
▁об	-67
▁э	-68
▁при	-69
ва	-70
сти	-71
ля	-72
ции	-73
▁про	-74
ных	-75
▁ре	-76
▁ч	-77
▁год	-78
ей	-79
да	-80
щи	-81
▁со	-82
ор	-83
ек	-84
ель	-85
▁ко	-86
ло	-87
▁т	-88
▁200	-89
▁не	-90
▁Н	-91
мо	-92
▁от	-93
ес	-94
▁до	-95
ма	-96
рав	-97
ня	-98
▁во	-99
ные	-100
ом	-101
▁М	-102
▁года	-103
ров	-104
сто	-105
▁А	-106
жд	-107
▁к	-108
▁Д	-109
ую	-110
▁Р	-111
су	-112
▁а	-113
ча	-114
ция	-115
ия	-116
бо	-117
ще	-118
ной	-119
▁пред	-120
лед	-121
мен	-122
нк	-123
нов	-124
ам	-125
▁Г	-126
ты	-127
ется	-128
ного	-129
ный	-130
па	-131
▁это	-132
ин	-133
▁бы	-134
▁раз	-135
об	-136
став	-137
ле	-138
ме	-139
род	-140
сп	-141
ги	-142
рг	-143
ис	-144
унк	-145
▁вы	-146
▁под	-147
ове	-148
ания	-149
ан	-150
▁И	-151
▁пол	-152
▁На	-153
ности	-154
чес	-155
▁из	-156
▁св	-157
лю	-158
же	-159
аль	-160
ез	-161
тель	-162
ание	-163
он	-164
про	-165
ря	-166
лен	-167
те	-168
олж	-169
ная	-170
оль	-171
ры	-172
▁ме	-173
ход	-174
▁ка	-175
▁та	-176
ить	-177
ии	-178
▁Б	-179
олю	-180
сед	-181
ета	-182
ку	-183
▁Т	-184
сть	-185
вер	-186
▁я	-187
уд	-188
▁Э	-189
▁след	-190
стра	-191
кла	-192
▁ф	-193
▁рез	-194
есс	-195
▁По	-196
▁пе	-197
ргани	-198
▁Об	-199
тов	-200
лу	-201
ют	-202
▁У	-203
чи	-204
прос	-205
▁для	-206
гра	-207
▁3	-208
енных	-209
ций	-210
рганиза	-211
on	-212
ществ	-213
пе	-214
ож	-215
му	-216
ное	-217
▁З	-218
ении	-219
нс	-220
лож	-221
сь	-222
▁прав	-223
ене	-224
жду	-225
прав	-226
един	-227
▁следую	-228
ление	-229
га	-230
стоя	-231
▁ж	-232
▁е	-233
клад	-234
итель	-235
▁что	-236
▁A	-237
▁то	-238
▁-	-239
циаль	-240
▁долж	-241
▁ин	-242
тр	-243
an	-244
▁вопрос	-245
▁рабо	-246
▁19	-247
ту	-248
▁резолю	-249
▁де	-250
▁Пред	-251
ства	-252
сту	-253
er	-254
▁кон	-255
щие	-256
се	-257
▁Сов	-258
че	-259
ерж	-260
ке	-261
тив	-262
ать	-263
ши	-264
руп	-265
▁представ	-266
▁сесс	-267
ению	-268
▁ли	-269
▁I	-270
ti	-271
▁пунк	-272
▁ста	-273
▁стра	-274
▁Организа	-275
▁5	-276
ным	-277
ких	-278
раз	-279
народ	-280
бря	-281
ков	-282
ждународ	-283
ар	-284
▁За	-285
клю	-286
раль	-287
кой	-288
са	-289
▁Ком	-290
ъедин	-291
она	-292
ство	-293
ви	-294
.1	-295
▁так	-296
ений	-297
ность	-298
▁Про	-299
▁Объедин	-300
дел	-301
си	-302
▁До	-303
амб	-304
▁Ра	-305
▁буд	-306
▁воз	-307
▁дня	-308
ово	-309
▁Наций	-310
▁4	-311
▁Комит	-312
▁ц	-313
en	-314
во	-315
зна	-316
▁ми	-317
де	-318
▁Объединенных	-319
▁реш	-320
ления	-321
▁Асс	-322
ступ	-323
овест	-324
грам	-325
▁Со	-326
▁Е	-327
▁приня	-328
ект	-329
зы	-330
амбле	-331
каза	-332
пис	-333
▁N	-334
емы	-335
мы	-336
▁Ассамбле	-337
ина	-338
тел	-339
).	-340
▁Ф	-341
ну	-342
пас	-343
▁ос	-344
▁сво	-345
вит	-346
or	-347
фор	-348
▁ком	-349
▁также	-350
фи	-351
▁Организации	-352
▁резолюции	-353
in	-354
енераль	-355
▁все	-356
▁пров	-357
кого	-358
▁повест	-359
жа	-360
▁C	-361
▁эти	-362
al	-363
ент	-364
ном	-365
▁"	-366
▁Генераль	-367
▁S	-368
▁6	-369
.2	-370
▁пра	-371
сов	-372
▁расс	-373
жи	-374
▁засед	-375
▁развит	-376
ются	-377
зи	-378
▁чел	-379
▁пос	-380
гу	-381
ая	-382
▁Кон	-383
руд	-384
пол	-385
▁Ко	-386
оло	-387
▁повестки	-388
▁пре	-389
▁си	-390
ше	-391
▁b	-392
чески	-393
мотр	-394
вля	-395
твер	-396
▁груп	-397
▁пере	-398
мисс	-399
чен	-400
щих	-401
ейств	-402
чет	-403
▁ни	-404
▁проц	-405
гла	-406
▁образ	-407
кумен	-408
ября	-409
седа	-410
форма	-411
200	-412
es	-413
▁дел	-414
▁доклад	-415
ди	-416
опас	-417
ункт	-418
▁челове	-419
нима	-420
дар	-421
▁сред	-422
езопас	-423
торы	-424
▁исп	-425
бы	-426
держ	-427
▁отно	-428
▁Председа	-429
ев	-430
tion	-431
ак	-432
чение	-433
существ	-434
ar	-435
▁дан	-436
▁явля	-437
енщи	-438
имо	-439
ски	-440
▁199	-441
▁од	-442
ран	-443
▁человека	-444
▁10	-445
ве	-446
вен	-447
ании	-448
пу	-449
по	-450
ональ	-451
ует	-452
▁програм	-453
осу	-454
овы	-455
▁Комитет	-456
пы	-457
▁7	-458
▁Совета	-459
/5	-460
ба	-461
ком	-462
▁х	-463
▁права	-464
▁t	-465
▁Во	-466
езопасности	-467
НИ	-468
▁ию	-469
бли	-470
▁или	-471
▁Ме	-472
▁женщи	-473
▁o	-474
торо	-475
ели	-476
▁a	-477
▁Это	-478
кая	-479
жда	-480
▁M	-481
▁мо	-482
▁ча	-483
яв	-484
▁основ	-485
▁су	-486
▁d	-487
▁No	-488
▁При	-489
▁докумен	-490
ться	-491
рия	-492
вет	-493
реб	-494
▁сессия	-495
▁международ	-496
▁этой	-497
▁свя	-498
лов	-499
▁информа	-500
цию	-501
труд	-502
▁слу	-503
ждение	-504
▁дру	-505
▁осуществ	-506
льта	-507
▁обла	-508
вод	-509
▁Л	-510
трудни	-511
▁сод	-512
▁полож	-513
▁мож	-514
ил	-515
зов	-516
he	-517
вы	-518
ложение	-519
▁но	-520
ится	-521
▁проек	-522
мер	-523
коно	-524
пре	-525
год	-526
щим	-527
ятель	-528
▁будет	-529
инанс	-530
риод	-531
мени	-532
ОН	-533
осудар	-534
▁P	-535
▁те	-536
.3	-537
кономи	-538
▁of	-539
ца	-540
▁настоя	-541
ити	-542
▁9	-543
ие	-544
is	-545
▁период	-546
▁ок	-547
▁Ч	-548
▁ва	-549
родолж	-550
▁Мы	-551
▁сессии	-552
щее	-553
из	-554
ными	-555
▁«	-556
ий	-557
ены	-558
обход	-559
▁8	-560
▁c	-561
ation	-562
▁Комисс	-563
▁его	-564
▁Совет	-565
станов	-566
▁отнош	-567
сят	-568
▁ст	-569
▁образом	-570
от	-571
▁этого	-572
▁Ш	-573
▁поддерж	-574
▁комит	-575
риа	-576
▁рассмотр	-577
▁должны	-578
▁Международ	-579
and	-580
▁Пункт	-581
кры	-582
te	-583
щий	-584
▁Ю	-585
▁вре	-586
▁вклю	-587
▁пер	-588
▁[	-589
▁государ	-590
оле	-591
▁—	-592
лем	-593
▁тек	-594
щей	-595
▁Рез	-596
▁деятель	-597
▁работы	-598
▁Доклад	-599
ву	-600
▁области	-601
▁нов	-602
или	-603
▁E	-604
мож	-605
▁уча	-606
▁i	-607
ору	-608
▁является	-609
▁Я	-610
▁ма	-611
ита	-612
▁женщин	-613
▁име	-614
▁н	-615
рета	-616
кон	-617
еры	-618
▁сотрудни	-619
▁T	-620
▁R	-621
ят	-622
▁году	-623
чая	-624
▁быть	-625
ут	-626
▁стать	-627
/2	-628
▁Ассамблея	-629
ic	-630
▁Генеральной	-631
▁действ	-632
еля	-633
▁проб	-634
ную	-635
▁отчет	-636
▁2002	-637
екрета	-638
▁други	-639
▁Ка	-640
▁пла	-641
▁рас	-642
еспе	-643
ой	-644
фициаль	-645
▁содерж	-646
▁D	-647
▁2004	-648
ша	-649
re	-650
▁развития	-651
▁Ж	-652
циональ	-653
▁гла	-654
▁p	-655
ила	-656
▁же	-657
▁принима	-658
олюция	-659
▁было	-660
щего	-661
мя	-662
▁помо	-663
ерен	-664
ращ	-665
▁Ре	-666
▁11	-667
/1	-668
тия	-669
▁их	-670
▁12	-671
▁были	-672
▁член	-673
▁необход	-674
▁зна	-675
пред	-676
▁2006	-677
кое	-678
▁мы	-679
▁которы	-680
чения	-681
бе	-682
олее	-683
ять	-684
▁эк	-685
▁2005	-686
сили	-687
иту	-688
▁полу	-689
▁Проект	-690
десят	-691
пециаль	-692
жения	-693
▁Рабо	-694
олько	-695
роп	-696
▁сооб	-697
▁сист	-698
зыва	-699
▁обеспе	-700
ent	-701
со	-702
▁этом	-703
▁2003	-704
РА	-705
сур	-706
▁вопросам	-707
зд	-708
▁пункт	-709
▁2001	-710
▁отношении	-711
ждения	-712
чить	-713
сы	-714
тверждение	-715
гов	-716
▁Под	-717
аний	-718
рии	-719
овещ	-720
▁and	-721
▁заяв	-722
▁ресур	-723
▁проект	-724
▁Конвен	-725
▁Пос	-726
/6	-727
ност	-728
шение	-729
ена	-730
▁f	-731
▁•	-732
▁Не	-733
▁2000	-734
▁был	-735
),	-736
▁уров	-737
енные	-738
▁суд	-739
ния	-740
ние	-741
.4	-742
▁Председатель	-743
▁этих	-744
▁уч	-745
▁дет	-746
▁следующие	-747
▁организа	-748
-1	-749
дж	-750
▁дека	-751
▁Од	-752
▁следующим	-753
▁ус	-754
▁Безопасности	-755
▁состав	-756
ено	-757
ферен	-758
▁решения	-759
▁лю	-760
▁голо	-761
▁провед	-762
▁Та	-763
▁как	-764
▁полити	-765
ования	-766
ОВ	-767
▁Прав	-768
ульта	-769
али	-770
▁the	-771
▁гра	-772
▁15	-773
-2	-774
▁язы	-775
▁ис	-776
▁реги	-777
▁Ц	-778
готов	-779
▁Вы	-780
ющие	-781
шения	-782
▁Ста	-783
▁исполь	-784
▁финанс	-785
ветств	-786
лага	-787
рит	-788
екретариа	-789
om	-790
▁лиц	-791
▁согла	-792
▁(1	-793
▁II	-794
▁пункта	-795
том	-796
сторо	-797
теля	-798
▁Аф	-799
ней	-800
▁связи	-801
ере	-802
▁дол	-803
▁нас	-804
▁декабря	-805
лет	-806
бор	-807
ol	-808
би	-809
полн	-810
ых	-811
▁послед	-812
▁От	-813
▁2007	-814
▁Х	-815
▁Комитета	-816
ник	-817
▁каса	-818
рак	-819
ду	-820
▁тех	-821
▁Генеральная	-822
спор	-823
.5	-824
тор	-825
▁дости	-826
▁2008	-827
▁может	-828
▁Ин	-829
тора	-830
▁голосов	-831
нитель	-832
▁Утверждение	-833
▁время	-834
▁без	-835
▁процесс	-836
▁важ	-837
Под	-838
РО	-839
яза	-840
▁пот	-841
▁Ми	-842
ских	-843
▁объ	-844
цен	-845
▁тер	-846
ЕС	-847
юдж	-848
▁сов	-849
▁ви	-850
▁13	-851
ок	-852
▁Ассамблеи	-853
рабо	-854
▁группа	-855
ному	-856
сем	-857
▁G	-858
ема	-859
сте	-860
чество	-861
▁ав	-862
нако	-863
▁U	-864
ела	-865
▁необходимо	-866
▁возмож	-867
▁результа	-868
ческих	-869
▁предлож	-870
рат	-871
пера	-872
▁более	-873
мет	-874
ним	-875
it	-876
▁20	-877
ках	-878
▁защ	-879
▁хо	-880
кие	-881
▁представлен	-882
▁дву	-883
▁продолж	-884
▁деятельности	-885
ур	-886
цией	-887
тья	-888
▁Пол	-889
▁ак	-890
ческие	-891
▁заседании	-892
▁состоя	-893
▁B	-894
циа	-895
▁Из	-896
▁F	-897
ского	-898
▁да	-899
▁Резолюция	-900
▁всех	-901
▁опред	-902
▁решение	-903
ью	-904
нес	-905
стве	-906
▁чис	-907
цион	-908
▁боль	-909
менить	-910
сточ	-911
ской	-912
▁ру	-913
▁проекта	-914
кол	-915
ющих	-916
це	-917
▁июня	-918
▁совещ	-919
правки	-920
ему	-921
ro	-922
▁Груп	-923
▁выступ	-924
▁государств	-925
ень	-926
▁чет	-927
иров	-928
▁того	-929
-200	-930
ОМ	-931
at	-932
публи	-933
вается	-934
блю	-935
▁правитель	-936
гут	-937
▁экономи	-938
▁ее	-939
комен	-940
ника	-941
▁Однако	-942
дер	-943
▁14	-944
▁деле	-945
еди	-946
▁30	-947
as	-948
гли	-949
▁сдел	-950
иты	-951
▁текст	-952
ment	-953
▁приложение	-954
▁H	-955
ский	-956
лы	-957
ряд	-958
ская	-959
говор	-960
ковод	-961
▁сент	-962
▁L	-963
▁Афри	-964
▁торг	-965
▁Жене	-966
▁июля	-967
щая	-968
▁утвер	-969
тая	-970
▁меры	-971
▁ПО	-972
▁проблем	-973
мот	-974
▁окт	-975
иться	-976
вать	-977
▁свои	-978
▁треб	-979
лись	-980
▁цел	-981
пись	-982
):	-983
ec	-984
▁могут	-985
▁правам	-986
ляет	-987
▁обяза	-988
▁се	-989
▁тем	-990
▁обсу	-991
▁00	-992
▁вопросы	-993
▁ба	-994
▁этот	-995
▁националь	-996
▁фор	-997
▁следует	-998
▁примен	-999
▁Ев	-1000
ческого	-1001
▁использов	-1002
тер	-1003
▁комитета	-1004
".	-1005
анию	-1006
ЕНИ	-1007
ятьдесят	-1008
el	-1009
гово	-1010
▁раздел	-1011
лось	-1012
▁мира	-1013
стоян	-1014
▁подготов	-1015
▁измен	-1016
▁сем	-1017
ектив	-1018
клада	-1019
вед	-1020
▁существ	-1021
▁будут	-1022
раж	-1023
ах	-1024
▁группы	-1025
▁оцен	-1026
▁См	-1027
стой	-1028
▁комп	-1029
▁программа	-1030
▁случа	-1031
▁над	-1032
▁ноября	-1033
▁безопасности	-1034
▁тре	-1035
▁Комиссии	-1036
вает	-1037
кти	-1038
ed	-1039
силия	-1040
▁мар	-1041
▁положения	-1042
99	-1043
▁па	-1044
ou	-1045
правление	-1046
▁между	-1047
▁двух	-1048
▁Экономи	-1049
СТ	-1050
▁доклада	-1051
▁октября	-1052
▁in	-1053
▁сентября	-1054
▁завер	-1055
ческой	-1056
оли	-1057
▁v	-1058
ые	-1059
);	-1060
▁страна	-1061
▁(200	-1062
бу	-1063
▁ш	-1064
▁учре	-1065
той	-1066
лению	-1067
▁Конвенции	-1068
▁16	-1069
гии	-1070
▁перед	-1071
▁уг	-1072
еду	-1073
нд	-1074
ова	-1075
ЕН	-1076
▁комитет	-1077
▁O	-1078
▁еще	-1079
▁социаль	-1080
▁17	-1081
▁была	-1082
Подпись	-1083
ование	-1084
▁том	-1085
▁заявление	-1086
▁торгов	-1087
▁Конферен	-1088
риз	-1089
рок	-1090
меч	-1091
▁вз	-1092
▁гражда	-1093
еления	-1094
▁Ни	-1095
▁детей	-1096
ших	-1097
▁им	-1098
▁только	-1099
▁Председателя	-1100
итуа	-1101
нос	-1102
▁стран	-1103
овой	-1104
▁бюдж	-1105
ск	-1106
ранспор	-1107
читель	-1108
▁18	-1109
ента	-1110
▁In	-1111
▁орг	-1112
▁s	-1113
▁Он	-1114
ответств	-1115
▁Рес	-1116
▁сторо	-1117
ким	-1118
жен	-1119
il	-1120
ого	-1121
▁против	-1122
▁направ	-1123
тие	-1124
ум	-1125
▁Эти	-1126
▁откры	-1127
остав	-1128
реп	-1129
ОР	-1130
ний	-1131
▁расп	-1132
ав	-1133
▁обо	-1134
▁работе	-1135
▁представитель	-1136
ТА	-1137
▁з	-1138
▁сч	-1139
▁W	-1140
ТЕ	-1141
КА	-1142
▁Специаль	-1143
нер	-1144
глий	-1145
.6	-1146
▁Комиссия	-1147
кий	-1148
лич	-1149
ана	-1150
▁расход	-1151
▁мая	-1152
▁рассмотрение	-1153
▁пар	-1154
▁каче	-1155
лении	-1156
▁делега	-1157
▁эта	-1158
чей	-1159
▁Республи	-1160
ted	-1161
▁эксп	-1162
роприя	-1163
рез	-1164
ra	-1165
▁Раз	-1166
▁произ	-1167
▁постанов	-1168
▁принимается	-1169
▁соответств	-1170
ter	-1171
▁ди	-1172
уют	-1173
▁народ	-1174
ющей	-1175
нци	-1176
▁e	-1177
▁представля	-1178
▁Ли	-1179
▁Для	-1180
щения	-1181
чный	-1182
▁дис	-1183
ing	-1184
ию	-1185
рет	-1186
енный	-1187
▁транспор	-1188
▁V	-1189
ами	-1190
▁долл	-1191
▁других	-1192
при	-1193
▁зада	-1194
ском	-1195
пункт	-1196
нист	-1197
фициальные	-1198
▁ох	-1199
ОМИ	-1200
▁указа	-1201
нии	-1202
▁информации	-1203
▁годы	-1204
▁предостав	-1205
▁кор	-1206
▁ве	-1207
▁инте	-1208
онд	-1209
емые	-1210
стран	-1211
ЦИ	-1212
работ	-1213
ый	-1214
▁ЮН	-1215
▁заседание	-1216
▁страны	-1217
креп	-1218
▁комисс	-1219
▁Статья	-1220
▁которые	-1221
▁рекомен	-1222
фф	-1223
мина	-1224
родолжение	-1225
▁заклю	-1226
▁ii	-1227
иль	-1228
▁Вопрос	-1229
▁прод	-1230
▁21	-1231
гда	-1232
▁средств	-1233
жение	-1234
грамма	-1235
гре	-1236
▁годов	-1237
▁услов	-1238
зор	-1239
которы	-1240
▁членов	-1241
▁ход	-1242
▁он	-1243
слу	-1244
нее	-1245
▁языке	-1246
▁ше	-1247
ерь	-1248
Йор	-1249
▁Ос	-1250
тому	-1251
▁провод	-1252
▁должност	-1253
грани	-1254
▁Нью	-1255
ческий	-1256
▁практи	-1257
▁участи	-1258
▁опера	-1259
▁прилож	-1260
..	-1261
НЫ	-1262
▁голосования	-1263
тра	-1264
боры	-1265
казыва	-1266
▁Женева	-1267
лин	-1268
▁нача	-1269
орь	-1270
▁помощи	-1271
екретариата	-1272
лемы	-1273
ило	-1274
до	-1275
ША	-1276
рук	-1277
▁оста	-1278
луч	-1279
▁этим	-1280
ал	-1281
▁част	-1282
зации	-1283
▁контр	-1284
▁принци	-1285
▁0	-1286
▁Су	-1287
▁нед	-1288
ni	-1289
la	-1290
▁рам	-1291
▁Полож	-1292
ступа	-1293
▁чтобы	-1294
СП	-1295
▁США	-1296
▁р	-1297
▁показа	-1298
жне	-1299
кращ	-1300
/3	-1301
▁Финанс	-1302
тисти	-1303
▁можно	-1304
▁апре	-1305
▁право	-1306
вя	-1307
▁руковод	-1308
роме	-1309
полнитель	-1310
▁помощ	-1311
вой	-1312
▁Бы	-1313
▁Рабочая	-1314
▁Представ	-1315
лений	-1316
▁Они	-1317
▁J	-1318
▁связа	-1319
▁25	-1320
▁люд	-1321
▁после	-1322
▁Ма	-1323
▁место	-1324
продолжение	-1325
лоб	-1326
▁Де	-1327
мая	-1328
▁техни	-1329
▁Засед	-1330
▁ресурсов	-1331
этому	-1332
им	-1333
▁Социаль	-1334
▁уровне	-1335
▁Пер	-1336
спек	-1337
▁пов	-1338
ников	-1339
▁статьи	-1340
мери	-1341
▁данных	-1342
▁ситуа	-1343
полнение	-1344
▁нет	-1345
▁марта	-1346
сульта	-1347
▁Группа	-1348
▁Па	-1349
цев	-1350
▁Мо	-1351
енно	-1352
овые	-1353
гресс	-1354
▁обществ	-1355
ЕД	-1356
тий	-1357
▁потреб	-1358
ера	-1359
орд	-1360
ффектив	-1361
ЛЬ	-1362
▁три	-1363
▁сек	-1364
▁имеет	-1365
▁специаль	-1366
▁22	-1367
▁изменить	-1368
▁мероприя	-1369
▁Исп	-1370
▁Соедин	-1371
▁программы	-1372
зв	-1373
Йорк	-1374
▁обязатель	-1375
▁пу	-1376
ющиеся	-1377
▁Кроме	-1378
▁31	-1379
/200	-1380
ентов	-1381
ir	-1382
▁системы	-1383
▁определ	-1384
токол	-1385
/4	-1386
чает	-1387
ческая	-1388
ща	-1389
ител	-1390
▁развитие	-1391
▁Все	-1392
▁они	-1393
▁ку	-1394
▁управ	-1395
лиров	-1396
▁процеду	-1397
лся	-1398
обод	-1399
▁борь	-1400
ое	-1401
▁лет	-1402
▁организация	-1403
мест	-1404
▁са	-1405
шей	-1406
im	-1407
ир	-1408
щем	-1409
▁заседания	-1410
ep	-1411
▁Заседание	-1412
▁два	-1413
сах	-1414
▁Организация	-1415
неш	-1416
хани	-1417
▁Сторо	-1418
фика	-1419
тели	-1420
лась	-1421
ig	-1422
▁актив	-1423
▁целя	-1424
ЕР	-1425
▁деятельность	-1426
▁вод	-1427
вис	-1428
▁должен	-1429
us	-1430
воз	-1431
цы	-1432
▁вну	-1433
▁призна	-1434
▁вним	-1435
▁занима	-1436
▁конф	-1437
▁апреля	-1438
▁2009	-1439
торая	-1440
пос	-1441
ленар	-1442
пла	-1443
ce	-1444
ссии	-1445
▁наход	-1446
▁n	-1447
зии	-1448
▁части	-1449
».	-1450
имы	-1451
овать	-1452
▁предлага	-1453
▁работа	-1454
нва	-1455
▁соответствии	-1456
ческим	-1457
рения	-1458
▁Амери	-1459
годи	-1460
▁Поэтому	-1461
▁являются	-1462
стойчи	-1463
▁служ	-1464
зу	-1465
▁буду	-1466
лик	-1467
просу	-1468
▁своей	-1469
ts	-1470
ci	-1471
трен	-1472
le	-1473
овых	-1474
мотре	-1475
оне	-1476
ханиз	-1477
ья	-1478
сит	-1479
лобаль	-1480
ствия	-1481
▁страте	-1482
оля	-1483
▁должна	-1484
тар	-1485
▁рай	-1486
▁янва	-1487
▁Положение	-1488
▁23	-1489
олов	-1490
сут	-1491
гие	-1492
▁Этот	-1493
▁1999	-1494
▁ана	-1495
▁усилия	-1496
▁конк	-1497
▁государства	-1498
▁вопросу	-1499
ропей	-1500
▁оказа	-1501
щение	-1502
ключить	-1503
▁экспер	-1504
▁Постоян	-1505
есь	-1506
▁международного	-1507
.7	-1508
▁привод	-1509
▁пленар	-1510
▁которо	-1511
▁информация	-1512
▁качестве	-1513
▁ПРО	-1514
▁эффектив	-1515
▁Эта	-1516
▁преступ	-1517
▁фак	-1518
▁Шта	-1519
бой	-1520
ятся	-1521
▁for	-1522
точ	-1523
яс	-1524
▁ю	-1525
енной	-1526
▁жиз	-1527
▁окру	-1528
▁настоящее	-1529
▁консульта	-1530
▁Докумен	-1531
▁ООН	-1532
▁двухгоди	-1533
▁Основ	-1534
▁случае	-1535
.,	-1536
кви	-1537
писка	-1538
▁приняты	-1539
am	-1540
▁интере	-1541
▁ссы	-1542
▁зд	-1543
них	-1544
льту	-1545
нения	-1546
▁27	-1547
КИ	-1548
▁наблю	-1549
▁мате	-1550
▁му	-1551
▁фев	-1552
▁действий	-1553
▁га	-1554
▁ответ	-1555
лести	-1556
час	-1557
▁региональ	-1558
арак	-1559
тего	-1560
ром	-1561
НО	-1562
id	-1563
▁Выборы	-1564
ur	-1565
▁рамках	-1566
етод	-1567
ские	-1568
ордина	-1569
ска	-1570
над	-1571
▁гражданс	-1572
▁уже	-1573
▁участ	-1574
▁целях	-1575
▁вед	-1576
цу	-1577
▁принял	-1578
um	-1579
▁24	-1580
▁различ	-1581
▁ору	-1582
▁неза	-1583
▁осуществля	-1584
▁средства	-1585
▁свою	-1586
▁терро	-1587
ыта	-1588
цать	-1589
▁свобод	-1590
ерх	-1591
▁ан	-1592
еле	-1593
tr	-1594
▁конфлик	-1595
ейчас	-1596
торов	-1597
▁внес	-1598
чества	-1599
▁февра	-1600
▁ад	-1601
▁Uni	-1602
▁транспорт	-1603
шин	-1604
ощ	-1605
▁(2	-1606
ber	-1607
▁Расс	-1608
чень	-1609
▁этому	-1610
лово	-1611
лены	-1612
▁установ	-1613
ations	-1614
▁документ	-1615
ук	-1616
▁замеч	-1617
дации	-1618
ческое	-1619
зда	-1620
▁го	-1621
ad	-1622
шие	-1623
▁Поправки	-1624
анда	-1625
▁свед	-1626
▁документа	-1627
гия	-1628
годня	-1629
▁кажд	-1630
ev	-1631
аны	-1632
▁проблемы	-1633
▁труд	-1634
th	-1635
ion	-1636
того	-1637
▁харак	-1638
▁Националь	-1639
ремен	-1640
дов	-1641
▁осуществления	-1642
▁ходе	-1643
▁w	-1644
▁КОМИ	-1645
▁программам	-1646
вели	-1647
▁ро	-1648
ительно	-1649
▁прось	-1650
▁Пере	-1651
▁один	-1652
▁Ва	-1653
▁Конференции	-1654
▁лиш	-1655
ех	-1656
ООН	-1657
II	-1658
вая	-1659
жив	-1660
▁января	-1661
АНИ	-1662
▁Ру	-1663
смотр	-1664
▁внутрен	-1665
▁28	-1666
▁поправ	-1667
▁198	-1668
ид	-1669
канс	-1670
▁мир	-1671
▁должно	-1672
▁разору	-1673
▁некоторы	-1674
▁таких	-1675
▁населения	-1676
▁поправки	-1677
▁26	-1678
▁конт	-1679
▁авгу	-1680
▁выс	-1681
▁высо	-1682
пад	-1683
▁принять	-1684
▁другие	-1685
рий	-1686
▁Пятьдесят	-1687
кри	-1688
▁четвер	-1689
ТИ	-1690
СИ	-1691
▁бюджет	-1692
▁механиз	-1693
▁Управление	-1694
тый	-1695
▁подход	-1696
▁культу	-1697
▁заня	-1698
ностью	-1699
▁конвен	-1700
▁должностных	-1701
▁помощь	-1702
ерт	-1703
сутств	-1704
ирование	-1705
▁следующее	-1706
▁связан	-1707
енное	-1708
дцать	-1709
▁катего	-1710
▁февраля	-1711
шем	-1712
ндар	-1713
номо	-1714
▁Рабочей	-1715
сона	-1716
кримина	-1717
▁Европей	-1718
▁29	-1719
▁конкрет	-1720
рение	-1721
дель	-1722
▁рассмотрения	-1723
зя	-1724
ентраль	-1725
▁предложение	-1726
▁см	-1727
мотрение	-1728
▁созда	-1729
os	-1730
▁Да	-1731
сно	-1732
▁выше	-1733
рь	-1734
лежа	-1735
▁наде	-1736
анитар	-1737
▁пункты	-1738
▁to	-1739
▁второ	-1740
▁содержания	-1741
▁совещания	-1742
ститу	-1743
▁рассмотре	-1744
▁хотел	-1745
сслед	-1746
енного	-1747
ational	-1748
▁роль	-1749
еты	-1750
▁Америки	-1751
▁ниже	-1752
РАВ	-1753
еб	-1754
▁содейств	-1755
▁Рассмотрение	-1756
▁резолюцию	-1757
▁m	-1758
емых	-1759
▁ограни	-1760
▁неск	-1761
▁основе	-1762
логи	-1763
▁Записка	-1764
▁Международная	-1765
▁Вопросы	-1766
▁Дополнение	-1767
сли	-1768
▁сотрудничество	-1769
ul	-1770
▁РА	-1771
▁зако	-1772
▁силу	-1773
чий	-1774
▁цели	-1775
▁условия	-1776
▁англий	-1777
ало	-1778
▁статисти	-1779
▁отчеты	-1780
▁мест	-1781
▁закры	-1782
вого	-1783
▁ну	-1784
▁g	-1785
▁сох	-1786
▁Как	-1787
▁услу	-1788
▁h	-1789
▁дискримина	-1790
▁всем	-1791
бав	-1792
чик	-1793
▁Ше	-1794
▁устойчи	-1795
▁производ	-1796
▁*	-1797
него	-1798
▁Официальные	-1799
▁слово	-1800
▁дополнитель	-1801
▁стол	-1802
ети	-1803
▁положение	-1804
стан	-1805
▁on	-1806
▁августа	-1807
нициа	-1808
▁Она	-1809
телей	-1810
стре	-1811
ками	-1812
стьдесят	-1813
▁прогресс	-1814
ОД	-1815
▁учреждения	-1816
зо	-1817
▁назна	-1818
▁заседаний	-1819
▁значение	-1820
▁Постоянный	-1821
▁ряд	-1822
ологи	-1823
чные	-1824
▁мно	-1825
▁окружа	-1826
ующие	-1827
кому	-1828
ден	-1829
▁включа	-1830
уманитар	-1831
▁Программа	-1832
▁свое	-1833
▁персона	-1834
▁(199	-1835
▁пя	-1836
нение	-1837
мой	-1838
ЛА	-1839
рукту	-1840
стро	-1841
▁метод	-1842
рта	-1843
▁бла	-1844
бра	-1845
▁террориз	-1846
итать	-1847
вести	-1848
пор	-1849
▁ликви	-1850
▁проведения	-1851
щую	-1852
▁внимание	-1853
▁слов	-1854
▁Всем	-1855
▁развитию	-1856
▁много	-1857
▁мер	-1858
▁программ	-1859
▁воору	-1860
▁ци	-1861
▁усп	-1862
▁лишь	-1863
дация	-1864
▁вось	-1865
стоит	-1866
кам	-1867
зация	-1868
▁них	-1869
ностей	-1870
▁следующего	-1871
едь	-1872
жнему	-1873
▁Евро	-1874
раб	-1875
▁стороны	-1876
▁информацию	-1877
▁защиты	-1878
▁уни	-1879
un	-1880
чер	-1881
▁парт	-1882
шего	-1883
▁След	-1884
гну	-1885
▁de	-1886
▁асс	-1887
чие	-1888
ях	-1889
▁приложении	-1890
▁изменения	-1891
жида	-1892
▁укреп	-1893
▁секретариата	-1894
ЕМ	-1895
▁Меры	-1896
▁=	-1897
▁Согла	-1898
▁данные	-1899
▁вступ	-1900
▁ПР	-1901
енее	-1902
▁табли	-1903
нь	-1904
лия	-1905
▁исслед	-1906
▁двухгодичный	-1907
ющихся	-1908
ано	-1909
▁K	-1910
▁касающиеся	-1911
прежнему	-1912
мента	-1913
ды	-1914
▁относ	-1915
ункты	-1916
▁United	-1917
▁менее	-1918
▁минист	-1919
▁своем	-1920
нию	-1921
три	-1922
пособ	-1923
▁Финансирование	-1924
▁испол	-1925
▁уровня	-1926
▁участие	-1927
▁координа	-1928
▁регу	-1929
ta	-1930
▁охва	-1931
ЭК	-1932
ясь	-1933
▁конферен	-1934
вращ	-1935
енная	-1936
сла	-1937
▁испыта	-1938
tern	-1939
▁течение	-1940
щему	-1941
ники	-1942
ерьез	-1943
анные	-1944
▁созд	-1945
▁поступ	-1946
▁наи	-1947
▁жела	-1948
нить	-1949
▁отме	-1950
▁Всемир	-1951
▁Га	-1952
▁Се	-1953
▁эту	-1954
▁счита	-1955
▁опас	-1956
▁полномо	-1957
▁мероприятия	-1958
ством	-1959
▁гор	-1960
▁действия	-1961
▁организации	-1962
енности	-1963
10	-1964
емый	-1965
▁образования	-1966
.8	-1967
ОП	-1968
▁мор	-1969
▁Конвенция	-1970
▁нео	-1971
▁ино	-1972
▁III	-1973
▁стандар	-1974
ch	-1975
▁л	-1976
ым	-1977
▁пятьдесят	-1978
тии	-1979
▁ЮНИ	-1980
▁Изра	-1981
▁документов	-1982
▁фонд	-1983
▁часть	-1984
▁содержа	-1985
▁работу	-1986
▁седь	-1987
рито	-1988
▁Дру	-1989
▁поли	-1990
▁Международный	-1991
ies	-1992
ству	-1993
▁достижения	-1994
op	-1995
▁The	-1996
сторон	-1997
▁международных	-1998
чных	-1999
▁Пре	-2000
▁увели	-2001
еление	-2002
▁Централь	-2003
▁ссыла	-2004
▁Право	-2005
коль	-2006
▁выполн	-2007
▁перевоз	-2008
▁соблю	-2009
ЧЕС	-2010
▁дискриминации	-2011
▁Пя	-2012
▁процедуры	-2013
резолюция	-2014
▁добав	-2015
ваться	-2016
ers	-2017
▁Сотрудни	-2018
чного	-2019
▁заявлением	-2020
▁текста	-2021
▁000	-2022
ите	-2023
ff	-2024
лара	-2025
ага	-2026
▁получен	-2027
щества	-2028
ub	-2029
▁способ	-2030
▁глав	-2031
▁Послед	-2032
▁гово	-2033
аться	-2034
ИД	-2035
▁доб	-2036
▁гру	-2037
▁вопроса	-2038
стров	-2039
-3	-2040
/57	-2041
▁Если	-2042
говорит	-2043
роб	-2044
▁расходов	-2045
▁Ку	-2046
олод	-2047
▁После	-2048
▁re	-2049
▁особ	-2050
▁вла	-2051
▁поряд	-2052
НА	-2053
▁экспертов	-2054
чин	-2055
ve	-2056
▁серьез	-2057
▁Ав	-2058
▁поддержи	-2059
▁инициа	-2060
▁Приня	-2061
▁протокол	-2062
▁цель	-2063
▁управления	-2064
▁ОБ	-2065
/56	-2066
нами	-2067
сточник	-2068
▁нару	-2069
▁мл	-2070
▁пленарное	-2071
▁предложения	-2072
▁мом	-2073
▁Сторон	-2074
▁Осуществ	-2075
▁гуманитар	-2076
▁исклю	-2077
▁зая	-2078
▁ЕЭК	-2079
▁ры	-2080
▁сам	-2081
рон	-2082
▁вопросов	-2083
▁муж	-2084
▁частности	-2085
▁Com	-2086
стов	-2087
▁ника	-2088
вор	-2089
если	-2090
▁излож	-2091
▁Информа	-2092
▁распред	-2093
▁Доб	-2094
тен	-2095
▁Nations	-2096
ниров	-2097
▁решений	-2098
▁террито	-2099
▁поощ	-2100
▁включен	-2101
става	-2102
▁иностран	-2103
▁слож	-2104
▁глобаль	-2105
▁функ	-2106
ив	-2107
▁чем	-2108
▁уголов	-2109
ерхов	-2110
▁наблюда	-2111
▁кос	-2112
▁провер	-2113
5,	-2114
▁Три	-2115
▁документы	-2116
▁vol	-2117
лено	-2118
▁ядер	-2119
▁ПРАВ	-2120
▁число	-2121
ос	-2122
писание	-2123
ражений	-2124
едера	-2125
еп	-2126
▁ши	-2127
▁материа	-2128
вое	-2129
нской	-2130
▁элем	-2131
▁возра	-2132
▁аспек	-2133
▁Кор	-2134
ЕНИЕ	-2135
▁целей	-2136
▁она	-2137
▁55	-2138
олев	-2139
▁систем	-2140
вали	-2141
▁продолжа	-2142
лиз	-2143
▁составля	-2144
▁поддержку	-2145
▁места	-2146
▁замечания	-2147
▁бе	-2148
см	-2149
чно	-2150
▁1998	-2151
▁пункте	-2152
мом	-2153
тельно	-2154
еш	-2155
▁Предлага	-2156
▁семь	-2157
ителей	-2158
яж	-2159
▁НА	-2160
▁Rep	-2161
▁дви	-2162
▁нор	-2163
еклара	-2164
▁Зам	-2165
▁применя	-2166
▁официаль	-2167
▁ско	-2168
▁если	-2169
▁спис	-2170
▁разработ	-2171
▁приветств	-2172
▁даль	-2173
▁лица	-2174
▁представляться	-2175
▁Крат	-2176
▁сро	-2177
дия	-2178
орит	-2179
▁тру	-2180
▁торговли	-2181
▁Необход	-2182
ланд	-2183
▁Си	-2184
▁подтвер	-2185
/59	-2186
ителя	-2187
фици	-2188
▁нищ	-2189
▁сотрудничества	-2190
чь	-2191
▁Осуществление	-2192
▁политики	-2193
риан	-2194
▁ссылаясь	-2195
ха	-2196
▁групп	-2197
▁процентов	-2198
▁значитель	-2199
▁уда	-2200
/58	-2201
▁сокращ	-2202
▁отмет	-2203
тифика	-2204
ись	-2205
▁Пров	-2206
▁Африки	-2207
бро	-2208
▁Pro	-2209
▁Закон	-2210
вей	-2211
▁Суда	-2212
▁ти	-2213
▁своих	-2214
ОК	-2215
лект	-2216
▁ликвидации	-2217
▁данного	-2218
▁достигну	-2219
▁причи	-2220
▁расши	-2221
▁правосу	-2222
▁недо	-2223
▁взно	-2224
нди	-2225
▁обеспечения	-2226
▁оче	-2227
▁окружающей	-2228
ового	-2229
▁оруж	-2230
▁палести	-2231
▁преду	-2232
хо	-2233
▁жерт	-2234
▁Отдел	-2235
ЕЙ	-2236
рек	-2237
▁заверш	-2238
▁нам	-2239
▁Ба	-2240
нам	-2241
▁настоящий	-2242
▁четы	-2243
▁Источник	-2244
▁юри	-2245
▁система	-2246
▁несколько	-2247
ЕНИЯ	-2248
▁сегодня	-2249
оциа	-2250
ternational	-2251
▁возражений	-2252
▁договор	-2253
▁обсуждения	-2254
▁Ла	-2255
▁полномочий	-2256
2)	-2257
▁утвержда	-2258
чета	-2259
▁оценки	-2260
сса	-2261
оров	-2262
▁поль	-2263
▁новый	-2264
▁учрежд	-2265
ort	-2266
конча	-2267
▁переда	-2268
▁партнер	-2269
/55	-2270
▁сою	-2271
▁призыва	-2272
▁источ	-2273
▁улуч	-2274
▁обслу	-2275
▁сделать	-2276
▁всего	-2277
▁суда	-2278
треб	-2279
▁правительства	-2280
▁пример	-2281
овек	-2282
▁случая	-2283
маль	-2284
▁судеб	-2285
▁международной	-2286
▁странах	-2287
ОТ	-2288
▁Посол	-2289
▁бюджета	-2290
▁Республики	-2291
▁орга	-2292
тах	-2293
▁бежен	-2294
▁счет	-2295
res	-2296
▁новых	-2297
01	-2298
▁борьбе	-2299
▁подп	-2300
▁Штаты	-2301
▁197	-2302
▁имеют	-2303
▁открывается	-2304
▁род	-2305
▁человек	-2306
▁внос	-2307
ендер	-2308
▁Сотрудничество	-2309
енным	-2310
▁выпол	-2311
▁перес	-2312
▁процесса	-2313
▁статье	-2314
▁проектов	-2315
ссий	-2316
▁Гер	-2317
▁обращ	-2318
либо	-2319
▁осуществление	-2320
▁английском	-2321
▁Сооб	-2322
.9	-2323
ому	-2324
▁виде	-2325
месте	-2326
▁проекту	-2327
▁следующих	-2328
▁касается	-2329
ований	-2330
▁закон	-2331
▁совер	-2332
▁Там	-2333
▁Республика	-2334
▁Воз	-2335
▁исправ	-2336
анием	-2337
рах	-2338
▁Уча	-2339
▁времени	-2340
мент	-2341
▁Заяв	-2342
▁совет	-2343
▁сф	-2344
▁народов	-2345
▁нау	-2346
ЕТ	-2347
▁постав	-2348
екс	-2349
▁бед	-2350
▁делегация	-2351
▁реб	-2352
▁Реги	-2353
ское	-2354
новь	-2355
▁ЭК	-2356
▁Ро	-2357
▁доклады	-2358
▁l	-2359
ток	-2360
висимо	-2361
▁млн	-2362
▁повы	-2363
▁Са	-2364
...	-2365
▁Совещ	-2366
▁разви	-2367
ваем	-2368
чению	-2369
▁женщины	-2370
▁основных	-2371
ге	-2372
▁вторая	-2373
щими	-2374
след	-2375
рко	-2376
действ	-2377
▁UN	-2378
▁город	-2379
sion	-2380
англий	-2381
статоч	-2382
вают	-2383
чай	-2384
▁ито	-2385
▁цен	-2386
▁принятая	-2387
чной	-2388
екретариат	-2389
телем	-2390
▁результатов	-2391
▁Сейчас	-2392
юджет	-2393
▁Сред	-2394
▁оружия	-2395
▁Необходимо	-2396
▁Суд	-2397
английски	-2398
▁обслужив	-2399
▁Документы	-2400
▁больше	-2401
▁докладу	-2402
▁Ассамблеей	-2403
▁готов	-2404
▁сум	-2405
▁содержится	-2406
▁Тре	-2407
▁продолжать	-2408
▁преп	-2409
▁вновь	-2410
▁рекоменд	-2411
▁план	-2412
▁четыре	-2413
▁En	-2414
ОГ	-2415
▁столом	-2416
жению	-2417
0,	-2418
АС	-2419
▁заверши	-2420
бре	-2421
мыш	-2422
▁Верхов	-2423
обнов	-2424
▁угро	-2425
▁Ира	-2426
7,	-2427
▁Повест	-2428
▁объем	-2429
igh	-2430
▁Докладчик	-2431
▁Стра	-2432
едини	-2433
ъем	-2434
▁Пункты	-2435
▁Миссии	-2436
▁кра	-2437
▁конце	-2438
▁обзор	-2439
▁сообщения	-2440
▁энер	-2441
ющая	-2442
▁состояв	-2443
▁прош	-2444
▁КОМИТЕ	-2445
ia	-2446
ям	-2447
дет	-2448
▁включая	-2449
линный	-2450
▁которых	-2451
▁постановляет	-2452
▁Con	-2453
▁категории	-2454
▁манда	-2455
▁отдель	-2456
▁рав	-2457
▁X	-2458
▁сведению	-2459
▁нарко	-2460
етвер	-2461
▁дальней	-2462
кра	-2463
▁инициатив	-2464
▁Минист	-2465
чис	-2466
▁par	-2467
ший	-2468
▁озна	-2469
▁весь	-2470
▁жизни	-2471
▁общего	-2472
гани	-2473
/60	-2474
▁позв	-2475
▁указан	-2476
▁характер	-2477
▁Международного	-2478
▁подлин	-2479
▁соб	-2480
/61	-2481
▁потен	-2482
мещ	-2483
▁постоян	-2484
глаша	-2485
ело	-2486
▁результате	-2487
их	-2488
жегод	-2489
▁ора	-2490
кончатель	-2491
▁ле	-2492
▁Решение	-2493
▁резолюция	-2494
▁приорит	-2495
▁культур	-2496
▁такой	-2497
tin	-2498
▁ар	-2499
▁голосование	-2500
рить	-2501
▁Группы	-2502
▁органи	-2503
▁ри	-2504
▁техно	-2505
▁выступил	-2506
▁оказыва	-2507
▁60	-2508
▁Добав	-2509
▁треть	-2510
▁совещание	-2511
▁реали	-2512
▁Потреб	-2513
▁Пе	-2514
зия	-2515
▁Приложение	-2516
dd	-2517
СЕ	-2518
едици	-2519
ленные	-2520
▁наркоти	-2521
▁вывод	-2522
екст	-2523
ением	-2524
зора	-2525
▁дела	-2526
▁Другие	-2527
▁Mr	-2528
▁принцип	-2529
▁Повестка	-2530
ТУ	-2531
работа	-2532
КАЯ	-2533
▁насилия	-2534
енными	-2535
▁Al	-2536
.2.1	-2537
рин	-2538
Подлинный	-2539
our	-2540
ченных	-2541
▁данный	-2542
▁выступлений	-2543
inis	-2544
КТА	-2545
▁тра	-2546
▁Включить	-2547
мера	-2548
▁обеспечи	-2549
▁точ	-2550
менно	-2551
▁Второ	-2552
чеб	-2553
▁среды	-2554
▁новые	-2555
▁правительство	-2556
▁фору	-2557
▁Советом	-2558
ляю	-2559
▁обу	-2560
▁контроля	-2561
вания	-2562
▁здоров	-2563
▁охра	-2564
▁считать	-2565
бира	-2566
ствий	-2567
▁случаях	-2568
▁International	-2569
буна	-2570
2,	-2571
▁принятые	-2572
▁осуществлению	-2573
▁40	-2574
▁присо	-2575
▁мин	-2576
▁доро	-2577
▁ресурсах	-2578
ата	-2579
▁ны	-2580
▁Гла	-2581
▁второй	-2582
▁отдел	-2583
▁Ки	-2584
▁пункту	-2585
▁людей	-2586
▁запре	-2587
▁отсутств	-2588
▁50	-2589
▁расходы	-2590
юро	-2591
▁правила	-2592
▁Ser	-2593
▁сель	-2594
/62	-2595
ity	-2596
▁кур	-2597
▁подпунк	-2598
▁Бу	-2599
▁комиссия	-2600
▁приводится	-2601
6,	-2602
щество	-2603
ew	-2604
вый	-2605
енты	-2606
СР	-2607
▁Бюджет	-2608
▁составляет	-2609
▁элект	-2610
▁мень	-2611
▁Информация	-2612
▁получи	-2613
▁утвержд	-2614
овый	-2615
▁глава	-2616
▁Руковод	-2617
▁лес	-2618
▁осо	-2619
▁сохра	-2620
При	-2621
▁Запад	-2622
▁одной	-2623
▁ты	-2624
▁защите	-2625
▁результаты	-2626
▁седьмая	-2627
резвы	-2628
шим	-2629
резвычай	-2630
/7	-2631
парта	-2632
ющим	-2633
et	-2634
▁вер	-2635
▁смер	-2636
▁нынеш	-2637
▁участв	-2638
хи	-2639
риф	-2640
▁кол	-2641
▁школ	-2642
▁коренных	-2643
▁Му	-2644
овая	-2645
▁ситуация	-2646
мед	-2647
▁учет	-2648
нять	-2649
▁Секретариата	-2650
ЖД	-2651
▁восьмая	-2652
▁который	-2653
слов	-2654
em	-2655
▁Ан	-2656
РАН	-2657
сами	-2658
▁настоящему	-2659
тых	-2660
куп	-2661
▁органов	-2662
▁целом	-2663
▁стату	-2664
лом	-2665
▁цент	-2666
ary	-2667
▁ша	-2668
▁Пла	-2669
▁вариан	-2670
прия	-2671
▁соблюд	-2672
laim	-2673
▁воздейств	-2674
онах	-2675
▁Краткий	-2676
зяй	-2677
ляр	-2678
▁iii	-2679
образ	-2680
▁докладе	-2681
▁заявления	-2682
▁очень	-2683
▁труда	-2684
▁Международное	-2685
▁поч	-2686
ующих	-2687
▁стро	-2688
▁Принятие	-2689
▁руководя	-2690
ссия	-2691
▁Общие	-2692
▁публи	-2693
▁доступ	-2694
▁процента	-2695
олюции	-2696
▁ребен	-2697
▁Потребности	-2698
▁сотрудников	-2699
1,	-2700
рей	-2701
НЫХ	-2702
▁применения	-2703
▁кла	-2704
▁косми	-2705
▁ог	-2706
▁собы	-2707
▁него	-2708
▁структу	-2709
▁ожида	-2710
▁Королев	-2711
чении	-2712
кольку	-2713
▁подчер	-2714
ража	-2715
руг	-2716
ваются	-2717
рот	-2718
руется	-2719
ющий	-2720
мулиров	-2721
▁Социального	-2722
▁КОМИТЕТ	-2723
▁Рекомен	-2724
▁возможности	-2725
▁Ча	-2726
ИЧ	-2727
▁заг	-2728
▁пись	-2729
▁поддержки	-2730
чная	-2731
▁Экономического	-2732
/63	-2733
▁100	-2734
▁резолюций	-2735
▁такие	-2736
▁такого	-2737
4,	-2738
там	-2739
▁разре	-2740
▁периоди	-2741
▁ту	-2742
9,	-2743
ТР	-2744
▁Comm	-2745
зид	-2746
▁коли	-2747
▁принятия	-2748
шта	-2749
▁собой	-2750
шению	-2751
миров	-2752
▁успех	-2753
▁правах	-2754
▁вой	-2755
▁опы	-2756
▁подпис	-2757
вые	-2758
▁стране	-2759
▁гендер	-2760
онда	-2761
бора	-2762
▁продук	-2763
▁само	-2764
▁реви	-2765
▁вооруж	-2766
версит	-2767
▁возобнов	-2768
ЩИ	-2769
▁медици	-2770
▁Африке	-2771
▁безопас	-2772
▁1997	-2773
▁Таким	-2774
пи	-2775
чих	-2776
ват	-2777
шее	-2778
ительство	-2779
ОС	-2780
▁масс	-2781
анных	-2782
▁текстам	-2783
▁подроб	-2784
пуска	-2785
▁Конференция	-2786
▁Соединенные	-2787
▁трех	-2788
▁финансиров	-2789
▁пози	-2790
▁консультации	-2791
▁изда	-2792
▁код	-2793
▁кри	-2794
▁вноситься	-2795
▁выбро	-2796
▁следующий	-2797
▁Minis	-2798
3,	-2799
▁пор	-2800
▁аль	-2801
3.	-2802
▁Фран	-2803
мышлен	-2804
чается	-2805
▁Шестьдесят	-2806
▁Председателем	-2807
ЕЛ	-2808
тые	-2809
▁широ	-2810
▁весьма	-2811
▁интересах	-2812
▁неофициаль	-2813
риб	-2814
▁авто	-2815
▁подлинника	-2816
tu	-2817
ятельность	-2818
▁органа	-2819
▁услуг	-2820
▁необходимы	-2821
▁СО	-2822
▁очеред	-2823
ov	-2824
▁Проц	-2825
нистра	-2826
9)	-2827
▁развива	-2828
▁Правило	-2829
▁Деятельность	-2830
оз	-2831
▁рефор	-2832
▁0,	-2833
▁удел	-2834
▁больш	-2835
oun	-2836
▁1,	-2837
пример	-2838
▁требования	-2839
ission	-2840
▁обмен	-2841
▁экологи	-2842
рава	-2843
▁Ди	-2844
III	-2845
▁Испол	-2846
▁инст	-2847
▁меся	-2848
▁инвести	-2849
▁проис	-2850
▁обы	-2851
мости	-2852
▁Федера	-2853
▁полностью	-2854
▁Тем	-2855
биль	-2856
носи	-2857
▁которое	-2858
reat	-2859
▁Подготов	-2860
▁Ch	-2861
сшта	-2862
▁одоб	-2863
▁странам	-2864
▁Ана	-2865
тое	-2866
СТИ	-2867
▁возможно	-2868
▁Ис	-2869
▁последствия	-2870
▁определя	-2871
ab	-2872
ТВ	-2873
▁Рас	-2874
▁зем	-2875
▁управление	-2876
ЦИИ	-2877
▁учеб	-2878
ge	-2879
ала	-2880
нем	-2881
НЫЕ	-2882
ара	-2883
ссей	-2884
▁справ	-2885
▁друго	-2886
▁совмест	-2887
▁национальных	-2888
▁Было	-2889
▁выдел	-2890
РУ	-2891
▁Ар	-2892
▁Настоя	-2893
▁Пятого	-2894
нению	-2895
▁сделал	-2896
▁говорит	-2897
▁Азии	-2898
▁молод	-2899
▁остается	-2900
пом	-2901
▁бес	-2902
▁Экономический	-2903
уются	-2904
▁Основные	-2905
▁Протокол	-2906
онов	-2907
▁Афгани	-2908
▁день	-2909
▁ситуации	-2910
▁Специальный	-2911
▁Прось	-2912
▁ребенка	-2913
1.	-2914
▁ВИЧ	-2915
▁Социальный	-2916
▁сообщ	-2917
▁обеспечение	-2918
▁использования	-2919
ТО	-2920
▁образование	-2921
няя	-2922
КТАД	-2923
тами	-2924
▁зат	-2925
вых	-2926
▁мере	-2927
▁хозяй	-2928
▁задачи	-2929
98	-2930
▁когда	-2931
его	-2932
▁ТРАН	-2933
▁вс	-2934
▁согласов	-2935
▁Текст	-2936
▁процессе	-2937
езд	-2938
▁правил	-2939
▁встре	-2940
▁вход	-2941
▁потенциа	-2942
▁координации	-2943
▁оценка	-2944
▁Резолюции	-2945
▁обеспечить	-2946
дии	-2947
oc	-2948
▁беженцев	-2949
▁2,	-2950
▁Но	-2951
▁СП	-2952
▁Cor	-2953
▁заслу	-2954
ница	-2955
▁чрезвычай	-2956
▁Представитель	-2957
-5	-2958
",	-2959
▁коло	-2960
▁проблема	-2961
▁Кариб	-2962
▁Вместе	-2963
2.	-2964
вест	-2965
ДП	-2966
▁делегации	-2967
▁докладов	-2968
▁аф	-2969
▁многи	-2970
▁196	-2971
уется	-2972
▁Специального	-2973
чу	-2974
▁представлены	-2975
▁уст	-2976
жной	-2977
граммы	-2978
▁ЮНКТАД	-2979
▁стре	-2980
▁обязательства	-2981
жит	-2982
▁пож	-2983
КП	-2984
art	-2985
▁Фонд	-2986
1)	-2987
емся	-2988
tic	-2989
мечание	-2990
ерство	-2991
▁Восто	-2992
АМ	-2993
▁одно	-2994
▁состава	-2995
▁делам	-2996
▁иностранных	-2997
ct	-2998
▁Бли	-2999
▁ассоциа	-3000
▁территории	-3001
кну	-3002
▁собств	-3003
вин	-3004
▁кли	-3005
▁стратеги	-3006
▁оза	-3007
▁дем	-3008
▁45	-3009
чания	-3010
меть	-3011
▁девя	-3012
ЕК	-3013
▁бассей	-3014
▁перв	-3015
роволь	-3016
матри	-3017
▁промышлен	-3018
▁пут	-3019
▁палестинс	-3020
try	-3021
нец	-3022
▁следующей	-3023
▁предоставляю	-3024
бое	-3025
8,	-3026
▁35	-3027
▁поддержанию	-3028
NF	-3029
ap	-3030
▁силы	-3031
▁персонала	-3032
рен	-3033
▁МООН	-3034
▁гаран	-3035
▁Эк	-3036
▁конвенции	-3037
▁различных	-3038
▁принципы	-3039
юме	-3040
▁Нео	-3041
зва	-3042
▁крат	-3043
▁изу	-3044
бя	-3045
▁област	-3046
▁диало	-3047
▁подготовки	-3048
▁учреждениях	-3049
-4	-3050
▁настоящего	-3051
надца	-3052
▁Сод	-3053
ражения	-3054
ман	-3055
st	-3056
▁зад	-3057
▁фран	-3058
емая	-3059
▁остров	-3060
ьми	-3061
▁мигра	-3062
▁Права	-3063
▁просьба	-3064
▁конс	-3065
вших	-3066
▁догово	-3067
▁масшта	-3068
ьер	-3069
читы	-3070
▁1995	-3071
ОНОМИ	-3072
енден	-3073
▁среди	-3074
▁некоторых	-3075
▁транспортных	-3076
▁ЭКОНОМИ	-3077
▁выступа	-3078
овым	-3079
цуз	-3080
енса	-3081
▁58	-3082
▁Могу	-3083
▁некоторые	-3084
▁приоритет	-3085
▁Представление	-3086
регу	-3087
▁документе	-3088
▁измер	-3089
▁переход	-3090
ВИ	-3091
▁край	-3092
▁себя	-3093
▁высказа	-3094
▁нищеты	-3095
▁организаций	-3096
▁граждан	-3097
тива	-3098
pe	-3099
рует	-3100
лена	-3101
▁первой	-3102
АЛЬ	-3103
▁мод	-3104
тивные	-3105
▁слова	-3106
▁вза	-3107
▁контек	-3108
▁одного	-3109
строй	-3110
▁нашей	-3111
▁Европы	-3112
▁посвя	-3113
▁Правила	-3114
▁иметь	-3115
▁периода	-3116
СПОР	-3117
ОВЕ	-3118
▁обязан	-3119
▁Центральных	-3120
ыду	-3121
▁тыся	-3122
▁сейчас	-3123
ТЕЛЬ	-3124
ay	-3125
нет	-3126
▁рассмотрению	-3127
▁54	-3128
пеци	-3129
▁вопросом	-3130
▁ресурсы	-3131
▁защита	-3132
▁электрон	-3133
▁Series	-3134
▁финансовых	-3135
»,	-3136
▁целью	-3137
ЕП	-3138
▁Региональ	-3139
рыв	-3140
▁араб	-3141
.2.2	-3142
▁Treat	-3143
▁Дополнитель	-3144
▁рассмотреть	-3145
▁Восточ	-3146
▁ТРАНСПОР	-3147
ующий	-3148
▁выда	-3149
▁Ассамблее	-3150
▁соглашения	-3151
вока	-3152
▁представить	-3153
года	-3154
ями	-3155
▁ЭКОНОМИЧЕС	-3156
▁принят	-3157
ряз	-3158
▁игра	-3159
▁переговор	-3160
мень	-3161
▁срок	-3162
раздел	-3163
▁ежегод	-3164
ld	-3165
▁общей	-3166
iv	-3167
АН	-3168
▁оц	-3169
▁оке	-3170
ЛИ	-3171
▁торговле	-3172
чено	-3173
▁контроль	-3174
▁состоянию	-3175
ерез	-3176
man	-3177
▁основные	-3178
▁Департа	-3179
▁посвящ	-3180
▁консультаций	-3181
▁57	-3182
▁диску	-3183
зем	-3184
/56/	-3185
▁ВН	-3186
чным	-3187
▁заноси	-3188
▁контексте	-3189
▁задерж	-3190
▁Израиль	-3191
кую	-3192
▁положений	-3193
▁Исполнитель	-3194
▁иму	-3195
шемся	-3196
▁Провод	-3197
программа	-3198
▁рабочих	-3199
vir	-3200
лки	-3201
чать	-3202
▁Фак	-3203
рами	-3204
▁Статисти	-3205
lo	-3206
viron	-3207
▁Просьба	-3208
▁контрак	-3209
▁фи	-3210
яжении	-3211
▁главе	-3212
▁усили	-3213
рению	-3214
▁Некоторы	-3215
▁внеш	-3216
▁надлежа	-3217
eg	-3218
ran	-3219
▁привед	-3220
▁St	-3221
ting	-3222
▁объема	-3223
нед	-3224
▁сказа	-3225
чаль	-3226
▁това	-3227
люче	-3228
▁учиты	-3229
публиков	-3230
▁уровень	-3231
▁связанные	-3232
ризис	-3233
▁заносимо	-3234
▁времен	-3235
▁теку	-3236
▁утверждается	-3237
нито	-3238
▁ев	-3239
▁Лати	-3240
▁намер	-3241
тей	-3242
щихся	-3243
яд	-3244
ровать	-3245
▁характе	-3246
end	-3247
▁вне	-3248
▁общи	-3249
▁ред	-3250
▁числа	-3251
▁соглас	-3252
еру	-3253
▁относительно	-3254
▁плана	-3255
▁Поскольку	-3256
▁Treaty	-3257
едур	-3258
▁две	-3259
▁возду	-3260
вле	-3261
циям	-3262
▁вклад	-3263
▁медицинс	-3264
▁принимает	-3265
▁мире	-3266
▁условиях	-3267
▁испытания	-3268
▁рассматри	-3269
УТР	-3270
акси	-3271
▁компенса	-3272
▁Западной	-3273
екларации	-3274
▁ему	-3275
▁независимо	-3276
ights	-3277
чены	-3278
▁деся	-3279
▁IV	-3280
▁сти	-3281
▁инспек	-3282
▁многих	-3283
ниторин	-3284
97	-3285
ССИ	-3286
▁УВ	-3287
▁Опред	-3288
▁убе	-3289
▁расслед	-3290
жу	-3291
▁ПРООН	-3292
сро	-3293
сай	-3294
▁большин	-3295
пли	-3296
.1.1	-3297
▁Женеве	-3298
▁охваты	-3299
енти	-3300
▁участников	-3301
ействие	-3302
рифин	-3303
▁Изменить	-3304
▁прове	-3305
вид	-3306
▁56	-3307
пел	-3308
ленных	-3309
▁запис	-3310
▁Времен	-3311
чел	-3312
▁пунктов	-3313
▁француз	-3314
▁Рекомендация	-3315
▁препят	-3316
▁веществ	-3317
▁Обзор	-3318
▁Япо	-3319
lic	-3320
▁би	-3321
▁взносов	-3322
▁указыва	-3323
тся	-3324
▁объек	-3325
▁другими	-3326
лекс	-3327
▁Некоторые	-3328
стоится	-3329
▁степ	-3330
▁всеоб	-3331
▁мужчин	-3332
▁возможность	-3333
▁режи	-3334
▁Показа	-3335
▁отношения	-3336
ители	-3337
ческом	-3338
▁предыду	-3339
▁состоявшемся	-3340
ИС	-3341
ерб	-3342
▁La	-3343
▁наш	-3344
▁сожа	-3345
▁Следует	-3346
▁незакон	-3347
/57/	-3348
▁Лю	-3349
▁превы	-3350
vironment	-3351
▁Ближне	-3352
▁33	-3353
▁прекращ	-3354
▁стратегии	-3355
▁свод	-3356
▁состоится	-3357
▁необходимость	-3358
панс	-3359
▁Wor	-3360
▁рекомендует	-3361
▁правосудия	-3362
▁ла	-3363
ведом	-3364
бив	-3365
▁ду	-3366
▁рели	-3367
▁Государ	-3368
▁реши	-3369
жно	-3370
енить	-3371
▁включить	-3372
СЕФ	-3373
▁использу	-3374
▁закрывается	-3375
▁выпла	-3376
▁претен	-3377
яну	-3378
▁необходимости	-3379
полага	-3380
▁Афганиста	-3381
▁Уг	-3382
4)	-3383
ant	-3384
▁учетом	-3385
итай	-3386
▁Его	-3387
▁загряз	-3388
▁ОР	-3389
od	-3390
мов	-3391
▁благо	-3392
ими	-3393
▁Зако	-3394
енсу	-3395
▁заниматься	-3396
▁кар	-3397
▁para	-3398
▁терроризма	-3399
▁выбор	-3400
▁юриди	-3401
▁Палести	-3402
▁предложений	-3403
/8	-3404
▁Ха	-3405
▁Фору	-3406
▁Голо	-3407
▁Конститу	-3408
-2005	-3409
отвращ	-3410
▁дав	-3411
▁службы	-3412
▁подвер	-3413
▁возвращ	-3414
evel	-3415
▁Буд	-3416
▁оружи	-3417
▁Что	-3418
тивных	-3419
более	-3420
▁Бюро	-3421
▁никаких	-3422
пелля	-3423
▁свид	-3424
▁тенден	-3425
аре	-3426
▁через	-3427
▁состоит	-3428
▁Глобаль	-3429
▁афри	-3430
ЗА	-3431
▁еди	-3432
▁таким	-3433
▁докладчи	-3434
пой	-3435
▁Решения	-3436
ием	-3437
▁момент	-3438
▁местах	-3439
▁аналоги	-3440
▁КОМИССИ	-3441
▁НП	-3442
тилет	-3443
▁таблице	-3444
▁конфликтов	-3445
▁осуществлении	-3446
▁этап	-3447
▁дирек	-3448
▁реаль	-3449
▁al	-3450
▁смерт	-3451
▁Подготовка	-3452
▁сектора	-3453
кими	-3454
▁Add	-3455
▁работ	-3456
▁шта	-3457
▁34	-3458
▁Заме	-3459
ss	-3460
▁жи	-3461
▁отк	-3462
воч	-3463
▁Проводится	-3464
▁1996	-3465
ией	-3466
рам	-3467
тору	-3468
дает	-3469
▁ря	-3470
▁Кос	-3471
пер	-3472
▁члены	-3473
▁консенсу	-3474
ГО	-3475
▁адвока	-3476
обили	-3477
▁Окончатель	-3478
ион	-3479
▁обзора	-3480
5.	-3481
▁свой	-3482
evelop	-3483
СПИД	-3484
▁Так	-3485
▁есть	-3486
иг	-3487
▁представител	-3488
▁вызыва	-3489
▁ПРЕД	-3490
▁мнения	-3491
▁Правительство	-3492
ence	-3493
▁Укреп	-3494
▁распор	-3495
▁семьи	-3496
▁общих	-3497
▁процедур	-3498
▁Подпрограмма	-3499
ud	-3500
▁Раздел	-3501
аксималь	-3502
▁Секретариат	-3503
▁операций	-3504
▁свидет	-3505
шений	-3506
разили	-3507
▁Опера	-3508
▁шестьдесят	-3509
CO	-3510
ВРО	-3511
▁общества	-3512
хам	-3513
▁сведения	-3514
▁32	-3515
сятся	-3516
АР	-3517
▁уб	-3518
ельник	-3519
▁оборуд	-3520
▁мероприятий	-3521
▁пока	-3522
▁семина	-3523
▁числу	-3524
▁главы	-3525
▁находится	-3526
3)	-3527
ate	-3528
▁случаев	-3529
▁представления	-3530
▁особенно	-3531
роки	-3532
▁Востоке	-3533
▁подтвержда	-3534
КО	-3535
вейца	-3536
овое	-3537
крытие	-3538
▁Ближнем	-3539
▁Совету	-3540
▁Environment	-3541
8.	-3542
▁Аль	-3543
▁Сист	-3544
ченные	-3545
▁Такие	-3546
▁представленный	-3547
Ле	-3548
▁снос	-3549
▁пользов	-3550
▁Организацией	-3551
стие	-3552
верситет	-3553
og	-3554
▁Два	-3555
министра	-3556
▁Верховного	-3557
гам	-3558
▁Кол	-3559
▁ЮНИСЕФ	-3560
▁техноло	-3561
явля	-3562
▁Дата	-3563
▁данной	-3564
▁борьбы	-3565
▁исследования	-3566
▁озабо	-3567
ляющей	-3568
▁разработа	-3569
ьерра	-3570
скими	-3571
▁мне	-3572
▁сто	-3573
▁Латинской	-3574
▁программе	-3575
торник	-3576
▁изменений	-3577
▁мм	-3578
▁форма	-3579
луата	-3580
ционная	-3581
ОЛ	-3582
▁планиров	-3583
▁разоружения	-3584
енщины	-3585
▁Sec	-3586
▁ВНУТР	-3587
▁регионе	-3588
▁Corr	-3589
▁кризис	-3590
▁разбив	-3591
▁ВНУТРЕН	-3592
что	-3593
помяну	-3594
▁равен	-3595
▁Ниже	-3596
▁последние	-3597
циях	-3598
льные	-3599
Леоне	-3600
▁африканс	-3601
ly	-3602
▁занять	-3603
▁Комп	-3604
▁четвертая	-3605
ard	-3606
▁разме	-3607
▁проход	-3608
▁предупре	-3609
сстанов	-3610
▁союз	-3611
ющее	-3612
▁Дан	-3613
▁КОН	-3614
▁предпри	-3615
регулиров	-3616
низации	-3617
▁комиссии	-3618
▁пути	-3619
лять	-3620
▁Укрепление	-3621
▁присоедини	-3622
uman	-3623
▁прием	-3624
АТ	-3625
жей	-3626
▁проведении	-3627
4.	-3628
▁Герм	-3629
▁приложения	-3630
▁представляет	-3631
▁позд	-3632
▁пы	-3633
ut	-3634
▁наблюд	-3635
▁став	-3636
▁Север	-3637
цей	-3638
▁резолюцией	-3639
▁плане	-3640
-2007	-3641
▁семей	-3642
руз	-3643
▁социального	-3644
▁Вен	-3645
▁ЕВРО	-3646
▁языках	-3647
▁существует	-3648
▁полиции	-3649
▁политическим	-3650
▁Лива	-3651
▁любы	-3652
ционной	-3653
▁Сек	-3654
▁девоч	-3655
▁правило	-3656
▁имени	-3657
▁оговор	-3658
▁перевод	-3659
oci	-3660
▁обязательств	-3661
▁инвали	-3662
▁Заявление	-3663
▁сохран	-3664
▁региона	-3665
▁Результа	-3666
тки	-3667
▁обсуждение	-3668
тивный	-3669
▁Сегодня	-3670
▁здоровья	-3671
ода	-3672
лли	-3673
▁37	-3674
менение	-3675
▁означает	-3676
▁Нор	-3677
▁районах	-3678
▁статья	-3679
▁способств	-3680
▁Косово	-3681
▁Сьерра	-3682
▁задолж	-3683
ri	-3684
▁Мар	-3685
-20	-3686
чном	-3687
кистан	-3688
▁озабочен	-3689
▁Программы	-3690
)*	-3691
▁Четвер	-3692
▁An	-3693
▁члена	-3694
ЦИЯ	-3695
▁замест	-3696
▁ВНУТРЕНН	-3697
▁бассейна	-3698
▁наказа	-3699
▁поступить	-3700
▁своего	-3701
нке	-3702
ским	-3703
▁сфере	-3704
▁Участие	-3705
▁дело	-3706
▁ТРАНСПОРТУ	-3707
▁осу	-3708
терна	-3709
▁Были	-3710
▁ради	-3711
▁молоде	-3712
▁ОС	-3713
▁j	-3714
тация	-3715
up	-3716
▁безопасность	-3717
-6	-3718
....	-3719
▁клима	-3720
стоящие	-3721
▁использование	-3722
мали	-3723
▁умень	-3724
▁предприя	-3725
▁ува	-3726
▁компон	-3727
▁Комитету	-3728
йти	-3729
▁доход	-3730
▁опубликов	-3731
▁регуляр	-3732
гент	-3733
лиза	-3734
▁отраж	-3735
▁Россий	-3736
блица	-3737
▁61	-3738
▁сотрудниче	-3739
▁затра	-3740
▁насили	-3741
50	-3742
▁77	-3743
▁КОМИССИЯ	-3744
▁пересмотр	-3745
▁оп	-3746
ЕМУ	-3747
▁дале	-3748
▁подраздел	-3749
ились	-3750
▁For	-3751
▁включает	-3752
▁эксплуата	-3753
.10	-3754
▁Перед	-3755
▁Карибского	-3756
__	-3757
▁отве	-3758
▁свободы	-3759
итив	-3760
▁мониторин	-3761
▁Страте	-3762
▁Подписание	-3763
▁Соединенных	-3764
▁подоб	-3765
шать	-3766
▁бо	-3767
чное	-3768
▁ЕВРОП	-3769
ат	-3770
ябре	-3771
▁ним	-3772
▁редак	-3773
▁Gen	-3774
▁поз	-3775
umber	-3776
▁ключе	-3777
ffic	-3778
правления	-3779
▁Боль	-3780
▁специ	-3781
▁заменить	-3782
onom	-3783
▁сни	-3784
▁преступности	-3785
▁Аб	-3786
▁ВНУТРЕННЕМУ	-3787
▁миров	-3788
▁исправления	-3789
гол	-3790
рой	-3791
лением	-3792
▁список	-3793
▁функции	-3794
▁утверждение	-3795
▁исто	-3796
▁подчеркну	-3797
ленный	-3798
▁выход	-3799
▁заяви	-3800
▁Министерство	-3801
▁спор	-3802
няется	-3803
▁Настоящий	-3804
лежит	-3805
▁извест	-3806
нев	-3807
статочно	-3808
▁идет	-3809
▁финансирования	-3810
▁обнов	-3811
▁разоружению	-3812
/199	-3813
▁должности	-3814
▁финансовые	-3815
▁Ситуа	-3816
▁Женщины	-3817
▁участия	-3818
▁приводятся	-3819
▁Ал	-3820
тором	-3821
▁Полити	-3822
▁исключить	-3823
CC	-3824
шая	-3825
МА	-3826
▁con	-3827
▁Добавить	-3828
▁поддерживает	-3829
▁занимает	-3830
▁хоро	-3831
▁которая	-3832
▁1990	-3833
▁протокола	-3834
▁ресурсами	-3835
6)	-3836
▁зрения	-3837
▁44	-3838
9.	-3839
▁ведо	-3840
паков	-3841
▁грузов	-3842
uro	-3843
щита	-3844
▁пояс	-3845
струк	-3846
▁определения	-3847
▁относятся	-3848
вай	-3849
рес	-3850
▁Примечание	-3851
зь	-3852
▁призывает	-3853
нтов	-3854
мость	-3855
ционных	-3856
▁добавить	-3857
▁нем	-3858
XX	-3859
▁Оцен	-3860
дерланд	-3861
▁Окончательный	-3862
▁обсужда	-3863
елает	-3864
▁Араб	-3865
▁одним	-3866
▁веб	-3867
/58/	-3868
ндида	-3869
▁анализ	-3870
63	-3871
▁кандида	-3872
6.	-3873
▁активно	-3874
▁ней	-3875
▁провести	-3876
▁фонда	-3877
тификации	-3878
for	-3879
▁доступа	-3880
▁правительств	-3881
▁Треть	-3882
▁усилий	-3883
▁52	-3884
▁разно	-3885
▁iv	-3886
▁РАБ	-3887
▁всегда	-3888
▁He	-3889
▁Rights	-3890
evelopment	-3891
крат	-3892
▁показатели	-3893
▁полов	-3894
работка	-3895
bid	-3896
/55/	-3897
▁пособ	-3898
▁Целе	-3899
чительные	-3900
оп	-3901
/59/	-3902
▁Заклю	-3903
АНИЕ	-3904
▁положению	-3905
ИН	-3906
едли	-3907
нные	-3908
чина	-3909
елились	-3910
▁выступить	-3911
ЕЙС	-3912
▁прогресса	-3913
тных	-3914
послед	-3915
▁Королевство	-3916
▁полез	-3917
▁потенциала	-3918
▁th	-3919
▁жертва	-3920
▁устойчивого	-3921
▁грани	-3922
▁Африканс	-3923
▁Ec	-3924
ствии	-3925
▁Голоса	-3926
▁Существ	-3927
▁занято	-3928
▁разделе	-3929
▁простран	-3930
▁комиссара	-3931
сом	-3932
емати	-3933
▁Член	-3934
▁соверш	-3935
▁сообщество	-3936
ial	-3937
▁claim	-3938
▁шести	-3939
▁потребности	-3940
▁48	-3941
▁Мно	-3942
▁сообщи	-3943
▁восстанов	-3944
▁относится	-3945
рос	-3946
ельзя	-3947
▁постановляющей	-3948
ине	-3949
ош	-3950
▁Нам	-3951
▁включать	-3952
▁условий	-3953
▁выполнения	-3954
/23	-3955
▁Ситуация	-3956
▁министров	-3957
▁То	-3958
▁Австра	-3959
-23	-3960
▁путем	-3961
▁Таблица	-3962
▁качества	-3963
▁одна	-3964
бов	-3965
▁тю	-3966
-2003	-3967
▁распределились	-3968
ee	-3969
40	-3970
▁by	-3971
▁обе	-3972
▁пять	-3973
▁оценке	-3974
▁at	-3975
▁авторов	-3976
ac	-3977
▁no	-3978
▁Мон	-3979
▁организов	-3980
▁одном	-3981
ПА	-3982
▁Израи	-3983
▁меньшин	-3984
▁яв	-3985
▁Защита	-3986
▁направления	-3987
▁Более	-3988
▁успеш	-3989
екси	-3990
ii	-3991
годар	-3992
▁представителю	-3993
▁Возмож	-3994
▁закона	-3995
СС	-3996
▁желает	-3997
▁секрета	-3998
▁Африка	-3999
uc	-4000
ЛО	-4001
▁налич	-4002
▁Показатели	-4003
▁увеличение	-4004
▁обеспечению	-4005
лей	-4006
▁Трибуна	-4007
▁окон	-4008
▁Швейца	-4009
▁жизнь	-4010
▁миссии	-4011
▁1994	-4012
ъемлю	-4013
▁числе	-4014
▁странов	-4015
▁доброволь	-4016
▁сы	-4017
чего	-4018
▁получить	-4019
▁стоимо	-4020
▁принципов	-4021
▁Mar	-4022
▁важное	-4023
▁поддержка	-4024
▁привер	-4025
▁ЕВРОПЕЙС	-4026
▁утверждения	-4027
скому	-4028
▁обсужд	-4029
▁эффективности	-4030
▁выраж	-4031
▁приглаша	-4032
▁ОТ	-4033
iz	-4034
Со	-4035
▁2010	-4036
/10	-4037
▁Дж	-4038
▁завершил	-4039
▁терроризмом	-4040
дить	-4041
▁аре	-4042
мене	-4043
▁плани	-4044
вад	-4045
▁Ст	-4046
▁группой	-4047
▁Ника	-4048
елан	-4049
▁МДП	-4050
▁дек	-4051
▁распро	-4052
КТ	-4053
овал	-4054
зидент	-4055
ДО	-4056
ляется	-4057
▁распол	-4058
ire	-4059
▁59	-4060
ете	-4061
лии	-4062
▁круп	-4063
▁назв	-4064
.1.	-4065
est	-4066
▁баз	-4067
▁порядке	-4068
▁ущ	-4069
▁number	-4070
▁публика	-4071
рати	-4072
se	-4073
▁195	-4074
ПР	-4075
АНИЯ	-4076
ню	-4077
еть	-4078
▁выбросов	-4079
▁Поощ	-4080
▁помощью	-4081
▁конференции	-4082
▁регистра	-4083
▁World	-4084
rom	-4085
▁Либе	-4086
екты	-4087
▁приняла	-4088
▁час	-4089
▁Заменить	-4090
-9	-4091
▁здесь	-4092
фициров	-4093
/25	-4094
▁Сем	-4095
▁Улуч	-4096
последствии	-4097
▁направлении	-4098
▁la	-4099
▁пр	-4100
▁банк	-4101
оначаль	-4102
eral	-4103
▁Резюме	-4104
▁глу	-4105
ase	-4106
▁форум	-4107
▁проверке	-4108
юсь	-4109
▁аспекты	-4110
▁РАЗ	-4111
челет	-4112
▁региональных	-4113
▁общее	-4114
▁языков	-4115
▁53	-4116
▁избира	-4117
▁согласно	-4118
ерба	-4119
▁наши	-4120
▁фа	-4121
▁Пор	-4122
▁сил	-4123
▁Ожида	-4124
▁природ	-4125
▁38	-4126
ЕЛОВЕ	-4127
▁тол	-4128
тные	-4129
няет	-4130
щиеся	-4131
▁события	-4132
▁2.1	-4133
▁испанс	-4134
▁тысячелет	-4135
▁Основная	-4136
▁требует	-4137
▁суб	-4138
▁Штатов	-4139
▁каждого	-4140
▁ЧЕЛОВЕ	-4141
▁осуществляться	-4142
▁Report	-4143
▁где	-4144
▁климата	-4145
▁механизмы	-4146
▁позитив	-4147
▁гражданских	-4148
жных	-4149
▁прилага	-4150
фа	-4151
▁Кана	-4152
▁ЗА	-4153
игнов	-4154
▁Euro	-4155
▁около	-4156
▁остав	-4157
▁этапе	-4158
▁энергии	-4159
яз	-4160
▁Чис	-4161
▁уголовного	-4162
▁Исполь	-4163
▁последствий	-4164
бит	-4165
▁ЧЕЛОВЕКА	-4166
▁Совещание	-4167
▁36	-4168
дров	-4169
нных	-4170
бер	-4171
▁Глава	-4172
▁задача	-4173
▁Определение	-4174
20	-4175
▁предстоит	-4176
▁pro	-4177
▁наших	-4178
▁Тех	-4179
▁инф	-4180
ess	-4181
17	-4182
▁представителя	-4183
итут	-4184
▁оно	-4185
▁Поощрение	-4186
▁GR	-4187
▁Их	-4188
▁парла	-4189
▁обозна	-4190
▁Ministry	-4191
▁правовой	-4192
▁Нес	-4193
зма	-4194
▁внимания	-4195
▁производства	-4196
▁Роль	-4197
▁получа	-4198
▁Ак	-4199
▁2.2	-4200
▁циф	-4201
▁судов	-4202
▁ДОК	-4203
▁прения	-4204
▁реализации	-4205
▁удов	-4206
▁Ту	-4207
ником	-4208
▁материалы	-4209
▁РЕ	-4210
15	-4211
ian	-4212
▁кто	-4213
рланд	-4214
ОЗ	-4215
/60/	-4216
▁пло	-4217
лых	-4218
слам	-4219
▁опис	-4220
▁Секрета	-4221
▁следующем	-4222
ционные	-4223
▁Общая	-4224
▁Исполнительный	-4225
▁3,	-4226
жная	-4227
чины	-4228
▁кред	-4229
▁долго	-4230
▁39	-4231
комисс	-4232
▁стабиль	-4233
▁использовать	-4234
air	-4235
ческому	-4236
▁оператив	-4237
мещения	-4238
ходы	-4239
▁ar	-4240
▁включают	-4241
▁Пересмотр	-4242
▁развивающихся	-4243
пря	-4244
▁имеется	-4245
▁наиболее	-4246
▁стратегия	-4247
▁социальной	-4248
30	-4249
ости	-4250
рита	-4251
▁будущем	-4252
▁источников	-4253
груз	-4254
▁гласит	-4255
▁62	-4256
▁содействие	-4257
оны	-4258
дать	-4259
тем	-4260
ъяс	-4261
стана	-4262
▁Ibid	-4263
енси	-4264
▁началь	-4265
▁военных	-4266
▁центр	-4267
▁урегулиров	-4268
▁рабочей	-4269
▁учреждений	-4270
▁ВОП	-4271
▁Тимо	-4272
▁национальном	-4273
гля	-4274
▁сторон	-4275
▁областях	-4276
▁Ти	-4277
▁Неофициальные	-4278
▁тор	-4279
купа	-4280
▁инициативы	-4281
▁всей	-4282
▁создание	-4283
▁Улучшение	-4284
▁приоб	-4285
▁власти	-4286
▁данному	-4287
еня	-4288
▁42	-4289
ющего	-4290
▁Согласно	-4291
▁Совещания	-4292
▁французском	-4293
▁формулиров	-4294
тери	-4295
▁изложены	-4296
▁услуги	-4297
▁специальным	-4298
-2009	-4299
▁подлежа	-4300
▁сообщества	-4301
▁Development	-4302
екретариатом	-4303
CE	-4304
▁степени	-4305
▁конкретных	-4306
▁Теп	-4307
▁хими	-4308
▁принятие	-4309
▁разоружение	-4310
▁47	-4311
перату	-4312
▁Департамент	-4313
ue	-4314
язви	-4315
▁Двадцать	-4316
-7	-4317
].	-4318
▁Кан	-4319
/24	-4320
▁приступ	-4321
ины	-4322
▁нового	-4323
▁информацией	-4324
▁New	-4325
▁задач	-4326
▁приглашаю	-4327
.1,	-4328
боль	-4329
▁пяти	-4330
▁деколо	-4331
▁проведение	-4332
▁например	-4333
ье	-4334
▁Econom	-4335
/61/	-4336
рования	-4337
▁системе	-4338
▁ОРГ	-4339
▁физи	-4340
овали	-4341
▁упаков	-4342
▁представлена	-4343
5)	-4344
право	-4345
▁технологии	-4346
▁преступления	-4347
▁полного	-4348
▁деколонизации	-4349
ото	-4350
▁виды	-4351
▁сожалению	-4352
▁:	-4353
оду	-4354
емой	-4355
▁Бос	-4356
МИ	-4357
зуются	-4358
▁Offic	-4359
▁Оценка	-4360
▁брифин	-4361
▁1:	-4362
▁исследований	-4363
▁r	-4364
▁союза	-4365
▁движения	-4366
▁полученные	-4367
▁Деле	-4368
▁пожелает	-4369
▁правосуди	-4370
▁Тур	-4371
▁рати	-4372
ЛЯ	-4373
▁можем	-4374
▁поддержке	-4375
▁обслуживание	-4376
tive	-4377
▁Система	-4378
▁создания	-4379
▁ран	-4380
▁линии	-4381
ложения	-4382
▁Подкомисс	-4383
▁позвол	-4384
▁часто	-4385
▁Данные	-4386
▁максималь	-4387
▁присутств	-4388
ublic	-4389
▁удовлет	-4390
▁экономического	-4391
ЮЩИ	-4392
снов	-4393
▁такое	-4394
▁группе	-4395
▁итогам	-4396
вета	-4397
▁Документация	-4398
▁км	-4399
▁Тор	-4400
▁демок	-4401
▁среду	-4402
▁Результаты	-4403
каз	-4404
▁впе	-4405
▁статьей	-4406
▁конвенция	-4407
▁положении	-4408
▁осуществляется	-4409
▁справедли	-4410
▁требуется	-4411
▁2006-2007	-4412
ума	-4413
▁происход	-4414
▁аб	-4415
▁отметить	-4416
▁Сомали	-4417
▁примени	-4418
▁различные	-4419
▁НПО	-4420
▁Сообщение	-4421
▁политических	-4422
)1	-4423
▁Национальный	-4424
▁Зал	-4425
лизации	-4426
▁дома	-4427
гип	-4428
▁годах	-4429
▁Первый	-4430
▁Теперь	-4431
▁первая	-4432
▁Sta	-4433
енную	-4434
глашаются	-4435
РОС	-4436
▁поощрению	-4437
me	-4438
рас	-4439
▁войны	-4440
ованию	-4441
▁Часть	-4442
▁уведом	-4443
▁затраги	-4444
▁поправок	-4445
▁43	-4446
грации	-4447
▁напад	-4448
▁уничто	-4449
▁характера	-4450
▁количество	-4451
▁дов	-4452
▁милли	-4453
▁устрой	-4454
▁произош	-4455
ЦИАЛЬ	-4456
▁точки	-4457
▁принято	-4458
▁Фа	-4459
▁Тридцать	-4460
▁переговоров	-4461
▁Europe	-4462
▁измерения	-4463
▁санк	-4464
▁конфликта	-4465
▁совещаний	-4466
▁администра	-4467
▁секто	-4468
▁Срок	-4469
▁пара	-4470
▁настоящей	-4471
лоба	-4472
▁высокого	-4473
▁возможностей	-4474
▁ЭКОНОМИЧЕСКАЯ	-4475
тни	-4476
▁типа	-4477
▁предлагается	-4478
▁пря	-4479
▁делу	-4480
▁Герце	-4481
спектив	-4482
▁валю	-4483
▁упомяну	-4484
▁ассигнов	-4485
▁выборы	-4486
▁Руководя	-4487
▁гражданского	-4488
помина	-4489
▁праву	-4490
▁заседаниях	-4491
▁тысячелетия	-4492
ющимся	-4493
▁занятости	-4494
▁коммента	-4495
8)	-4496
▁Затем	-4497
мощ	-4498
стая	-4499
▁оборо	-4500
▁подпункта	-4501
▁46	-4502
▁Многие	-4503
▁доно	-4504
▁Human	-4505
▁подпункт	-4506
▁Использов	-4507
▁Вели	-4508
.3.1	-4509
▁защи	-4510
▁Герцегов	-4511
▁механизма	-4512
рунди	-4513
▁показатель	-4514
сить	-4515
▁дети	-4516
▁Делега	-4517
пущ	-4518
▁2.	-4519
нении	-4520
▁Китай	-4521
так	-4522
▁сокращение	-4523
ЛОЖ	-4524
▁концеп	-4525
елей	-4526
▁избра	-4527
▁осво	-4528
чаются	-4529
▁транспорта	-4530
/63/	-4531
▁Пак	-4532
▁опасности	-4533
▁внутренних	-4534
▁ЕВРОПЕЙСКАЯ	-4535
▁Пу	-4536
▁однако	-4537
▁провел	-4538
▁Law	-4539
▁41	-4540
рд	-4541
ern	-4542
▁Кажд	-4543
▁насел	-4544
▁внесенными	-4545
▁мнению	-4546
▁поки	-4547
▁Члены	-4548
▁матери	-4549
▁списке	-4550
▁заключение	-4551
▁распоряжении	-4552
▁Пов	-4553
▁Гру	-4554
стого	-4555
▁пят	-4556
▁важно	-4557
▁выража	-4558
▁пригла	-4559
▁проекты	-4560
▁культуры	-4561
▁показателей	-4562
деся	-4563
нималь	-4564
▁пересчета	-4565
▁Pol	-4566
▁ПЕР	-4567
▁взаим	-4568
ПП	-4569
▁возника	-4570
▁перемещ	-4571
▁составляют	-4572
▁среда	-4573
6).	-4574
▁ги	-4575
▁уязви	-4576
7.	-4577
ag	-4578
land	-4579
▁Поддерж	-4580
▁опасных	-4581
▁Норве	-4582
erman	-4583
▁согласи	-4584
▁Федерация	-4585
▁основании	-4586
▁y	-4587
▁стандартов	-4588
гети	-4589
▁Гра	-4590
▁читать	-4591
дий	-4592
КБ	-4593
тин	-4594
▁трибуна	-4595
▁предусмотр	-4596
▁Am	-4597
▁Сам	-4598
▁Ирланд	-4599
▁религи	-4600
▁проектам	-4601
▁сельских	-4602
▁потребностей	-4603
▁дополнительные	-4604
ven	-4605
зий	-4606
▁кадров	-4607
имых	-4608
ольте	-4609
▁видов	-4610
▁озабоченность	-4611
▁реа	-4612
Четвер	-4613
▁нужда	-4614
▁обрат	-4615
▁экспор	-4616
личие	-4617
грация	-4618
▁странами	-4619
▁разнообраз	-4620
эф	-4621
земп	-4622
▁договоров	-4623
ain	-4624
тивы	-4625
▁Всеоб	-4626
ыми	-4627
емого	-4628
лизация	-4629
▁охраны	-4630
▁Оно	-4631
▁Мероприя	-4632
▁бли	-4633
▁числен	-4634
▁арабских	-4635
гно	-4636
▁теп	-4637
▁сроки	-4638
▁комплекс	-4639
▁класс	-4640
▁Цен	-4641
▁Техни	-4642
ith	-4643
▁70	-4644
▁поб	-4645
▁Устава	-4646
тификация	-4647
▁Экономическая	-4648
▁луч	-4649
эффици	-4650
▁статей	-4651
▁500	-4652
▁имел	-4653
▁председа	-4654
ear	-4655
▁вид	-4656
▁един	-4657
ющую	-4658
▁Неза	-4659
ленная	-4660
▁ядерного	-4661
▁международном	-4662
ties	-4663
менее	-4664
▁уход	-4665
▁Coun	-4666
▁каждой	-4667
▁ограничен	-4668
▁предотвращ	-4669
▁Res	-4670
▁Именно	-4671
гна	-4672
▁1993	-4673
▁учета	-4674
ДА	-4675
▁VII	-4676
▁судей	-4677
▁несколь	-4678
▁потер	-4679
▁чи	-4680
▁твер	-4681
▁уровнях	-4682
ующая	-4683
▁сорок	-4684
%.	-4685
▁полной	-4686
ork	-4687
/62/	-4688
▁альтерна	-4689
11	-4690
ak	-4691
▁рамки	-4692
▁русс	-4693
▁людьми	-4694
▁благодар	-4695
▁практике	-4696
ИК	-4697
tem	-4698
▁желающие	-4699
ргенти	-4700
▁Такое	-4701
▁изданы	-4702
здание	-4703
▁заб	-4704
▁Второй	-4705
▁ведения	-4706
▁Предложение	-4707
▁Международные	-4708
▁причин	-4709
Иву	-4710
▁люб	-4711
▁письмен	-4712
ессион	-4713
▁считает	-4714
дают	-4715
▁огром	-4716
▁Интер	-4717
▁Ответ	-4718
▁Миссия	-4719
▁Совмест	-4720
▁ЕС	-4721
еров	-4722
▁Европейского	-4723
▁Обяза	-4724
▁en	-4725
▁ИН	-4726
▁Эфи	-4727
▁меня	-4728
▁которой	-4729
▁Использование	-4730
-199	-4731
▁63	-4732
▁Ирака	-4733
▁Нидерланд	-4734
▁регулиров	-4735
▁Мероприятия	-4736
▁2002-2003	-4737
▁нарушения	-4738
port	-4739
▁лег	-4740
▁нако	-4741
▁ораторов	-4742
▁подготовка	-4743
▁страх	-4744
▁персонал	-4745
25	-4746
▁Вклю	-4747
▁Укра	-4748
▁неиз	-4749
▁Центр	-4750
▁допуска	-4751
▁Израиля	-4752
кала	-4753
▁содержание	-4754
▁Мекси	-4755
▁министер	-4756
ИИ	-4757
мп	-4758
▁перечис	-4759
▁молодежи	-4760
▁международное	-4761
▁Уни	-4762
▁перечень	-4763
▁приветствует	-4764
03	-4765
▁соблюдения	-4766
▁себе	-4767
▁400	-4768
▁находятся	-4769
▁станов	-4770
зыв	-4771
ждены	-4772
▁рекомендации	-4773
▁выборов	-4774
▁Гви	-4775
▁назначения	-4776
▁задолженности	-4777
▁Слу	-4778
▁бра	-4779
▁is	-4780
▁интерес	-4781
▁заносимое	-4782
▁Контр	-4783
▁районов	-4784
▁Кот	-4785
тически	-4786
▁температу	-4787
ган	-4788
▁обна	-4789
статья	-4790
▁содействия	-4791
▁нельзя	-4792
▁предлагает	-4793
.15	-4794
лиш	-4795
▁кап	-4796
▁разработки	-4797
▁Дар	-4798
▁Услов	-4799
▁Ад	-4800
лагода	-4801
▁специали	-4802
енность	-4803
▁Бразили	-4804
▁Третьего	-4805
▁ввод	-4806
▁исте	-4807
▁главу	-4808
▁мнение	-4809
▁Координа	-4810
sti	-4811
CN	-4812
▁пунктах	-4813
▁утверди	-4814
▁добиться	-4815
▁меньшинств	-4816
ьи	-4817
лон	-4818
▁выводы	-4819
▁конкретные	-4820
▁продолжает	-4821
▁ВОПРОС	-4822
▁Финансовые	-4823
▁неот	-4824
▁обслед	-4825
60	-4826
целя	-4827
▁Dep	-4828
▁иде	-4829
▁поезд	-4830
▁связанных	-4831
aci	-4832
▁pp	-4833
▁данном	-4834
▁внесены	-4835
нительной	-4836
▁Открытие	-4837
▁рын	-4838
ph	-4839
▁соглашение	-4840
▁ЮНИДО	-4841
▁вынес	-4842
▁практика	-4843
7)	-4844
▁1.	-4845
▁Конституции	-4846
▁конференция	-4847
▁экземп	-4848
Четвертый	-4849
уем	-4850
▁бое	-4851
▁повестку	-4852
▁Декларации	-4853
2).	-4854
eb	-4855
чит	-4856
▁Джа	-4857
▁Поступ	-4858
▁Бурунди	-4859
ric	-4860
▁Цель	-4861
живает	-4862
▁недоста	-4863
▁обслуживания	-4864
ech	-4865
▁бере	-4866
▁шестой	-4867
ун	-4868
▁СТА	-4869
хаммед	-4870
стояние	-4871
▁завершить	-4872
▁даже	-4873
▁приход	-4874
▁касающихся	-4875
▁Предлагаемый	-4876
▁Проб	-4877
▁k	-4878
екса	-4879
▁органы	-4880
▁низ	-4881
чений	-4882
▁запрещ	-4883
▁форм	-4884
/9	-4885
рев	-4886
▁оратор	-4887
СТВ	-4888
▁2:	-4889
▁предполага	-4890
▁Дело	-4891
▁пыток	-4892
чением	-4893
▁размере	-4894
▁Ок	-4895
▁Северной	-4896
жды	-4897
▁должностей	-4898
▁Анализ	-4899
▁всеобъемлю	-4900
▁МС	-4901
▁опыт	-4902
▁окончания	-4903
▁Добавление	-4904
ГРА	-4905
рее	-4906
евые	-4907
▁разъяс	-4908
▁Доклады	-4909
▁гуманитарной	-4910
▁Участ	-4911
▁надеемся	-4912
бран	-4913
евых	-4914
▁имеются	-4915
▁состоянии	-4916
раши	-4917
▁операции	-4918
▁сме	-4919
▁завис	-4920
▁2004-2005	-4921
ницу	-4922
▁Национальная	-4923
джи	-4924
бого	-4925
▁инстру	-4926
▁реформы	-4927
▁третьей	-4928
▁2008-2009	-4929
▁десятилет	-4930
RC	-4931
▁именно	-4932
▁подготовке	-4933
брь	-4934
▁Такая	-4935
▁защиту	-4936
▁подверга	-4937
▁постановила	-4938
▁применяется	-4939
▁многие	-4940
витие	-4941
▁применение	-4942
инля	-4943
держи	-4944
▁элементы	-4945
▁Работа	-4946
▁гаранти	-4947
▁сегодняш	-4948
Приглашаются	-4949
▁недав	-4950
▁считаем	-4951
вому	-4952
▁объяв	-4953
▁торговля	-4954
-8	-4955
▁Шве	-4956
▁обви	-4957
▁стрем	-4958
▁правительством	-4959
eva	-4960
▁глубо	-4961
▁Афганистане	-4962
шо	-4963
торую	-4964
▁жертв	-4965
▁проводится	-4966
▁вооруженных	-4967
▁замечаний	-4968
рию	-4969
▁Гаити	-4970
▁настоящем	-4971
ild	-4972
умб	-4973
▁испанском	-4974
РС	-4975
▁Й	-4976
НАЯ	-4977
едо	-4978
суаль	-4979
▁уделя	-4980
▁важным	-4981
▁be	-4982
▁формы	-4983
ance	-4984
вшие	-4985
▁далее	-4986
ass	-4987
▁Кам	-4988
ческую	-4989
▁Помощ	-4990
▁национальной	-4991
▁Сах	-4992
▁Par	-4993
▁оказания	-4994
корен	-4995
▁записке	-4996
▁дополнительных	-4997
.3.2	-4998
▁Кар	-4999
▁вооружен	-5000
▁51	-5001
▁1992	-5002
▁восп	-5003
▁должность	-5004
▁трудности	-5005
▁специальной	-5006
▁находя	-5007
▁социальных	-5008
▁вида	-5009
▁Национальные	-5010
▁увеличи	-5011
▁получения	-5012
▁ратификации	-5013
por	-5014
▁новой	-5015
ЛЕ	-5016
НЯ	-5017
▁МЕ	-5018
▁Repor	-5019
▁скоро	-5020
▁поправками	-5021
▁анализа	-5022
▁Юго	-5023
▁Глав	-5024
формиров	-5025
▁Доступ	-5026
▁отказа	-5027
▁народа	-5028
▁ревизор	-5029
яви	-5030
▁ПРИ	-5031
▁совещании	-5032
▁неофициальных	-5033
ef	-5034
илип	-5035
едение	-5036
▁Число	-5037
▁Обеспе	-5038
▁примерно	-5039
▁экземпля	-5040
мита	-5041
▁жиль	-5042
▁женщинами	-5043
▁Последующие	-5044
gra	-5045
дания	-5046
▁делах	-5047
▁внутреннего	-5048
-10	-5049
раст	-5050
меры	-5051
▁Без	-5052
▁Впоследствии	-5053
вар	-5054
▁едино	-5055
▁влия	-5056
▁моем	-5057
▁решению	-5058
енок	-5059
Приня	-5060
▁пунктом	-5061
▁49	-5062
▁другой	-5063
▁исполнение	-5064
жные	-5065
▁ДОКЛА	-5066
▁среде	-5067
▁Комитетом	-5068
Па	-5069
рю	-5070
▁форме	-5071
▁(21	-5072
▁прений	-5073
3).	-5074
pec	-5075
▁вели	-5076
ist	-5077
▁евро	-5078
жде	-5079
НОГО	-5080
▁пода	-5081
▁методы	-5082
▁поступа	-5083
gan	-5084
▁Сроки	-5085
▁Второго	-5086
▁наименее	-5087
жении	-5088
▁проф	-5089
▁другим	-5090
▁третья	-5091
▁жили	-5092
▁Спис	-5093
▁определение	-5094
ond	-5095
▁Слов	-5096
▁резер	-5097
▁Всемирная	-5098
.4.1	-5099
▁пак	-5100
▁УВКБ	-5101
чем	-5102
▁политика	-5103
▁едини	-5104
▁какие	-5105
▁девочек	-5106
▁учрежденный	-5107
▁транспортного	-5108
▁полицей	-5109
▁четырех	-5110
ress	-5111
пуст	-5112
▁Среда	-5113
▁верну	-5114
▁принципа	-5115
▁Еще	-5116
ческими	-5117
▁Соединенное	-5118
▁представляется	-5119
ow	-5120
▁90	-5121
ались	-5122
▁Канад	-5123
▁принимать	-5124
▁призва	-5125
▁возрасте	-5126
ame	-5127
цент	-5128
▁Процеду	-5129
▁порядка	-5130
инами	-5131
▁транс	-5132
▁выд	-5133
▁роста	-5134
▁демокра	-5135
▁мандата	-5136
▁товаров	-5137
▁имущества	-5138
ib	-5139
инлянд	-5140
▁роли	-5141
▁орган	-5142
▁заключается	-5143
ok	-5144
▁РАЗВИ	-5145
▁Канада	-5146
▁Управления	-5147
▁рис	-5148
▁срав	-5149
▁Разработка	-5150
ОЙ	-5151
▁посе	-5152
рону	-5153
▁Общий	-5154
фу	-5155
▁et	-5156
▁Тер	-5157
▁оцени	-5158
stitu	-5159
▁Справо	-5160
▁посред	-5161
▁передачи	-5162
▁политической	-5163
ES	-5164
▁Dis	-5165
▁жел	-5166
▁Прочие	-5167
▁отмеча	-5168
▁Соглашения	-5169
▁технической	-5170
▁либо	-5171
огра	-5172
шает	-5173
рование	-5174
фикации	-5175
▁апелля	-5176
▁приняли	-5177
▁Economic	-5178
▁гражданской	-5179
мб	-5180
▁Дет	-5181
▁(3	-5182
▁перспектив	-5183
▁компенсации	-5184
▁университет	-5185
▁Ита	-5186
▁нико	-5187
▁исход	-5188
▁Ms	-5189
кает	-5190
▁рост	-5191
возмож	-5192
лай	-5193
несро	-5194
▁норма	-5195
▁освобо	-5196
▁делегаций	-5197
▁процедура	-5198
▁ассоциация	-5199
▁ратифициров	-5200
▁сп	-5201
тические	-5202
▁Перечень	-5203
▁высшем	-5204
▁завершила	-5205
еде	-5206
▁МА	-5207
▁Бан	-5208
▁отража	-5209
▁Четверг	-5210
▁докладчика	-5211
▁Co	-5212
-201	-5213
▁введ	-5214
▁предмет	-5215
▁причинам	-5216
чита	-5217
▁Наи	-5218
▁Фор	-5219
▁ори	-5220
▁предела	-5221
▁Развитие	-5222
тельства	-5223
▁препятств	-5224
▁ревизоров	-5225
▁ава	-5226
▁каких	-5227
▁отчета	-5228
-27	-5229
▁вес	-5230
▁теле	-5231
▁194	-5232
▁тот	-5233
▁тому	-5234
▁организациями	-5235
место	-5236
▁коне	-5237
▁какой	-5238
4).	-5239
▁вперед	-5240
лл	-5241
▁общие	-5242
▁останов	-5243
▁Временный	-5244
▁возник	-5245
мых	-5246
туаль	-5247
▁устойчивому	-5248
кращение	-5249
▁Име	-5250
▁сводного	-5251
▁Генерального	-5252
und	-5253
кто	-5254
слав	-5255
▁тип	-5256
▁Егип	-5257
▁Список	-5258
▁Стороны	-5259
▁энергети	-5260
▁африканских	-5261
жай	-5262
сты	-5263
▁топли	-5264
▁компет	-5265
▁статью	-5266
▁практики	-5267
▁Была	-5268
▁Образ	-5269
▁Зна	-5270
ffair	-5271
▁людских	-5272
▁говорится	-5273
ex	-5274
ТРА	-5275
▁Or	-5276
▁лицо	-5277
▁перевозки	-5278
/12	-5279
uary	-5280
▁конструк	-5281
фик	-5282
вший	-5283
ад	-5284
▁Сан	-5285
▁пятой	-5286
▁законом	-5287
▁предложено	-5288
▁Sub	-5289
▁технологи	-5290
йд	-5291
▁Последствия	-5292
▁раси	-5293
▁сложности	-5294
▁экономики	-5295
▁Комиссией	-5296
ual	-5297
▁Первого	-5298
нская	-5299
▁Государства	-5300
вал	-5301
▁ал	-5302
чена	-5303
▁окончатель	-5304
▁выяв	-5305
▁ссыл	-5306
▁стар	-5307
виду	-5308
▁Пар	-5309
▁корруп	-5310
▁призываем	-5311
амбу	-5312
мена	-5313
▁INF	-5314
▁рассчиты	-5315
▁секретариат	-5316
▁сер	-5317
▁взносы	-5318
.11	-5319
▁СР	-5320
▁Расп	-5321
▁объеме	-5322
▁регули	-5323
▁расовой	-5324
▁следующую	-5325
▁международные	-5326
▁диа	-5327
▁тради	-5328
▁этими	-5329
тьи	-5330
▁очередная	-5331
зах	-5332
▁Закона	-5333
▁мандат	-5334
▁РАЗВИТИ	-5335
сторонние	-5336
▁удовлетвор	-5337
▁национального	-5338
лег	-5339
чия	-5340
▁Ислам	-5341
мые	-5342
вание	-5343
▁любой	-5344
▁Остров	-5345
▁удалось	-5346
▁привержен	-5347
▁рассмотрении	-5348
фикация	-5349
▁Следующий	-5350
▁рекоменда	-5351
▁80	-5352
▁тяж	-5353
▁экономической	-5354
рем	-5355
хра	-5356
ty	-5357
▁Пон	-5358
▁пятая	-5359
▁первый	-5360
▁позднее	-5361
ere	-5362
ГОВ	-5363
лан	-5364
▁СОВ	-5365
▁пит	-5366
руются	-5367
▁Пят	-5368
ительные	-5369
▁Сообщения	-5370
рил	-5371
сил	-5372
▁Дирек	-5373
▁форму	-5374
▁Affair	-5375
▁Франция	-5376
КИЕ	-5377
ФПА	-5378
ction	-5379
ждению	-5380
▁Протокола	-5381
▁независимости	-5382
▁Дополнительные	-5383
▁from	-5384
▁будущих	-5385
▁Создание	-5386
▁дене	-5387
▁международному	-5388
/27	-5389
▁Япония	-5390
▁Либерии	-5391
раиль	-5392
▁собра	-5393
▁проверки	-5394
▁воды	-5395
колько	-5396
▁ответы	-5397
▁месяцев	-5398
▁предпис	-5399
▁отдельных	-5400
1).	-5401
ret	-5402
гал	-5403
нений	-5404
ристи	-5405
▁отчетности	-5406
-19	-5407
ure	-5408
дик	-5409
пуск	-5410
▁этапа	-5411
▁социальное	-5412
вым	-5413
▁руководящих	-5414
▁Предлагаемые	-5415
▁Европейский	-5416
fic	-5417
ьян	-5418
тием	-5419
▁217	-5420
▁опла	-5421
▁принад	-5422
▁Предложения	-5423
▁соображения	-5424
ЕСЯ	-5425
▁каз	-5426
▁Помощь	-5427
▁материалов	-5428
▁океана	-5429
0)	-5430
12	-5431
▁Хо	-5432
▁ТОР	-5433
▁нес	-5434
никами	-5435
▁заявит	-5436
▁СЕС	-5437
▁Иран	-5438
▁преслед	-5439
раба	-5440
▁биологи	-5441
▁приемлем	-5442
▁равенства	-5443
▁Документ	-5444
▁Ри	-5445
ЕСТВ	-5446
▁начина	-5447
▁разработке	-5448
чности	-5449
▁Эфиоп	-5450
зидента	-5451
▁активов	-5452
▁главных	-5453
▁темы	-5454
пусти	-5455
▁Обсу	-5456
▁частью	-5457
▁вся	-5458
▁будем	-5459
▁Ассоциа	-5460
▁органами	-5461
зе	-5462
мыс	-5463
▁начала	-5464
▁программу	-5465
▁op	-5466
част	-5467
ЩЕСТВ	-5468
▁миру	-5469
▁сообщений	-5470
▁Применение	-5471
CONF	-5472
ical	-5473
▁почти	-5474
▁Первая	-5475
▁продолжить	-5476
рять	-5477
▁поро	-5478
▁бан	-5479
хождения	-5480
▁долгосро	-5481
▁проблемам	-5482
▁исполнении	-5483
наб	-5484
жать	-5485
щается	-5486
▁сумма	-5487
чительно	-5488
▁седьмой	-5489
▁четвертой	-5490
▁Ab	-5491
▁терми	-5492
шинство	-5493
▁входят	-5494
▁важность	-5495
▁людскими	-5496
АЯ	-5497
▁Geneva	-5498
▁текстом	-5499
▁членами	-5500
▁рассмотрел	-5501
▁Affairs	-5502
mp	-5503
▁(1998	-5504
▁Вторник	-5505
▁восьмой	-5506
▁Св	-5507
▁момента	-5508
▁мобили	-5509
▁Ass	-5510
лам	-5511
▁97	-5512
орва	-5513
pp	-5514
уэ	-5515
▁VI	-5516
▁Мир	-5517
овала	-5518
▁тамож	-5519
-15	-5520
евой	-5521
▁друг	-5522
▁прибы	-5523
▁Действ	-5524
▁темати	-5525
omen	-5526
▁жало	-5527
▁толков	-5528
отя	-5529
▁Ex	-5530
урна	-5531
ign	-5532
rad	-5533
пров	-5534
▁Дети	-5535
▁развер	-5536
▁секторе	-5537
ates	-5538
едельник	-5539
▁Канцеля	-5540
уме	-5541
▁диалог	-5542
▁сталки	-5543
▁методов	-5544
▁бедствий	-5545
рея	-5546
▁ex	-5547
▁экономических	-5548
▁Треб	-5549
▁ГОД	-5550
страда	-5551
▁крите	-5552
▁отход	-5553
▁Содействие	-5554
под	-5555
▁прив	-5556
▁мирных	-5557
tis	-5558
▁Ind	-5559
▁Метод	-5560
▁докладчик	-5561
▁тес	-5562
▁стали	-5563
▁крайне	-5564
▁воздействие	-5565
РИ	-5566
едераль	-5567
▁Международной	-5568
▁настоятельно	-5569
стер	-5570
▁воздействия	-5571
▁Был	-5572
▁коммер	-5573
▁механизм	-5574
▁оговорки	-5575
май	-5576
▁практику	-5577
▁проводить	-5578
жир	-5579
▁дней	-5580
▁прот	-5581
▁Большинство	-5582
СВ	-5583
▁Понедельник	-5584
▁арбит	-5585
▁класса	-5586
ill	-5587
мотря	-5588
▁начале	-5589
▁государство	-5590
номер	-5591
▁конец	-5592
▁сами	-5593
▁служб	-5594
▁Процесс	-5595
▁никогда	-5596
сдик	-5597
▁РАБО	-5598
)(	-5599
КПЧ	-5600
▁затрону	-5601
▁возобновил	-5602
▁содержатся	-5603
▁Th	-5604
▁сх	-5605
▁че	-5606
ember	-5607
▁нумера	-5608
▁диалога	-5609
▁позволя	-5610
▁подчерки	-5611
▁Исключить	-5612
▁ведомости	-5613
▁инвалидов	-5614
▁вступления	-5615
ces	-5616
▁Ито	-5617
▁неу	-5618
▁важней	-5619
▁важную	-5620
▁теперь	-5621
▁масштабов	-5622
▁процессу	-5623
пасов	-5624
/18	-5625
/26	-5626
▁Какие	-5627
▁детьми	-5628
▁Всемирный	-5629
▁Двор	-5630
▁ними	-5631
▁провин	-5632
▁поводу	-5633
НЫЙ	-5634
▁районе	-5635
▁Ожидается	-5636
-14	-5637
▁доля	-5638
▁израиль	-5639
▁Ag	-5640
▁СЕССИ	-5641
▁Представлено	-5642
единение	-5643
▁Аналоги	-5644
▁религиоз	-5645
vers	-5646
жного	-5647
▁шесть	-5648
▁ТОРГОВ	-5649
поко	-5650
▁Колумб	-5651
ish	-5652
▁этни	-5653
▁Проекты	-5654
ell	-5655
ЕНИИ	-5656
▁бук	-5657
▁Soci	-5658
▁мета	-5659
▁Зелан	-5660
▁разру	-5661
▁просит	-5662
▁Расходы	-5663
▁стражей	-5664
оре	-5665
▁Ирландии	-5666
ank	-5667
▁ге	-5668
▁описание	-5669
▁Заключительные	-5670
ision	-5671
▁with	-5672
ВП	-5673
мимо	-5674
▁технологий	-5675
▁гиб	-5676
▁изменение	-5677
)]	-5678
ory	-5679
▁Эрит	-5680
▁Преду	-5681
▁Вторая	-5682
▁Контроль	-5683
Пункт	-5684
▁норм	-5685
▁подхода	-5686
▁принимаются	-5687
▁ch	-5688
▁нескольких	-5689
XXI	-5690
▁среднесро	-5691
ug	-5692
тика	-5693
▁провела	-5694
▁решении	-5695
▁применяются	-5696
▁привле	-5697
доне	-5698
▁Мож	-5699
▁поня	-5700
▁реша	-5701
▁подня	-5702
▁оккуп	-5703
ТВЕР	-5704
▁статистики	-5705
ot	-5706
НОЙ	-5707
▁объяс	-5708
▁предоставлении	-5709
5).	-5710
вязь	-5711
рокко	-5712
▁сказать	-5713
▁международным	-5714
-12	-5715
▁статус	-5716
▁пунктам	-5717
▁**	-5718
ющими	-5719
лишком	-5720
▁внести	-5721
▁невозмож	-5722
тию	-5723
ректи	-5724
▁Minister	-5725
▁3:	-5726
▁Ви	-5727
▁ДНЯ	-5728
▁оказанию	-5729
▁привести	-5730
▁секретариатом	-5731
▁управля	-5732
▁возраста	-5733
нит	-5734
верс	-5735
▁План	-5736
▁могли	-5737
▁включены	-5738
▁новое	-5739
ционный	-5740
▁действовать	-5741
▁Ar	-5742
имос	-5743
руктура	-5744
▁региональные	-5745
инте	-5746
▁агент	-5747
mission	-5748
▁Пятница	-5749
▁Франции	-5750
▁укрепление	-5751
▁регистрации	-5752
▁национальные	-5753
лектив	-5754
дение	-5755
▁Гражда	-5756
▁будущее	-5757
▁com	-5758
▁1991	-5759
▁Каждый	-5760
▁предприня	-5761
▁сексуаль	-5762
▁)	-5763
ens	-5764
кан	-5765
▁75	-5766
енном	-5767
▁Дворце	-5768
▁сообщение	-5769
▁правительству	-5770
▁нужно	-5771
▁активи	-5772
▁консенсуса	-5773
ah	-5774
/22	-5775
▁Буду	-5776
▁покры	-5777
▁сокращения	-5778
▁Подкомиссия	-5779
▁6.2	-5780
▁сигна	-5781
▁финансовой	-5782
▁внед	-5783
▁рода	-5784
▁выполнение	-5785
▁ближай	-5786
▁большое	-5787
▁ограничения	-5788
PR	-5789
▁жен	-5790
vention	-5791
▁доказа	-5792
▁or	-5793
▁хотели	-5794
▁вооружений	-5795
▁подготовлен	-5796
анд	-5797
▁(19	-5798
▁раст	-5799
▁Пятый	-5800
▁выполнению	-5801
▁кратко	-5802
▁минималь	-5803
▁достижение	-5804
▁Стату	-5805
▁ответа	-5806
ons	-5807
ЕДА	-5808
▁СОВЕТ	-5809
▁Фонда	-5810
▁Обеспечение	-5811
▁эксплуатации	-5812
▁пострада	-5813
▁первого	-5814
▁разбивке	-5815
▁мониторинга	-5816
/54	-5817
▁Филип	-5818
сессион	-5819
олез	-5820
стей	-5821
анной	-5822
льных	-5823
▁Позв	-5824
▁охвата	-5825
▁девятой	-5826
▁вызывает	-5827
▁учитывать	-5828
▁международная	-5829
cc	-5830
тельств	-5831
▁просто	-5832
▁Устойчи	-5833
▁девятая	-5834
жес	-5835
▁смо	-5836
▁двига	-5837
▁земель	-5838
▁дискуссии	-5839
▁требований	-5840
▁поверх	-5841
▁соли	-5842
▁Аргенти	-5843
ненно	-5844
▁Ирак	-5845
▁достаточ	-5846
▁охватывает	-5847
9).	-5848
вига	-5849
зиат	-5850
▁тюрь	-5851
▁[2	-5852
ys	-5853
▁300	-5854
▁Деся	-5855
▁Киот	-5856
▁воздуха	-5857
▁рассматривать	-5858
▁Тиморе	-5859
▁понима	-5860
▁специальных	-5861
▁приветствуем	-5862
▁распределения	-5863
ОБ	-5864
▁Долж	-5865
▁объедин	-5866
▁x	-5867
▁was	-5868
▁пенси	-5869
▁прода	-5870
▁важных	-5871
▁Cent	-5872
ТВЕРЖД	-5873
▁основы	-5874
куро	-5875
елару	-5876
▁которую	-5877
▁русском	-5878
▁наказания	-5879
▁рекомендация	-5880
шается	-5881
▁оправ	-5882
▁общественной	-5883
ma	-5884
▁Южной	-5885
▁Целевой	-5886
▁Позвольте	-5887
▁существуют	-5888
▁уточ	-5889
тивная	-5890
▁Замест	-5891
▁двухгодичного	-5892
oh	-5893
▁4,	-5894
▁Правил	-5895
AN	-5896
▁мол	-5897
▁Подроб	-5898
▁принятое	-5899
шении	-5900
▁пересмот	-5901
▁мог	-5902
▁(212)	-5903
▁обучения	-5904
▁проблемой	-5905
▁Commission	-5906
▁отсутствие	-5907
▁отделения	-5908
хват	-5909
▁Такой	-5910
рим	-5911
▁позиции	-5912
▁английский	-5913
▁отношениях	-5914
▁Мьян	-5915
▁речь	-5916
▁Кувей	-5917
▁завершения	-5918
ther	-5919
▁Положения	-5920
▁превышать	-5921
WP	-5922
РОД	-5923
▁полное	-5924
▁УТВЕРЖД	-5925
▁руководство	-5926
14	-5927
цеп	-5928
▁местных	-5929
fer	-5930
СТЬ	-5931
▁расширение	-5932
0.	-5933
▁распростран	-5934
▁Поль	-5935
работи	-5936
▁ЮНФПА	-5937
▁Боснии	-5938
▁которым	-5939
▁Свод	-5940
▁Российской	-5941
ine	-5942
▁наслед	-5943
▁океан	-5944
▁проводятся	-5945
▁Европейская	-5946
РОВ	-5947
▁понед	-5948
▁оружие	-5949
▁Участники	-5950
-26	-5951
▁выполня	-5952
▁свободу	-5953
▁оказывать	-5954
▁средствами	-5955
▁экземпляров	-5956
▁кни	-5957
▁особое	-5958
▁путь	-5959
ального	-5960
▁Индоне	-5961
▁Специальные	-5962
дан	-5963
нах	-5964
▁концу	-5965
значение	-5966
▁сохраня	-5967
ID	-5968
стр	-5969
ровки	-5970
▁глоба	-5971
еренный	-5972
ЫЕ	-5973
шихся	-5974
▁непри	-5975
▁достигнут	-5976
▁элементов	-5977
▁Ad	-5978
▁963	-5979
ствие	-5980
ляются	-5981
▁ранее	-5982
▁рабочая	-5983
▁зависимо	-5984
▁Rev	-5985
▁Пакта	-5986
▁коэффици	-5987
▁Федерации	-5988
▁финансового	-5989
io	-5990
лод	-5991
нике	-5992
▁света	-5993
▁относя	-5994
▁нумерацию	-5995
▁назначение	-5996
зору	-5997
37	-5998
▁упро	-5999
▁повед	-6000
▁КС	-6001
▁сом	-6002
▁круг	-6003
▁излага	-6004
▁хозяйства	-6005
фон	-6006
▁Дарфу	-6007
▁Грузии	-6008
▁специалистов	-6009
▁люди	-6010
ографи	-6011
▁Заявления	-6012
.12	-6013
▁взя	-6014
▁взгля	-6015
▁хорошо	-6016
▁ПРАВА	-6017
▁убежи	-6018
▁шестая	-6019
▁современ	-6020
▁Бель	-6021
▁National	-6022
▁основной	-6023
▁значения	-6024
▁контак	-6025
▁главным	-6026
▁развитых	-6027
▁представлено	-6028
ton	-6029
▁(4	-6030
▁ДОП	-6031
▁проводиться	-6032
ТКИ	-6033
пен	-6034
▁Най	-6035
▁пользу	-6036
▁событий	-6037
▁Германия	-6038
duc	-6039
гом	-6040
еме	-6041
▁Лу	-6042
▁шаги	-6043
▁напря	-6044
▁используется	-6045
alth	-6046
▁сно	-6047
крати	-6048
▁Швейцария	-6049
гами	-6050
▁Предупре	-6051
▁сих	-6052
▁Новая	-6053
▁тормо	-6054
▁Предупреждение	-6055
▁воздуш	-6056
▁размер	-6057
▁документации	-6058
шую	-6059
▁ИС	-6060
▁семье	-6061
▁проведены	-6062
▁Ее	-6063
▁дове	-6064
▁жесто	-6065
екларация	-6066
▁Официаль	-6067
▁развитии	-6068
▁Поддержка	-6069
▁Канады	-6070
▁данным	-6071
▁преамбу	-6072
▁ВОЗ	-6073
▁автора	-6074
▁демократии	-6075
▁инвестиций	-6076
семь	-6077
▁держ	-6078
▁общий	-6079
▁(1999)	-6080
▁обязанности	-6081
Ри	-6082
▁72	-6083
ЕНЦИИ	-6084
▁обвин	-6085
ступает	-6086
▁Торгов	-6087
▁Верховный	-6088
▁последнее	-6089
▁первоначаль	-6090
▁Ликви	-6091
▁сноску	-6092
rim	-6093
воль	-6094
▁юрисдик	-6095
▁судебных	-6096
▁официальных	-6097
▁Объединенная	-6098
жива	-6099
▁договора	-6100
▁Авст	-6101
▁избе	-6102
▁примеры	-6103
▁участники	-6104
цам	-6105
▁UNCC	-6106
▁боепри	-6107
▁поправка	-6108
лах	-6109
▁общин	-6110
▁космического	-6111
▁сотрудничестве	-6112
pr	-6113
вайте	-6114
▁благодарю	-6115
▁социальные	-6116
нием	-6117
▁name	-6118
▁Европе	-6119
▁обоснов	-6120
▁заносимого	-6121
02	-6122
▁сети	-6123
▁решить	-6124
▁зависит	-6125
итая	-6126
▁Поступила	-6127
▁предстоящие	-6128
емое	-6129
▁3.1	-6130
▁вести	-6131
▁оценку	-6132
Юг	-6133
иму	-6134
ition	-6135
▁Ираке	-6136
▁Форума	-6137
▁нашего	-6138
▁колонке	-6139
18	-6140
▁5,	-6141
ился	-6142
-2001	-6143
))	-6144
▁своим	-6145
▁слишком	-6146
tee	-6147
▁упомина	-6148
▁Всемирного	-6149
ТЬ	-6150
зад	-6151
щит	-6152
черед	-6153
▁декларации	-6154
пло	-6155
висимы	-6156
▁обнару	-6157
▁отметил	-6158
-24	-6159
▁Op	-6160
▁неф	-6161
▁науки	-6162
решение	-6163
▁партнерства	-6164
▁человечества	-6165
▁КА	-6166
▁составе	-6167
▁истекает	-6168
▁существу	-6169
▁постановил	-6170
▁солидар	-6171
▁четверг	-6172
▁получили	-6173
▁сообществ	-6174
age	-6175
▁65	-6176
▁жа	-6177
▁очевид	-6178
▁понедельник	-6179
/2,	-6180
Соедин	-6181
▁систему	-6182
▁следующими	-6183
▁цена	-6184
УЩЕСТВ	-6185
▁Японии	-6186
▁вместе	-6187
▁оказание	-6188
/2003	-6189
▁Руан	-6190
▁школы	-6191
мещение	-6192
▁Ниге	-6193
▁спрос	-6194
▁благода	-6195
▁судебной	-6196
▁бюро	-6197
▁институ	-6198
тации	-6199
▁делать	-6200
▁вариант	-6201
▁постоянно	-6202
МО	-6203
чную	-6204
▁Также	-6205
▁Ликвидация	-6206
▁политике	-6207
▁пояснительной	-6208
уя	-6209
▁ВЫ	-6210
▁поги	-6211
▁оккупиров	-6212
▁определяется	-6213
пора	-6214
▁Dire	-6215
▁ПРАВИ	-6216
▁измени	-6217
▁население	-6218
▁секретаря	-6219
комит	-6220
▁Вступ	-6221
▁сотрудничеству	-6222
▁инци	-6223
▁нормы	-6224
▁ограничи	-6225
▁Commit	-6226
▁страной	-6227
▁основном	-6228
▁проведению	-6229
13	-6230
▁бло	-6231
овало	-6232
культа	-6233
▁Форум	-6234
▁Финлянд	-6235
▁Консульта	-6236
▁Образование	-6237
19	-6238
▁vi	-6239
▁СПИД	-6240
▁наме	-6241
▁четко	-6242
▁техническим	-6243
CP	-6244
▁выбо	-6245
▁работать	-6246
▁Конвенцию	-6247
▁Поверенный	-6248
CR	-6249
ину	-6250
olog	-6251
стью	-6252
▁Особ	-6253
▁Манда	-6254
▁УВКПЧ	-6255
▁массовой	-6256
▁посет	-6257
▁партии	-6258
▁брифинг	-6259
▁технических	-6260
степ	-6261
▁1.1	-6262
▁груз	-6263
▁полага	-6264
▁Восточной	-6265
атай	-6266
ается	-6267
▁имму	-6268
▁3.	-6269
▁Секция	-6270
▁палестин	-6271
▁El	-6272
ждений	-6273
вижения	-6274
▁тридцать	-6275
▁документация	-6276
▁6,	-6277
▁Общее	-6278
▁обстанов	-6279
AT	-6280
▁Соб	-6281
▁СЕССИИ	-6282
▁обычно	-6283
ТИВ	-6284
овор	-6285
▁автомо	-6286
хе	-6287
▁2200	-6288
▁насилие	-6289
▁функций	-6290
▁соглашений	-6291
кор	-6292
▁ag	-6293
▁ГРУ	-6294
▁прошлом	-6295
▁коллектив	-6296
▁средствам	-6297
▁здоровье	-6298
новения	-6299
▁обвиня	-6300
No	-6301
▁динами	-6302
▁указано	-6303
▁Трибунала	-6304
▁безработи	-6305
▁Ратификация	-6306
▁такая	-6307
▁механизмов	-6308
лой	-6309
▁утверждена	-6310
нн	-6311
▁Арабская	-6312
▁Committee	-6313
▁свидетель	-6314
44	-6315
▁Один	-6316
луб	-6317
-30	-6318
шить	-6319
▁многое	-6320
▁второго	-6321
▁Коли	-6322
▁пору	-6323
▁Китая	-6324
▁месте	-6325
▁Торговля	-6326
▁государствами	-6327
▁Би	-6328
▁Юг	-6329
▁...	-6330
инаков	-6331
/17	-6332
коб	-6333
риях	-6334
▁Claim	-6335
▁Organ	-6336
▁Состав	-6337
ительства	-6338
▁рождения	-6339
▁содействовать	-6340
▁ЗАС	-6341
▁ЮНЕП	-6342
▁форума	-6343
новремен	-6344
▁существую	-6345
Part	-6346
▁нало	-6347
▁создать	-6348
▁улучшения	-6349
▁Региональные	-6350
▁оборудование	-6351
▁Экономические	-6352
ябрь	-6353
▁замен	-6354
▁рекоменду	-6355
▁попы	-6356
▁назад	-6357
▁Содерж	-6358
▁осуществлять	-6359
▁представление	-6360
пру	-6361
ющийся	-6362
▁ряда	-6363
▁Апелля	-6364
полнения	-6365
▁укрепления	-6366
силие	-6367
▁возраст	-6368
▁вопросах	-6369
▁проблему	-6370
▁Всемирной	-6371
▁разработка	-6372
▁WP	-6373
бург	-6374
руют	-6375
▁стоя	-6376
▁показателя	-6377
▁используются	-6378
ГИ	-6379
ницы	-6380
▁Тип	-6381
нские	-6382
стоин	-6383
▁обес	-6384
стовер	-6385
▁ЗАСЕД	-6386
▁Secret	-6387
▁крайней	-6388
▁категорий	-6389
▁смертности	-6390
form	-6391
ядок	-6392
▁поправкам	-6393
▁недостаточно	-6394
лек	-6395
eric	-6396
▁суммы	-6397
▁оборот	-6398
▁РАЗВИТИЮ	-6399
▁компании	-6400
▁общество	-6401
so	-6402
▁реаги	-6403
▁контин	-6404
▁отходов	-6405
▁просьбы	-6406
▁Специальная	-6407
bal	-6408
▁Гон	-6409
предь	-6410
ватема	-6411
▁Белару	-6412
▁64	-6413
▁Код	-6414
▁счета	-6415
▁заболев	-6416
▁преступлений	-6417
СА	-6418
▁ат	-6419
▁таблица	-6420
▁обращения	-6421
ними	-6422
овании	-6423
▁любые	-6424
▁(198	-6425
пустить	-6426
ритании	-6427
▁запрос	-6428
▁располож	-6429
▁включения	-6430
▁поблагода	-6431
▁планирования	-6432
.29	-6433
МЕН	-6434
ружа	-6435
artment	-6436
▁структуры	-6437
▁экономическая	-6438
ДР	-6439
жден	-6440
▁res	-6441
▁Ора	-6442
▁плате	-6443
▁впредь	-6444
▁Министр	-6445
▁ки	-6446
▁Конк	-6447
▁нами	-6448
▁риска	-6449
▁централь	-6450
▁шестидеся	-6451
ord	-6452
▁Механиз	-6453
▁Convention	-6454
▁ассигнований	-6455
дап	-6456
скую	-6457
▁решительно	-6458
деш	-6459
▁Уз	-6460
▁кру	-6461
▁загрязни	-6462
▁претензий	-6463
ED	-6464
ina	-6465
гах	-6466
▁XX	-6467
▁выгод	-6468
▁Только	-6469
▁Третий	-6470
▁СОЦИАЛЬ	-6471
▁проведено	-6472
ГАТ	-6473
▁отда	-6474
▁лицам	-6475
▁Неофициаль	-6476
▁are	-6477
исание	-6478
▁извле	-6479
▁протяжении	-6480
▁заместитель	-6481
▁значительно	-6482
▁прос	-6483
▁Perman	-6484
▁Уголов	-6485
▁Пакистан	-6486
▁Устойчивое	-6487
-13	-6488
голь	-6489
▁вторник	-6490
▁надзора	-6491
сия	-6492
▁НРС	-6493
▁Расши	-6494
▁заявил	-6495
▁сноска	-6496
▁инфраст	-6497
▁успехов	-6498
▁European	-6499
vi	-6500
-11	-6501
сист	-6502
▁Цели	-6503
▁Отделение	-6504
▁инструмен	-6505
▁основное	-6506
зерба	-6507
▁порядок	-6508
▁пятницу	-6509
▁большинство	-6510
МЕ	-6511
илось	-6512
▁приш	-6513
▁жилищ	-6514
▁достичь	-6515
▁Department	-6516
илась	-6517
▁котором	-6518
ГАТЭ	-6519
▁ущерб	-6520
▁трансграни	-6521
▁тел	-6522
жеслед	-6523
▁двадцать	-6524
▁правосудие	-6525
▁планируется	-6526
▁приемлемости	-6527
ЕСКО	-6528
ентом	-6529
▁миграции	-6530
▁отмечает	-6531
▁публикации	-6532
▁55/2	-6533
ющаяся	-6534
▁играть	-6535
▁достоин	-6536
▁учебных	-6537
▁известно	-6538
▁координация	-6539
тым	-6540
емым	-6541
▁руководящие	-6542
▁Ны	-6543
▁убий	-6544
▁пребы	-6545
▁расизма	-6546
▁Claimant	-6547
▁достижению	-6548
▁морское	-6549
▁испытаний	-6550
▁поддерживать	-6551
▁68	-6552
-2011	-6553
▁адрес	-6554
▁электронной	-6555
▁неболь	-6556
▁справо	-6557
▁проекте	-6558
▁сотрудники	-6559
▁статистике	-6560
▁устойчивое	-6561
худ	-6562
▁05	-6563
▁газов	-6564
▁Предполага	-6565
▁присоединились	-6566
AC	-6567
▁предъ	-6568
▁единогла	-6569
▁обеспоко	-6570
▁комитетов	-6571
▁тенденции	-6572
▁специальные	-6573
▁an	-6574
НОСТИ	-6575
▁ряде	-6576
▁ОСУЩЕСТВ	-6577
▁укреплению	-6578
▁наркотиками	-6579
▁официального	-6580
-17	-6581
▁новую	-6582
▁посол	-6583
▁Reports	-6584
▁Стандар	-6585
▁подготовку	-6586
rans	-6587
▁повышения	-6588
▁Соглашение	-6589
▁управляющих	-6590
ЖДУ	-6591
ЭСР	-6592
▁Ги	-6593
▁представил	-6594
▁выступления	-6595
▁наблюдатель	-6596
▁исключительно	-6597
ху	-6598
all	-6599
гладеш	-6600
▁Вывод	-6601
▁расчет	-6602
▁название	-6603
▁наблюдению	-6604
▁рамо	-6605
живают	-6606
▁проявля	-6607
▁остаются	-6608
▁участвовать	-6609
SE	-6610
▁мнениями	-6611
▁Dec	-6612
▁Моя	-6613
▁текущих	-6614
▁Интернет	-6615
▁хотела	-6616
▁глобального	-6617
лков	-6618
пункты	-6619
живание	-6620
▁выполнять	-6621
▁последних	-6622
▁предприятия	-6623
▁представила	-6624
▁общественности	-6625
гер	-6626
.4.2	-6627
рила	-6628
первых	-6629
ЕРЖ	-6630
жед	-6631
▁Важ	-6632
▁пото	-6633
▁Гвине	-6634
▁МЕЖДУ	-6635
▁позицию	-6636
▁состояния	-6637
/13	-6638
иса	-6639
▁пользова	-6640
▁зависимости	-6641
ect	-6642
▁6.1	-6643
▁опти	-6644
надцатой	-6645
▁отвечает	-6646
одол	-6647
▁МОТ	-6648
▁Осо	-6649
жеднев	-6650
▁поведения	-6651
▁поступления	-6652
АО	-6653
▁Юри	-6654
▁Нынеш	-6655
▁откло	-6656
▁ПРАВАМ	-6657
▁модели	-6658
▁ознаком	-6659
▁отношение	-6660
ич	-6661
▁ИСП	-6662
▁финансов	-6663
▁интеграции	-6664
ous	-6665
реаль	-6666
▁атом	-6667
▁инди	-6668
▁помещ	-6669
▁States	-6670
▁67	-6671
жены	-6672
▁Сил	-6673
▁Завер	-6674
▁Ежегод	-6675
▁конкур	-6676
▁серьезные	-6677
▁установлен	-6678
▁Ах	-6679
АЮЩИ	-6680
▁сня	-6681
▁теме	-6682
▁народам	-6683
▁получил	-6684
▁ОСУЩЕСТВЛ	-6685
▁президента	-6686
рабаты	-6687
▁колони	-6688
▁Детский	-6689
▁Шестого	-6690
▁министерства	-6691
кси	-6692
▁Ряд	-6693
▁неод	-6694
▁всеми	-6695
ительное	-6696
▁предприятий	-6697
IV	-6698
зей	-6699
▁ДЛЯ	-6700
вадор	-6701
▁Новые	-6702
▁интер	-6703
▁сессию	-6704
▁содержит	-6705
0).	-6706
▁там	-6707
ваемых	-6708
▁ОРГАНИ	-6709
▁неотъем	-6710
▁террори	-6711
▁адвокатом	-6712
▁КАС	-6713
▁сессий	-6714
▁Насилие	-6715
нирование	-6716
сторонних	-6717
▁действительно	-6718
**	-6719
▁ДЕ	-6720
▁Мандат	-6721
▁основным	-6722
тя	-6723
▁отли	-6724
▁тяжел	-6725
▁ходатай	-6726
▁формиров	-6727
▁отношений	-6728
▁факт	-6729
▁Германии	-6730
▁Коммента	-6731
-18	-6732
рией	-6733
▁Бар	-6734
▁принятой	-6735
▁политические	-6736
лами	-6737
▁Comp	-6738
▁техники	-6739
▁периодические	-6740
▁облег	-6741
▁пропа	-6742
▁Президент	-6743
аки	-6744
сайте	-6745
▁Доля	-6746
ологии	-6747
▁Судеб	-6748
кратить	-6749
▁расследования	-6750
УД	-6751
▁ими	-6752
варти	-6753
▁Bank	-6754
▁Инст	-6755
▁поним	-6756
▁серии	-6757
▁законов	-6758
7).	-6759
никам	-6760
▁исчер	-6761
▁принятых	-6762
▁праве	-6763
▁смета	-6764
▁количе	-6765
тивное	-6766
▁(1998),	-6767
▁словами	-6768
▁экономическим	-6769
ешти	-6770
купо	-6771
▁государствам	-6772
▁Эксп	-6773
▁резюме	-6774
▁приговор	-6775
▁необходимые	-6776
ации	-6777
▁поис	-6778
ротвор	-6779
ружающая	-6780
▁приходится	-6781
▁дальнейшего	-6782
нюю	-6783
енции	-6784
▁Прак	-6785
▁Новой	-6786
▁ДОКЛАД	-6787
ash	-6788
▁Измен	-6789
▁раздела	-6790
▁Состояние	-6791
нку	-6792
gram	-6793
ГРАМ	-6794
роят	-6795
мар	-6796
▁Инте	-6797
▁Марокко	-6798
▁Количество	-6799
▁переговоры	-6800
УЛЬ	-6801
lobal	-6802
▁жалоб	-6803
▁основная	-6804
На	-6805
▁66	-6806
▁види	-6807
▁преамбулы	-6808
▁добавление	-6809
EN	-6810
ctor	-6811
▁Корея	-6812
▁угрозу	-6813
▁элемента	-6814
▁неофициальные	-6815
DP	-6816
тной	-6817
▁первом	-6818
Лешти	-6819
▁двумя	-6820
▁европей	-6821
▁Российская	-6822
Add	-6823
бил	-6824
▁Перу	-6825
▁планы	-6826
▁знания	-6827
▁4.	-6828
ПРАВ	-6829
били	-6830
▁радио	-6831
▁такую	-6832
▁Оратор	-6833
▁нагруз	-6834
▁заявлений	-6835
▁настоящих	-6836
▁статистика	-6837
▁наблюдателя	-6838
▁последующих	-6839
▁стабильности	-6840
▁ВТО	-6841
▁Служ	-6842
▁закреп	-6843
▁споров	-6844
▁Великоб	-6845
▁пособия	-6846
туры	-6847
▁2.3	-6848
▁нему	-6849
вижение	-6850
▁внешней	-6851
▁статуса	-6852
▁Например	-6853
▁единогласно	-6854
▁des	-6855
▁Обо	-6856
▁Institu	-6857
▁приобрет	-6858
▁заключитель	-6859
▁бу	-6860
▁общая	-6861
▁Univers	-6862
▁руководства	-6863
хий	-6864
▁Уров	-6865
▁семья	-6866
-22	-6867
▁Зд	-6868
▁Эль	-6869
▁Комитете	-6870
▁Секретарь	-6871
▁приглашению	-6872
▁1)	-6873
▁стал	-6874
▁стала	-6875
▁институт	-6876
▁практически	-6877
▁СОД	-6878
▁живу	-6879
постав	-6880
▁взаимос	-6881
▁Стратеги	-6882
▁международными	-6883
-21	-6884
▁стало	-6885
▁Сахаре	-6886
▁каждый	-6887
▁рассмотрела	-6888
▁Великобритании	-6889
▁6.	-6890
▁дл	-6891
▁Office	-6892
▁Мухаммед	-6893
▁конвенций	-6894
▁полученных	-6895
▁Баз	-6896
закры	-6897
альным	-6898
▁контролю	-6899
АП	-6900
ИЯ	-6901
ust	-6902
КИХ	-6903
▁нее	-6904
щу	-6905
▁Отчет	-6906
▁Среди	-6907
▁открытого	-6908
▁сотрудник	-6909
▁Республике	-6910
▁пространства	-6911
▁Указа	-6912
▁МАГАТЭ	-6913
▁поэтому	-6914
▁устными	-6915
▁сохранить	-6916
▁Кри	-6917
НАРОД	-6918
▁заявля	-6919
▁очередь	-6920
▁перевозок	-6921
▁стандарты	-6922
06	-6923
зам	-6924
▁Man	-6925
▁огово	-6926
▁сообща	-6927
▁ОРГАНИЗА	-6928
▁исключением	-6929
▁Col	-6930
▁атомной	-6931
▁которого	-6932
/28	-6933
▁друга	-6934
▁района	-6935
▁искорен	-6936
▁Делегация	-6937
▁заключенных	-6938
▁Un	-6939
▁Уч	-6940
able	-6941
инга	-6942
тура	-6943
защит	-6944
▁Дости	-6945
▁особо	-6946
▁субси	-6947
▁Назначение	-6948
cip	-6949
мон	-6950
СЕДА	-6951
▁осве	-6952
▁оборудования	-6953
ФОР	-6954
сою	-6955
▁Мав	-6956
▁Чили	-6957
▁камп	-6958
▁ПОЛОЖ	-6959
▁действие	-6960
▁Обсуждение	-6961
▁официальные	-6962
кар	-6963
лер	-6964
пут	-6965
▁чер	-6966
▁говор	-6967
ституции	-6968
▁факторов	-6969
▁располага	-6970
▁представлять	-6971
хва	-6972
▁Цент	-6973
▁сбора	-6974
▁ПРЕДСЕДА	-6975
▁Замечания	-6976
▁оставаться	-6977
▁Руководство	-6978
SP	-6979
-16	-6980
тное	-6981
▁дея	-6982
▁Women	-6983
ice	-6984
ren	-6985
териа	-6986
▁наша	-6987
▁служба	-6988
▁Конкрет	-6989
▁любых	-6990
▁закупо	-6991
▁прибли	-6992
▁доноров	-6993
▁вопросами	-6994
▁СВ	-6995
▁базы	-6996
▁Индия	-6997
ination	-6998
▁получение	-6999
▁инициатива	-7000
ерп	-7001
▁Дис	-7002
▁НАЦИ	-7003
▁оружием	-7004
▁МЕЖДУНАРОД	-7005
роби	-7006
▁4.1	-7007
▁КОНВ	-7008
▁пасса	-7009
▁режима	-7010
едерация	-7011
▁Эффектив	-7012
▁универс	-7013
▁учащихся	-7014
▁предупреждению	-7015
мотреть	-7016
▁ПРОГРАМ	-7017
▁достаточно	-7018
▁Университет	-7019
▁Го	-7020
▁Нау	-7021
ившие	-7022
▁номер	-7023
▁самое	-7024
▁просьбу	-7025
ФИ	-7026
▁Нас	-7027
летний	-7028
нутрен	-7029
▁Индии	-7030
▁подробно	-7031
▁последую	-7032
▁7,	-7033
▁Вз	-7034
▁абс	-7035
▁повто	-7036
▁причины	-7037
▁конференций	-7038
юл	-7039
-28	-7040
бан	-7041
▁78	-7042
ments	-7043
▁дать	-7044
▁планов	-7045
СЛ	-7046
▁кг	-7047
ural	-7048
▁Наша	-7049
▁обоих	-7050
▁проблеме	-7051
48	-7052
гина	-7053
туга	-7054
▁веду	-7055
▁нижеслед	-7056
Ма	-7057
▁сбор	-7058
........	-7059
ционного	-7060
▁неофициальный	-7061
▁промышленному	-7062
▁собственности	-7063
/15	-7064
▁ОЭСР	-7065
▁актуаль	-7066
▁указать	-7067
▁разбивкой	-7068
говора	-7069
▁Вклад	-7070
▁прису	-7071
▁группу	-7072
▁Операции	-7073
▁сторонами	-7074
▁Ассоциация	-7075
▁Канцелярия	-7076
▁наркотиков	-7077
▁социальная	-7078
пр	-7079
▁le	-7080
▁газ	-7081
▁рыб	-7082
нский	-7083
▁нетерп	-7084
▁вступил	-7085
▁Монреаль	-7086
▁2)	-7087
ковы	-7088
▁миссия	-7089
▁санкций	-7090
▁продолжается	-7091
▁технического	-7092
дача	-7093
▁бро	-7094
▁доби	-7095
▁имми	-7096
▁выражает	-7097
▁Сокращение	-7098
НОМ	-7099
▁Тих	-7100
▁Узбе	-7101
▁пожи	-7102
▁насчиты	-7103
▁повышение	-7104
▁98	-7105
▁Чер	-7106
юллет	-7107
▁Обви	-7108
▁ревизии	-7109
▁мигрантов	-7110
▁ID	-7111
▁Вас	-7112
▁любого	-7113
▁вещества	-7114
▁надеется	-7115
▁поступлений	-7116
▁печа	-7117
▁использоваться	-7118
41	-7119
ван	-7120
▁руки	-7121
▁наблюдателей	-7122
▁эффективность	-7123
▁As	-7124
▁переч	-7125
▁следующая	-7126
▁заключения	-7127
▁поддерживаем	-7128
▁происхождения	-7129
ус	-7130
▁акты	-7131
▁Выступ	-7132
▁предел	-7133
▁стрелков	-7134
▁Вам	-7135
ЕННЫХ	-7136
Ивуаре	-7137
▁Азерба	-7138
▁успеха	-7139
▁Permanent	-7140
▁УТВЕРЖДЕНИЕ	-7141
мос	-7142
▁Ду	-7143
▁факторы	-7144
▁ядерных	-7145
УР	-7146
шу	-7147
ленно	-7148
Генераль	-7149
▁Австралия	-7150
▁указанных	-7151
мю	-7152
▁85	-7153
тека	-7154
правка	-7155
▁оговорок	-7156
▁обсуждений	-7157
▁социальным	-7158
НОВ	-7159
нков	-7160
▁Отдела	-7161
▁различия	-7162
▁ирак	-7163
tistic	-7164
нуд	-7165
▁4:	-7166
▁огня	-7167
▁Хорва	-7168
▁защищ	-7169
▁накоп	-7170
▁Порядок	-7171
нил	-7172
▁пала	-7173
▁смож	-7174
▁выраз	-7175
▁ценах	-7176
▁призыв	-7177
верситета	-7178
▁проведен	-7179
▁улучшение	-7180
ution	-7181
▁равно	-7182
▁Предотвращ	-7183
▁сумму	-7184
▁обзору	-7185
▁осужда	-7186
▁ежегодно	-7187
▁Предстоящие	-7188
▁Судане	-7189
▁Условия	-7190
▁кодекса	-7191
▁финанси	-7192
▁оз	-7193
/2002	-7194
▁домаш	-7195
▁затем	-7196
▁покол	-7197
▁играет	-7198
▁называ	-7199
▁подтверждает	-7200
▁имя	-7201
▁Высо	-7202
▁изготов	-7203
▁Предотвращение	-7204
▁Бо	-7205
зиди	-7206
рост	-7207
жалов	-7208
▁одну	-7209
▁Миров	-7210
▁болез	-7211
работки	-7212
▁задачей	-7213
▁частного	-7214
▁компетент	-7215
▁уголовное	-7216
▁работников	-7217
▁Центральной	-7218
eign	-7219
▁ЮНЕСКО	-7220
▁региональном	-7221
ТРАЛ	-7222
СИТРАЛ	-7223
▁Данный	-7224
▁утверждает	-7225
ось	-7226
▁also	-7227
▁Паки	-7228
▁Договор	-7229
▁имеющих	-7230
▁никакого	-7231
▁Постоянного	-7232
альных	-7233
▁отвер	-7234
▁Реформа	-7235
▁Институт	-7236
▁культурных	-7237
каж	-7238
▁чу	-7239
гать	-7240
▁никакой	-7241
▁подтверди	-7242
Генеральная	-7243
/16	-7244
▁123	-7245
▁СОВЕ	-7246
▁Казах	-7247
▁капита	-7248
▁охране	-7249
▁прежде	-7250
▁страну	-7251
▁Безопас	-7252
▁ожидается	-7253
▁глобальных	-7254
▁определить	-7255
▁периодический	-7256
тный	-7257
▁5.1	-7258
/2004	-7259
мюнике	-7260
▁Южная	-7261
▁нищет	-7262
▁Вместо	-7263
▁использовании	-7264
▁угроз	-7265
тно	-7266
▁Абу	-7267
▁Гватема	-7268
▁Евроста	-7269
▁ЮНСИТРАЛ	-7270
НС	-7271
toc	-7272
лые	-7273
жний	-7274
покой	-7275
▁Выводы	-7276
▁мужчины	-7277
▁полномочия	-7278
16	-7279
▁автор	-7280
▁полном	-7281
▁комитеты	-7282
▁нарушение	-7283
гуа	-7284
разу	-7285
▁юсти	-7286
▁вышеу	-7287
▁преодол	-7288
▁Факульта	-7289
▁национальный	-7290
mber	-7291
▁Jan	-7292
▁выводов	-7293
Ни	-7294
шн	-7295
▁агресс	-7296
▁неприем	-7297
▁благоприя	-7298
▁коррупции	-7299
шен	-7300
ланс	-7301
▁зале	-7302
▁важные	-7303
▁арбитраж	-7304
▁рекомендацию	-7305
▁представленные	-7306
жеб	-7307
▁цик	-7308
▁Перв	-7309
ждении	-7310
▁Social	-7311
▁Найроби	-7312
▁президент	-7313
▁сравнению	-7314
▁предложенный	-7315
▁деятельностью	-7316
Га	-7317
▁(«	-7318
▁he	-7319
▁внутри	-7320
▁юстиции	-7321
▁аспектов	-7322
▁нападения	-7323
▁происходит	-7324
дых	-7325
▁ВС	-7326
▁ей	-7327
▁Совете	-7328
▁партне	-7329
▁произошло	-7330
▁противоре	-7331
▁Гу	-7332
▁пи	-7333
▁нега	-7334
▁импор	-7335
▁членам	-7336
▁КАСАЮЩИ	-7337
hi	-7338
ult	-7339
▁ad	-7340
▁Сою	-7341
яется	-7342
▁Кубы	-7343
▁направлен	-7344
орьба	-7345
услов	-7346
▁Серб	-7347
▁найти	-7348
▁площа	-7349
▁требуют	-7350
▁информиров	-7351
▁последующие	-7352
▁as	-7353
▁Им	-7354
▁МП	-7355
▁Mon	-7356
▁Автор	-7357
евремен	-7358
▁Принци	-7359
▁службе	-7360
▁направля	-7361
ъя	-7362
ang	-7363
overn	-7364
▁увер	-7365
▁указаны	-7366
▁Поч	-7367
▁заслуша	-7368
▁разверты	-7369
▁школь	-7370
▁Health	-7371
▁обстоя	-7372
▁стадии	-7373
▁ПРАВИЛА	-7374
▁положениями	-7375
▁статистических	-7376
▁ТЕ	-7377
▁Бер	-7378
▁Сорок	-7379
▁ущерба	-7380
▁ядерной	-7381
▁Восточном	-7382
▁существующих	-7383
ms	-7384
ari	-7385
торых	-7386
▁кредит	-7387
▁миссий	-7388
▁ответов	-7389
▁невозможно	-7390
▁способствовать	-7391
сред	-7392
▁Мак	-7393
▁мало	-7394
▁марки	-7395
▁надлежит	-7396
▁Заместитель	-7397
Ка	-7398
РЕ	-7399
une	-7400
ver	-7401
▁Род	-7402
ФОРМА	-7403
анный	-7404
▁Малай	-7405
▁языки	-7406
▁Острова	-7407
ЧИ	-7408
▁Год	-7409
▁Мексика	-7410
▁обеспечивает	-7411
▁июне	-7412
▁реинте	-7413
▁обучение	-7414
▁претензии	-7415
▁аналогичным	-7416
EC	-7417
эр	-7418
▁87	-7419
▁Abd	-7420
▁ухуд	-7421
▁немед	-7422
Принята	-7423
обилизация	-7424
▁отсутствуют	-7425
▁Is	-7426
граф	-7427
шими	-7428
чиков	-7429
▁рисков	-7430
▁пребывания	-7431
АД	-7432
вину	-7433
▁оккупа	-7434
▁компенсацию	-7435
ook	-7436
лад	-7437
мад	-7438
нему	-7439
отчет	-7440
▁инцид	-7441
▁срока	-7442
▁закончи	-7443
▁Изменения	-7444
▁Румы	-7445
▁повре	-7446
ностями	-7447
▁избран	-7448
▁намерена	-7449
▁рассмотрением	-7450
ey	-7451
▁2001.	-7452
▁обуслов	-7453
▁совместно	-7454
▁изменениями	-7455
КЛ	-7456
рыва	-7457
▁Fin	-7458
tocol	-7459
▁Инициа	-7460
▁проводит	-7461
mit	-7462
▁600	-7463
центра	-7464
▁важный	-7465
▁Эфиопии	-7466
04	-7467
рай	-7468
кварти	-7469
▁(2004)	-7470
▁Проблемы	-7471
▁рассмотрев	-7472
9-	-7473
cy	-7474
lan	-7475
▁Можно	-7476
▁стихий	-7477
▁Включая	-7478
▁ведется	-7479
▁представляют	-7480
▁финансирование	-7481
ющейся	-7482
▁одинаков	-7483
▁отмечено	-7484
▁операциях	-7485
ОГО	-7486
▁__	-7487
▁адап	-7488
▁миротвор	-7489
▁Изменение	-7490
▁терроризм	-7491
PV	-7492
Про	-7493
суль	-7494
▁незна	-7495
▁СОДЕРЖ	-7496
▁Уровень	-7497
соединение	-7498
▁нынешнего	-7499
▁использованием	-7500
ительных	-7501
ительного	-7502
▁ПРЕДСЕДАТЕЛЬ	-7503
▁2/	-7504
▁Маль	-7505
▁нерав	-7506
▁оценок	-7507
▁ИНФОРМА	-7508
▁воздерж	-7509
▁Регистра	-7510
▁связь	-7511
▁прогно	-7512
▁Гуманитар	-7513
▁Структура	-7514
▁предоставления	-7515
▁Давайте	-7516
▁ассоциации	-7517
▁Европейской	-7518
нок	-7519
ризм	-7520
▁Нед	-7521
▁прояв	-7522
умеется	-7523
▁Австралии	-7524
чают	-7525
▁мощ	-7526
▁решила	-7527
▁состоят	-7528
▁центров	-7529
▁выступили	-7530
▁результатах	-7531
зм	-7532
▁июнь	-7533
шенные	-7534
▁жителей	-7535
▁Director	-7536
▁принятию	-7537
тики	-7538
▁вра	-7539
▁самым	-7540
▁Борьба	-7541
▁беспла	-7542
▁график	-7543
▁партнеров	-7544
тиви	-7545
ющееся	-7546
▁супру	-7547
▁резерв	-7548
▁действует	-7549
▁глобализации	-7550
ues	-7551
вия	-7552
пов	-7553
жество	-7554
▁профи	-7555
▁Тихого	-7556
▁случаи	-7557
▁ситуацию	-7558
▁утвердил	-7559
еку	-7560
▁71	-7561
олет	-7562
▁пети	-7563
▁замет	-7564
▁иммунит	-7565
▁которыми	-7566
▁Королевства	-7567
▁обеспечивать	-7568
НГ	-7569
▁Исправ	-7570
▁бюллет	-7571
▁Несмотря	-7572
▁ТОРГОВЛЕ	-7573
ДТ	-7574
Об	-7575
▁ВОПРОСЫ	-7576
▁категория	-7577
▁производится	-7578
-25	-7579
▁мя	-7580
▁яс	-7581
.29)	-7582
▁высоко	-7583
▁причине	-7584
▁Protocol	-7585
дь	-7586
▁CO	-7587
.5.1	-7588
▁Ливане	-7589
▁преступление	-7590
av	-7591
8).	-7592
▁Брифин	-7593
▁топлива	-7594
▁Содержание	-7595
cl	-7596
-29	-7597
ремя	-7598
▁уско	-7599
тельство	-7600
▁Внутрен	-7601
▁сделано	-7602
▁Продолжение	-7603
▁тюрем	-7604
▁Расширение	-7605
▁Ann	-7606
▁вызва	-7607
конопро	-7608
▁сектор	-7609
▁Дарфуре	-7610
▁заработ	-7611
▁становится	-7612
▁инфраструкту	-7613
цами	-7614
▁хран	-7615
▁беремен	-7616
▁единств	-7617
▁структура	-7618
▁Первоначаль	-7619
▁Чеш	-7620
▁1989	-7621
▁парамет	-7622
ыше	-7623
ращи	-7624
стры	-7625
вторых	-7626
▁служа	-7627
▁Политика	-7628
бки	-7629
▁Полу	-7630
▁основу	-7631
▁наличие	-7632
екват	-7633
▁цикла	-7634
ization	-7635
▁вводимых	-7636
▁получены	-7637
▁конфликты	-7638
▁партнерство	-7639
▁Планирование	-7640
сон	-7641
▁Сирий	-7642
▁членом	-7643
▁Югослав	-7644
▁сократи	-7645
▁специальная	-7646
яет	-7647
▁иск	-7648
храна	-7649
▁Нако	-7650
▁Пари	-7651
▁корректи	-7652
▁Государство	-7653
/2001	-7654
▁прошло	-7655
▁нарушений	-7656
▁устройства	-7657
▁пост	-7658
▁комму	-7659
▁отлож	-7660
▁совета	-7661
▁министра	-7662
▁Бангладеш	-7663
▁Присоединение	-7664
▁уд	-7665
амет	-7666
▁vii	-7667
/2005	-7668
▁обрати	-7669
▁Foreign	-7670
▁принимая	-7671
▁касающимся	-7672
▁Координация	-7673
▁Агент	-7674
▁Когда	-7675
▁марте	-7676
живания	-7677
▁обмена	-7678
▁угрозы	-7679
▁Процедура	-7680
▁University	-7681
icy	-7682
лес	-7683
чки	-7684
▁Gu	-7685
▁нашу	-7686
▁лесам	-7687
▁процент	-7688
▁Environmental	-7689
▁76	-7690
чика	-7691
▁непо	-7692
vember	-7693
альные	-7694
▁Статус	-7695
▁правом	-7696
▁вопросе	-7697
▁Поправка	-7698
▁сообщили	-7699
▁распростра	-7700
рид	-7701
Йорке	-7702
ризон	-7703
▁курсы	-7704
▁отмен	-7705
▁Никаких	-7706
▁поощрение	-7707
удс	-7708
▁быв	-7709
▁центре	-7710
Ха	-7711
енство	-7712
точный	-7713
▁счетов	-7714
▁связаны	-7715
EP	-7716
олга	-7717
▁Нет	-7718
льной	-7719
▁носит	-7720
▁свыше	-7721
▁скорее	-7722
▁перепис	-7723
▁профсою	-7724
▁пересмотра	-7725
▁обозначения	-7726
▁отсутствует	-7727
▁Безопасность	-7728
/...	-7729
овар	-7730
▁штаб	-7731
▁банков	-7732
▁быстро	-7733
▁рабочего	-7734
ТЫ	-7735
▁моей	-7736
▁Передано	-7737
▁препятствия	-7738
ЧЕТ	-7739
▁Али	-7740
ципли	-7741
▁Повы	-7742
▁готовы	-7743
▁устран	-7744
сутствия	-7745
*:	-7746
24	-7747
ards	-7748
шены	-7749
▁Sal	-7750
▁Арм	-7751
▁сет	-7752
▁эко	-7753
53	-7754
▁Вена	-7755
▁Press	-7756
▁масса	-7757
▁повтор	-7758
▁морскому	-7759
▁создании	-7760
▁интересов	-7761
▁большинстве	-7762
Во	-7763
▁ави	-7764
ражение	-7765
▁борьба	-7766
▁пленарных	-7767
▁экономикой	-7768
кет	-7769
СПИДа	-7770
ителем	-7771
▁Важно	-7772
▁столь	-7773
▁сыгра	-7774
▁таков	-7775
▁Program	-7776
▁отметила	-7777
▁министерство	-7778
МС	-7779
▁мужчи	-7780
▁Global	-7781
▁Испыта	-7782
▁случай	-7783
▁гендерной	-7784
циями	-7785
первые	-7786
▁2005.	-7787
ведения	-7788
▁департа	-7789
▁аспектах	-7790
▁улучшению	-7791
2(	-7792
ea	-7793
МЫ	-7794
разд	-7795
яются	-7796
имости	-7797
▁Охрана	-7798
▁встреча	-7799
▁поощрения	-7800
▁уничтожения	-7801
ood	-7802
echn	-7803
▁нач	-7804
▁Учре	-7805
▁невы	-7806
▁знаний	-7807
▁неодно	-7808
▁обжалов	-7809
▁упаковки	-7810
▁присоедин	-7811
полне	-7812
▁опыта	-7813
▁помещения	-7814
▁ознакомиться	-7815
▁покину	-7816
▁создан	-7817
зительно	-7818
▁доходов	-7819
▁жилья	-7820
▁закуп	-7821
▁непре	-7822
▁Ливана	-7823
▁Mission	-7824
▁выступление	-7825
ater	-7826
▁адре	-7827
▁истории	-7828
ТУР	-7829
бин	-7830
▁74	-7831
езда	-7832
▁мае	-7833
ровка	-7834
▁Много	-7835
▁РАБОТ	-7836
▁режим	-7837
▁сопров	-7838
▁November	-7839
▁передача	-7840
▁численности	-7841
▁/	-7842
▁73	-7843
▁оши	-7844
▁уроки	-7845
▁первую	-7846
▁Прогресс	-7847
▁вме	-7848
▁новым	-7849
▁правиль	-7850
▁состояние	-7851
▁хозяйство	-7852
▁вет	-7853
▁допол	-7854
▁прими	-7855
▁Саммита	-7856
▁отчетный	-7857
▁сентябре	-7858
▁согласия	-7859
▁финансовым	-7860
бита	-7861
рово	-7862
фера	-7863
▁Анд	-7864
▁Непа	-7865
tional	-7866
▁абсолю	-7867
▁выступает	-7868
▁стоимость	-7869
▁представили	-7870
▁Региональное	-7871
▁обязательство	-7872
тивам	-7873
▁State	-7874
▁отражены	-7875
▁КОНВЕНЦИИ	-7876
▁СОДЕРЖАНИЕ	-7877
ST	-7878
удов	-7879
▁Шкала	-7880
▁Семина	-7881
формулиров	-7882
▁Герцеговине	-7883
▁заявлениями	-7884
ыты	-7885
ober	-7886
мого	-7887
▁Ход	-7888
▁деф	-7889
▁той	-7890
▁Оста	-7891
gy	-7892
ско	-7893
чез	-7894
условно	-7895
▁действуя	-7896
▁пределах	-7897
▁Предостав	-7898
tud	-7899
Кана	-7900
несение	-7901
▁Швеции	-7902
▁потери	-7903
▁развитием	-7904
▁квад	-7905
▁Конференцией	-7906
▁перемещенных	-7907
▁администрации	-7908
";	-7909
ER	-7910
ФА	-7911
les	-7912
Жене	-7913
▁Норвегии	-7914
▁потребуется	-7915
▁предоставление	-7916
ваемые	-7917
▁водных	-7918
▁тексту	-7919
▁языком	-7920
▁созданию	-7921
▁возможных	-7922
▁уменьшения	-7923
▁регулирования	-7924
эн	-7925
пере	-7926
▁Рим	-7927
▁пси	-7928
ative	-7929
стане	-7930
▁Филипп	-7931
▁исправить	-7932
▁стратегий	-7933
/11	-7934
/29	-7935
гой	-7936
пус	-7937
▁Af	-7938
▁виз	-7939
▁раза	-7940
▁первое	-7941
▁Нидерланды	-7942
.2,	-7943
▁1/	-7944
▁Ле	-7945
▁Пара	-7946
▁посла	-7947
▁возгла	-7948
▁оценкам	-7949
▁изложение	-7950
▁поблагодарить	-7951
тан	-7952
▁ид	-7953
▁See	-7954
▁бор	-7955
▁Функ	-7956
▁плод	-7957
СПИДом	-7958
▁Факторы	-7959
▁таблицы	-7960
▁индивиду	-7961
▁космической	-7962
▁предусмотрено	-7963
af	-7964
▁5.	-7965
имые	-7966
▁Тан	-7967
▁алма	-7968
▁Устав	-7969
▁самом	-7970
▁Свобод	-7971
▁важной	-7972
▁военной	-7973
▁Глобальный	-7974
▁гуманитарного	-7975
КР	-7976
.2.3	-7977
ерты	-7978
▁Trad	-7979
▁потерпе	-7980
▁многочис	-7981
▁потенциаль	-7982
▁своевремен	-7983
губ	-7984
▁2.4	-7985
▁Кла	-7986
▁меж	-7987
▁рабочие	-7988
▁подчеркнуть	-7989
05	-7990
ГС	-7991
.1)	-7992
/52	-7993
мира	-7994
НОСТЬ	-7995
ляции	-7996
тного	-7997
▁Одна	-7998
▁готова	-7999
▁потенциал	-8000
вли	-8001
тет	-8002
▁сеть	-8003
▁Govern	-8004
▁Активи	-8005
▁РАБОТЫ	-8006
▁Програм	-8007
▁встречи	-8008
▁регионах	-8009
▁коммюнике	-8010
▁учреждение	-8011
▁представителей	-8012
шему	-8013
▁Будет	-8014
▁испыты	-8015
▁Федераль	-8016
▁объектов	-8017
▁поскольку	-8018
ает	-8019
има	-8020
Женева	-8021
▁отбора	-8022
▁продолжают	-8023
ТАР	-8024
▁Re	-8025
▁ИКТ	-8026
▁стой	-8027
▁служеб	-8028
▁соверши	-8029
▁Руководящие	-8030
▁Объединенной	-8031
▁Экономическое	-8032
СТВИ	-8033
▁вов	-8034
▁ото	-8035
▁Одним	-8036
▁Палестине	-8037
▁использованию	-8038
▁распределение	-8039
▁ФАО	-8040
▁Факты	-8041
▁разных	-8042
▁сказал	-8043
▁инструк	-8044
▁внутренней	-8045
▁мед	-8046
мером	-8047
чными	-8048
▁Куба	-8049
▁Место	-8050
▁Переиз	-8051
▁успешно	-8052
▁позволит	-8053
новременно	-8054
▁сотрудничать	-8055
шки	-8056
▁ОВ	-8057
▁СИ	-8058
▁Орг	-8059
▁язык	-8060
ленной	-8061
▁дерев	-8062
▁исчез	-8063
▁Распред	-8064
▁движение	-8065
▁женщинам	-8066
▁2000-2001	-8067
67	-8068
az	-8069
ie	-8070
ТОР	-8071
ерка	-8072
▁честь	-8073
▁связано	-8074
▁получают	-8075
/2006	-8076
▁Терро	-8077
▁казни	-8078
▁предпо	-8079
ob	-8080
КОВ	-8081
ЛЕН	-8082
бри	-8083
бые	-8084
оход	-8085
против	-8086
▁отправ	-8087
▁убежища	-8088
▁ключевых	-8089
▁гендерного	-8090
НЫМ	-8091
СВН	-8092
мое	-8093
▁диамет	-8094
▁рассмотрены	-8095
▁численность	-8096
▁Reg	-8097
-2004	-8098
▁2002.	-8099
▁Коста	-8100
▁Новый	-8101
▁Таила	-8102
▁лучше	-8103
ведение	-8104
▁главные	-8105
▁Бразилия	-8106
▁заявителя	-8107
▁правосудию	-8108
int	-8109
itor	-8110
▁Fran	-8111
▁получено	-8112
▁сопостав	-8113
▁наблюдения	-8114
▁определены	-8115
сив	-8116
стри	-8117
▁нуж	-8118
▁лесов	-8119
достовер	-8120
▁нищетой	-8121
▁источники	-8122
▁приверженность	-8123
ЯЗ	-8124
сии	-8125
цов	-8126
▁Ге	-8127
нова	-8128
звать	-8129
лакти	-8130
▁взнос	-8131
▁запла	-8132
▁курсов	-8133
▁уделять	-8134
▁оказывает	-8135
▁приступает	-8136
▁Генеральный	-8137
▁Предлагаемая	-8138
емо	-8139
earch	-8140
▁пожел	-8141
▁верхов	-8142
▁недавно	-8143
▁пенсион	-8144
▁Отправление	-8145
▁Ну	-8146
ленд	-8147
▁Судана	-8148
▁принуд	-8149
▁Киотского	-8150
▁официально	-8151
▁существенно	-8152
Фа	-8153
тур	-8154
ight	-8155
льно	-8156
▁ПРОЦ	-8157
▁кана	-8158
▁Первое	-8159
▁поощрять	-8160
▁Доброволь	-8161
▁осуществляет	-8162
▁дли	-8163
▁уси	-8164
анное	-8165
льное	-8166
▁журна	-8167
тельных	-8168
▁Италия	-8169
▁причем	-8170
▁Подкомит	-8171
▁глобальной	-8172
▁свидетелей	-8173
CT	-8174
ЮЩ	-8175
▁Сте	-8176
▁курс	-8177
▁сырь	-8178
▁Компон	-8179
▁большой	-8180
▁составлять	-8181
▁гражданства	-8182
▁применяться	-8183
▁сегодняшний	-8184
▁95	-8185
▁ОП	-8186
▁Can	-8187
▁Май	-8188
ainst	-8189
▁пола	-8190
▁решением	-8191
▁Исламская	-8192
За	-8193
оке	-8194
сыл	-8195
есуэ	-8196
▁асп	-8197
▁земли	-8198
▁стипен	-8199
▁Норвегия	-8200
2-	-8201
27	-8202
СТО	-8203
▁Ман	-8204
▁Мол	-8205
▁КУЛЬ	-8206
вались	-8207
имость	-8208
▁March	-8209
▁кризиса	-8210
▁Справочная	-8211
▁посредством	-8212
▁Распределение	-8213
исп	-8214
▁сбо	-8215
▁креди	-8216
▁Ответы	-8217
▁морской	-8218
▁толковании	-8219
▁государством	-8220
ФЕР	-8221
▁(1)	-8222
▁117	-8223
▁ПОЛИ	-8224
▁голод	-8225
полномо	-8226
▁Инспек	-8227
ционеров	-8228
▁Всеобщее	-8229
▁чрезвычайно	-8230
ждая	-8231
ington	-8232
тивного	-8233
▁указания	-8234
▁Statistic	-8235
▁Палестины	-8236
▁эксплуатация	-8237
▁УСВН	-8238
▁смыс	-8239
▁перво	-8240
▁подотчет	-8241
▁высказать	-8242
▁Секретариа	-8243
чат	-8244
▁стоит	-8245
▁мирного	-8246
▁оказать	-8247
▁половина	-8248
▁концентра	-8249
▁принадлежа	-8250
▁Активизация	-8251
▁Регистрация	-8252
ТОВ	-8253
лий	-8254
▁судьи	-8255
▁начало	-8256
▁2010-2011	-8257
▁заявитель	-8258
▁соблюдение	-8259
SO	-8260
КЕ	-8261
▁"6	-8262
нется	-8263
▁рынке	-8264
▁целый	-8265
▁ваканс	-8266
▁меньше	-8267
▁Требования	-8268
▁мерах	-8269
▁Египет	-8270
▁предоставить	-8271
▁предупреждения	-8272
СТА	-8273
▁83	-8274
▁почему	-8275
▁центры	-8276
ЦА	-8277
дца	-8278
▁120	-8279
ингапу	-8280
льного	-8281
▁жалобы	-8282
▁использ	-8283
▁религии	-8284
▁сельского	-8285
▁палестинцев	-8286
▁инд	-8287
▁2004.	-8288
▁Особое	-8289
▁вероят	-8290
▁обеспечении	-8291
▁подтверждая	-8292
▁подготовленный	-8293
nal	-8294
обо	-8295
▁(6	-8296
▁sub	-8297
вости	-8298
▁утра	-8299
▁район	-8300
▁КУЛЬТУР	-8301
.18	-8302
ich	-8303
дано	-8304
олда	-8305
▁Gro	-8306
▁нака	-8307
▁ПРОЕК	-8308
▁декабре	-8309
▁десятилетие	-8310
per	-8311
ture	-8312
валась	-8313
▁народу	-8314
▁народы	-8315
▁острова	-8316
▁финансовая	-8317
АНИИ	-8318
▁границы	-8319
▁подлежат	-8320
▁считается	-8321
▁поддержать	-8322
▁соответствует	-8323
▁погиб	-8324
▁оригина	-8325
▁принята	-8326
▁критерии	-8327
дино	-8328
ностях	-8329
▁Абдель	-8330
▁пограни	-8331
▁стоимости	-8332
▁КАСАЮЩИЕСЯ	-8333
▁ПОВ	-8334
альной	-8335
.3,	-8336
▁Те	-8337
▁сообщить	-8338
▁кандидатов	-8339
▁палестинских	-8340
ustr	-8341
▁газа	-8342
▁надзор	-8343
▁требование	-8344
ome	-8345
▁ed	-8346
льный	-8347
ующим	-8348
нского	-8349
▁ОТЧЕТ	-8350
▁крити	-8351
▁законы	-8352
▁имеющие	-8353
▁повестка	-8354
ист	-8355
чее	-8356
▁88	-8357
tain	-8358
елен	-8359
▁Rec	-8360
океан	-8361
▁слуш	-8362
▁кодекс	-8363
▁письмо	-8364
▁размещ	-8365
▁сосред	-8366
▁миллионов	-8367
▁отделение	-8368
▁занимается	-8369
07	-8370
iti	-8371
▁3)	-8372
ЕНИЮ	-8373
ноло	-8374
▁Jul	-8375
мбудс	-8376
овыми	-8377
▁1980	-8378
▁Нару	-8379
▁ОСНОВ	-8380
▁детям	-8381
▁долла	-8382
▁подпро	-8383
инг	-8384
▁7.	-8385
▁VIII	-8386
▁Уведом	-8387
▁восемь	-8388
▁выбора	-8389
▁нехват	-8390
▁регион	-8391
▁октябре	-8392
▁достигнутый	-8393
Дж	-8394
▁КР	-8395
▁IDB	-8396
чание	-8397
▁ОБЛА	-8398
▁млрд	-8399
▁правилам	-8400
▁торговлей	-8401
▁заслуживает	-8402
оти	-8403
лема	-8404
▁Fed	-8405
анная	-8406
▁арест	-8407
▁наилуч	-8408
1-	-8409
тыми	-8410
▁циви	-8411
▁взрыв	-8412
▁January	-8413
▁мировой	-8414
▁перемен	-8415
▁выполнить	-8416
▁Конкретные	-8417
▁находящихся	-8418
▁сформулиров	-8419
▁статистические	-8420
без	-8421
мах	-8422
▁аэ	-8423
слуги	-8424
▁Президи	-8425
▁структур	-8426
08	-8427
жено	-8428
▁тща	-8429
битат	-8430
шееся	-8431
▁Child	-8432
▁РАБОТЕ	-8433
▁крупных	-8434
▁обороны	-8435
▁Консультации	-8436
ebr	-8437
нис	-8438
женных	-8439
▁ноябре	-8440
ственных	-8441
▁Согласов	-8442
▁примеров	-8443
▁Существует	-8444
МОТ	-8445
▁хочу	-8446
руемые	-8447
▁Помимо	-8448
▁усилиях	-8449
▁коэффициент	-8450
▁шестидесятой	-8451
AD	-8452
▁ДО	-8453
прод	-8454
▁самой	-8455
▁фонды	-8456
▁будущего	-8457
▁продукта	-8458
▁расширения	-8459
raph	-8460
телю	-8461
▁Бел	-8462
▁бис	-8463
▁мет	-8464
▁хра	-8465
▁Бразилии	-8466
▁правовых	-8467
▁хотелось	-8468
▁химических	-8469
mad	-8470
тим	-8471
▁XV	-8472
pril	-8473
▁смет	-8474
казание	-8475
▁Камеру	-8476
▁Период	-8477
▁Secretary	-8478
▁федерация	-8479
▁пересмотренный	-8480
дам	-8481
▁ам	-8482
▁дает	-8483
итации	-8484
ference	-8485
▁Наконец	-8486
▁направленные	-8487
▁экономические	-8488
▁Предполагаемая	-8489
▁приблизительно	-8490
AR	-8491
»;	-8492
cil	-8493
▁даты	-8494
▁залож	-8495
▁имели	-8496
▁сосед	-8497
▁Вариан	-8498
▁опытом	-8499
▁Правилам	-8500
▁концепции	-8501
▁гуманитарных	-8502
one	-8503
▁5:	-8504
▁дев	-8505
чность	-8506
▁Слово	-8507
▁ничего	-8508
ительной	-8509
▁поездки	-8510
▁законопро	-8511
▁обязанностей	-8512
ien	-8513
нар	-8514
тре	-8515
глав	-8516
пасы	-8517
▁May	-8518
▁Мах	-8519
нести	-8520
▁Анна	-8521
▁ГОДА	-8522
▁имуществ	-8523
▁нынешней	-8524
▁политику	-8525
▁просьбой	-8526
▁транспорту	-8527
aj	-8528
сайт	-8529
▁ощу	-8530
▁пыта	-8531
▁груза	-8532
▁обеих	-8533
▁часов	-8534
▁КОНФЕР	-8535
▁экосист	-8536
▁качество	-8537
▁Нидерландов	-8538
Ра	-8539
лемым	-8540
▁тран	-8541
▁каким	-8542
надцатая	-8543
▁дисципли	-8544
▁подлежит	-8545
▁производство	-8546
▁Неофициальный	-8547
ДС	-8548
вий	-8549
▁вполне	-8550
▁лицами	-8551
▁питания	-8552
▁Швейцарии	-8553
▁участниками	-8554
ЮН	-8555
▁сим	-8556
▁отри	-8557
▁истори	-8558
▁собира	-8559
▁эффективного	-8560
ерм	-8561
▁маль	-8562
▁нанес	-8563
▁самых	-8564
▁Страны	-8565
▁каждом	-8566
▁поднятием	-8567
▁излагаются	-8568
▁переходной	-8569
if	-8570
▁ww	-8571
▁800	-8572
▁Тра	-8573
▁рту	-8574
▁шаг	-8575
▁Есть	-8576
НИТЕЛЬ	-8577
▁судна	-8578
▁таком	-8579
токголь	-8580
▁Статистика	-8581
▁Дополнительная	-8582
▁Предоставление	-8583
▁оккупированных	-8584
▁HR	-8585
▁ВО	-8586
▁Труд	-8587
▁мини	-8588
▁второе	-8589
▁подпункту	-8590
▁рассмотрен	-8591
▁www	-8592
▁вас	-8593
▁Встре	-8594
▁разли	-8595
▁учебные	-8596
▁Повышение	-8597
▁предложил	-8598
▁страновых	-8599
▁Завершение	-8600
мосф	-8601
▁pol	-8602
▁Здесь	-8603
хоокеан	-8604
▁Americ	-8605
▁третий	-8606
▁серьезно	-8607
▁примечание	-8608
▁Специальным	-8609
ll	-8610
ave	-8611
мым	-8612
▁Car	-8613
вался	-8614
тиров	-8615
▁Речь	-8616
▁разум	-8617
▁сфера	-8618
eration	-8619
▁достав	-8620
▁Приорит	-8621
▁закупок	-8622
▁безработицы	-8623
сси	-8624
▁Зем	-8625
▁Парт	-8626
▁семинара	-8627
▁согласие	-8628
▁перевозкам	-8629
▁требованиям	-8630
▁электронных	-8631
▁петиционеров	-8632
▁8,	-8633
вяза	-8634
▁Head	-8635
▁знаем	-8636
▁сферы	-8637
▁Испании	-8638
▁Целевая	-8639
▁торговая	-8640
▁характеристи	-8641
▁наркотическим	-8642
▁Ша	-8643
▁преиму	-8644
▁областей	-8645
▁составил	-8646
▁комментарии	-8647
шли	-8648
.2.4	-8649
▁112	-8650
частую	-8651
▁Таджи	-8652
▁послу	-8653
тельные	-8654
▁городах	-8655
▁вооруженного	-8656
▁биологическом	-8657
ец	-8658
▁UNSE	-8659
▁выну	-8660
▁защит	-8661
ющимися	-8662
▁Конституция	-8663
ляют	-8664
▁ОПР	-8665
▁пам	-8666
обиль	-8667
▁дата	-8668
ebruary	-8669
чивается	-8670
▁материала	-8671
▁позволяет	-8672
▁перспективы	-8673
90	-8674
.3.3	-8675
пози	-8676
ующее	-8677
▁держа	-8678
▁ПОЛИТИ	-8679
▁класси	-8680
▁квадрат	-8681
▁интересы	-8682
▁выполняет	-8683
▁необ	-8684
жности	-8685
ология	-8686
▁Пример	-8687
мотности	-8688
▁мотивам	-8689
▁наконец	-8690
▁голосами	-8691
▁обследования	-8692
▁восстановления	-8693
пар	-8694
▁Sw	-8695
▁Уган	-8696
▁Подоб	-8697
▁вызов	-8698
▁колле	-8699
▁недели	-8700
набжения	-8701
▁варианты	-8702
▁приступил	-8703
45	-8704
▁Fa	-8705
вшийся	-8706
▁сделанные	-8707
▁прекращения	-8708
гим	-8709
Пере	-8710
▁June	-8711
▁новая	-8712
▁горизон	-8713
▁Стокголь	-8714
▁Окружающая	-8715
▁колониальным	-8716
МП	-8717
Фак	-8718
мии	-8719
нты	-8720
круг	-8721
яться	-8722
▁свет	-8723
▁February	-8724
▁проведена	-8725
▁приоритеты	-8726
▁разрешения	-8727
▁инфраструктуры	-8728
они	-8729
ался	-8730
▁сла	-8731
клады	-8732
▁виду	-8733
▁апреле	-8734
▁говори	-8735
▁договоры	-8736
▁определенные	-8737
▁разнообразии	-8738
▁солидарности	-8739
21	-8740
лла	-8741
▁ясно	-8742
ненных	-8743
▁судом	-8744
▁школах	-8745
▁Венесуэ	-8746
▁директор	-8747
▁правовым	-8748
▁секретарь	-8749
ТОЙ	-8750
уди	-8751
дачи	-8752
онки	-8753
▁Moh	-8754
▁Шри	-8755
очеред	-8756
тивной	-8757
▁январе	-8758
▁совершенно	-8759
тить	-8760
▁ист	-8761
▁изъя	-8762
▁надо	-8763
▁связей	-8764
▁соблюда	-8765
▁покидает	-8766
▁содержащиеся	-8767
▁del	-8768
▁тыс	-8769
▁Камб	-8770
▁бога	-8771
▁Институ	-8772
▁сторону	-8773
▁Десятилет	-8774
▁количества	-8775
.19	-8776
ada	-8777
▁ДЕЯ	-8778
▁Португа	-8779
▁парламент	-8780
▁Департамента	-8781
▁палестинского	-8782
ris	-8783
/2000	-8784
▁арен	-8785
енному	-8786
▁Сфера	-8787
▁постро	-8788
▁жертвами	-8789
▁поставщи	-8790
▁основания	-8791
▁решимости	-8792
▁Проведение	-8793
▁урегулирования	-8794
▁1-	-8795
ournal	-8796
▁repor	-8797
▁(2006)	-8798
▁Ограни	-8799
▁Рабочий	-8800
▁возвраща	-8801
▁Афганистана	-8802
ници	-8803
▁Арав	-8804
▁исключения	-8805
▁правозащит	-8806
tra	-8807
▁Div	-8808
▁тай	-8809
▁взять	-8810
▁Council	-8811
▁ДЕЯТЕЛЬ	-8812
▁Компонент	-8813
▁дорожного	-8814
61	-8815
▁актов	-8816
▁Методы	-8817
▁ЮНИТАР	-8818
▁саммита	-8819
▁одобрила	-8820
▁включенных	-8821
▁состоялось	-8822
▁осуществлением	-8823
▁финансированию	-8824
to	-8825
говый	-8826
▁ремон	-8827
▁судья	-8828
сутствие	-8829
▁Institute	-8830
▁территориях	-8831
▁ПА	-8832
tice	-8833
ЕДИН	-8834
жает	-8835
▁подходы	-8836
▁судоход	-8837
Фактические	-8838
▁Совместное	-8839
вшим	-8840
▁110	-8841
▁Этап	-8842
▁июле	-8843
учение	-8844
▁Запре	-8845
▁Элект	-8846
▁общины	-8847
▁решать	-8848
▁работает	-8849
▁перевозке	-8850
▁Данная	-8851
▁играют	-8852
▁вступила	-8853
▁назначен	-8854
▁указанные	-8855
▁Оперативная	-8856
▁указывается	-8857
▁рекомендуется	-8858
erv	-8859
▁МСП	-8860
▁ОБЗ	-8861
валось	-8862
▁Наблю	-8863
тельный	-8864
▁Директор	-8865
▁обратиться	-8866
▁подписания	-8867
(2)	-8868
▁Диа	-8869
ганда	-8870
териалы	-8871
▁Установ	-8872
▁произволь	-8873
▁равенство	-8874
МОВ	-8875
ген	-8876
▁(197	-8877
▁July	-8878
▁банка	-8879
▁against	-8880
▁реформа	-8881
▁регулярно	-8882
▁Финансовый	-8883
▁председателя	-8884
▁6:	-8885
Фран	-8886
▁Гре	-8887
▁хотя	-8888
статьи	-8889
▁просве	-8890
▁степень	-8891
▁конечном	-8892
▁Стратегия	-8893
68	-8894
.2.	-8895
сва	-8896
нили	-8897
▁Даль	-8898
▁темпы	-8899
▁Испания	-8900
▁надежды	-8901
▁создана	-8902
▁напряжен	-8903
гло	-8904
▁КРА	-8905
▁Пози	-8906
▁April	-8907
▁взаимод	-8908
▁служить	-8909
▁повестке	-8910
▁Возможные	-8911
▁чрезвычайной	-8912
СК	-8913
▁Хотя	-8914
▁чист	-8915
▁СОВЕЩ	-8916
▁вытека	-8917
▁инвалид	-8918
▁работой	-8919
▁Research	-8920
▁регулиру	-8921
▁документу	-8922
▁сосредото	-8923
▁окружающую	-8924
тон	-8925
▁150	-8926
▁Венг	-8927
▁ведет	-8928
▁Камбод	-8929
▁созыва	-8930
▁эксперты	-8931
ata	-8932
▁Ло	-8933
.6.1	-8934
▁Вза	-8935
▁Лит	-8936
▁судь	-8937
▁(2001	-8938
▁Policy	-8939
▁Турция	-8940
▁границ	-8941
▁широко	-8942
▁колонку	-8943
▁объекта	-8944
▁проектом	-8945
▁работают	-8946
org	-8947
мин	-8948
хов	-8949
▁700	-8950
▁2000.	-8951
▁Между	-8952
▁миниму	-8953
▁подрост	-8954
▁трибунала	-8955
35	-8956
▁чув	-8957
▁иден	-8958
ulation	-8959
▁Незакон	-8960
▁давление	-8961
▁обращение	-8962
Соединенные	-8963
▁Администра	-8964
▁касающаяся	-8965
▁финансовый	-8966
▁боеприпасов	-8967
КОЙ	-8968
▁(5	-8969
▁раб	-8970
▁спут	-8971
▁Третья	-8972
▁аварий	-8973
▁Optional	-8974
▁источником	-8975
▁СЕ	-8976
▁(15	-8977
▁Вот	-8978
сточной	-8979
▁Статьи	-8980
▁соверша	-8981
▁Возобнов	-8982
▁Транспор	-8983
▁9,	-8984
телен	-8985
▁науке	-8986
▁расшир	-8987
▁надежду	-8988
▁произвед	-8989
95	-8990
еке	-8991
манд	-8992
чиная	-8993
▁Специ	-8994
tection	-8995
▁report	-8996
▁ведомо	-8997
▁тексте	-8998
ительный	-8999
▁активное	-9000
▁Стокгольм	-9001
▁природных	-9002
▁температура	-9003
ast	-9004
▁General	-9005
▁Мировой	-9006
▁влияние	-9007
▁обязаны	-9008
стороннее	-9009
▁Подпункт	-9010
▁сопровож	-9011
▁нуждается	-9012
▁выполнении	-9013
▁парламента	-9014
IN	-9015
.30	-9016
шено	-9017
▁бар	-9018
▁Бени	-9019
▁выхода	-9020
▁островов	-9021
▁развитым	-9022
▁уделяется	-9023
▁представит	-9024
▁разработать	-9025
▁пространстве	-9026
тков	-9027
▁Наде	-9028
▁Исслед	-9029
▁получила	-9030
▁Programme	-9031
▁необходим	-9032
▁Соединенного	-9033
буд	-9034
вива	-9035
▁ПИИ	-9036
▁абза	-9037
▁похи	-9038
▁анали	-9039
▁атмосф	-9040
▁дороги	-9041
▁делегациями	-9042
▁университета	-9043
Лан	-9044
джа	-9045
сад	-9046
▁that	-9047
▁мнений	-9048
38	-9049
ряет	-9050
▁отс	-9051
▁Женев	-9052
▁Объем	-9053
▁любое	-9054
▁органом	-9055
▁технике	-9056
formation	-9057
▁укреплять	-9058
▁применении	-9059
▁международный	-9060
ne	-9061
акия	-9062
тори	-9063
▁105	-9064
ology	-9065
ждани	-9066
▁Танза	-9067
▁Юриди	-9068
▁конца	-9069
▁Описание	-9070
▁культурные	-9071
▁уведомления	-9072
ждать	-9073
▁Регу	-9074
▁имело	-9075
еренные	-9076
▁указанный	-9077
▁инспекционной	-9078
▁информационных	-9079
МР	-9080
битор	-9081
▁потерь	-9082
▁обсудить	-9083
▁автомобиль	-9084
▁оперативной	-9085
▁сохраняется	-9086
▁регионального	-9087
▁дополнительной	-9088
По	-9089
ену	-9090
варта	-9091
▁реак	-9092
мечания	-9093
▁среднем	-9094
▁техника	-9095
▁касаются	-9096
▁системой	-9097
▁стандарт	-9098
▁добровольных	-9099
ОЛЬ	-9100
есо	-9101
▁(7	-9102
▁Цел	-9103
-2006	-9104
▁брак	-9105
▁СТАТЬ	-9106
▁любом	-9107
▁),	-9108
зовы	-9109
пара	-9110
ропор	-9111
▁МООНК	-9112
▁запланиров	-9113
▁населенных	-9114
▁инспекционная	-9115
▁Статистическая	-9116
эк	-9117
жений	-9118
▁Ямай	-9119
▁ПОВЕС	-9120
▁бюджету	-9121
▁удостовер	-9122
ждена	-9123
ctober	-9124
▁автома	-9125
▁Journal	-9126
▁професс	-9127
▁ассигнования	-9128
GR	-9129
▁жизн	-9130
ругвай	-9131
▁баланс	-9132
▁данное	-9133
▁масштабы	-9134
▁Процедуры	-9135
▁завершена	-9136
▁загрязнения	-9137
▁экологические	-9138
дения	-9139
▁Народ	-9140
▁научных	-9141
▁скорость	-9142
▁исследование	-9143
пины	-9144
▁2.5	-9145
▁ICC	-9146
▁дума	-9147
▁большие	-9148
▁возглавля	-9149
▁выступать	-9150
▁мужчинами	-9151
Ро	-9152
ыз	-9153
кус	-9154
людение	-9155
▁трудно	-9156
▁Комплекс	-9157
▁ответств	-9158
▁вооружения	-9159
▁94	-9160
жеме	-9161
жемеся	-9162
▁Afric	-9163
▁Недав	-9164
▁городов	-9165
▁сообщил	-9166
▁значительные	-9167
▁XI	-9168
▁Дев	-9169
казан	-9170
нское	-9171
▁Techn	-9172
▁взрос	-9173
ованием	-9174
▁другого	-9175
▁Колумбии	-9176
▁остановиться	-9177
/3,	-9178
oss	-9179
СТВА	-9180
деть	-9181
▁Саль	-9182
▁наше	-9183
▁общую	-9184
▁Руанде	-9185
▁Краткое	-9186
▁записка	-9187
▁пленарном	-9188
▁продукции	-9189
▁полученная	-9190
▁работающих	-9191
▁установить	-9192
▁предложении	-9193
СТОЯ	-9194
лить	-9195
стями	-9196
▁книж	-9197
▁лицен	-9198
▁public	-9199
▁подано	-9200
▁станет	-9201
▁Средства	-9202
▁географи	-9203
▁регионам	-9204
▁применять	-9205
См	-9206
оте	-9207
жеств	-9208
▁Азиат	-9209
▁города	-9210
▁иммигра	-9211
▁Беларусь	-9212
▁показыва	-9213
▁Стратегии	-9214
▁задолженность	-9215
RAN	-9216
▁Рис	-9217
▁вред	-9218
▁двер	-9219
▁желез	-9220
▁Гвинея	-9221
▁аспект	-9222
▁корпора	-9223
▁пользования	-9224
хгал	-9225
▁подоз	-9226
▁перено	-9227
▁прочие	-9228
▁запасов	-9229
▁правами	-9230
▁палестинский	-9231
▁доказательств	-9232
▁экономическое	-9233
ЕВ	-9234
ырг	-9235
▁5.4	-9236
ллель	-9237
▁Cour	-9238
▁ДНЯО	-9239
▁ГРУПП	-9240
▁дискусс	-9241
▁наличии	-9242
▁активизи	-9243
▁обвинения	-9244
▁сохранения	-9245
AW	-9246
au	-9247
джан	-9248
екта	-9249
▁соч	-9250
ыргыз	-9251
▁самого	-9252
▁частей	-9253
▁экономике	-9254
▁участником	-9255
▁Уведомление	-9256
▁необходимых	-9257
/51	-9258
ача	-9259
бис	-9260
янс	-9261
▁8.	-9262
Герм	-9263
щает	-9264
▁not	-9265
ЛЕНИЯ	-9266
resent	-9267
▁Маври	-9268
▁Продолж	-9269
▁Украины	-9270
▁Зеландия	-9271
▁добиваться	-9272
▁допускается	-9273
.-	-9274
чному	-9275
▁Serv	-9276
▁сувер	-9277
▁фондов	-9278
▁авторит	-9279
▁впервые	-9280
▁позиция	-9281
▁Финляндии	-9282
▁основного	-9283
▁мобилизации	-9284
дем	-9285
▁(10	-9286
▁сло	-9287
▁фер	-9288
ender	-9289
вающие	-9290
ностям	-9291
▁устра	-9292
▁Украина	-9293
▁Мохаммед	-9294
ong	-9295
либ	-9296
▁ск	-9297
МОВИК	-9298
ниципа	-9299
шенных	-9300
Франция	-9301
▁выборах	-9302
▁прокуро	-9303
▁частично	-9304
▁проблемами	-9305
▁предписания	-9306
▁дополнительную	-9307
▁Бах	-9308
▁сна	-9309
▁Замб	-9310
▁Учет	-9311
▁мобиль	-9312
Германия	-9313
▁Дальней	-9314
▁Republic	-9315
▁изложении	-9316
▁учреждениями	-9317
▁предотвращения	-9318
ТОК	-9319
irst	-9320
▁Иорд	-9321
▁Союз	-9322
▁знать	-9323
▁глубоко	-9324
▁озаглав	-9325
▁действуют	-9326
▁необходимым	-9327
ks	-9328
МДП	-9329
силь	-9330
▁124	-9331
▁РЕЗ	-9332
▁сути	-9333
▁факти	-9334
▁Темати	-9335
дин	-9336
▁кров	-9337
▁выпущ	-9338
▁цистер	-9339
▁Сингапу	-9340
▁задержания	-9341
▁Мобилизация	-9342
▁прекращении	-9343
До	-9344
ОПС	-9345
лым	-9346
▁Возд	-9347
▁изна	-9348
▁издерж	-9349
▁постеп	-9350
▁детской	-9351
▁рассмот	-9352
▁Оказание	-9353
▁последний	-9354
▁заработной	-9355
▁техническое	-9356
▁органических	-9357
▁реагирования	-9358
▁рассматривает	-9359
▁Ху	-9360
ЕНИЙ	-9361
▁5.2	-9362
▁Боли	-9363
енегал	-9364
▁Ахмед	-9365
▁рядом	-9366
▁сорта	-9367
▁сразу	-9368
▁тесно	-9369
▁входит	-9370
▁предна	-9371
▁служит	-9372
▁October	-9373
менование	-9374
▁Division	-9375
▁Проблема	-9376
▁укрепить	-9377
▁услугами	-9378
▁пределами	-9379
AL	-9380
SG	-9381
рец	-9382
▁86	-9383
book	-9384
▁изд	-9385
▁нала	-9386
▁общем	-9387
▁пресе	-9388
▁таблицу	-9389
жным	-9390
▁917	-9391
▁1987	-9392
▁Мали	-9393
гового	-9394
Принято	-9395
▁затрат	-9396
▁центра	-9397
▁понятия	-9398
▁говорить	-9399
▁парламен	-9400
СЯ	-9401
ail	-9402
мия	-9403
ator	-9404
▁137	-9405
▁Оба	-9406
eptem	-9407
▁Любые	-9408
▁Новое	-9409
жденных	-9410
екларацию	-9411
▁Договора	-9412
казывается	-9413
▁отмечается	-9414
▁достоинство	-9415
▁экологической	-9416
tiv	-9417
-198	-9418
▁Назв	-9419
▁СРЕД	-9420
▁статьям	-9421
▁варианта	-9422
▁4-	-9423
СТАВ	-9424
▁108	-9425
▁Бла	-9426
▁ВВП	-9427
▁товары	-9428
▁выплаты	-9429
▁жертвам	-9430
▁Условные	-9431
▁ЗАСЕДАНИИ	-9432
ik	-9433
▁69	-9434
сились	-9435
стеств	-9436
▁Обмен	-9437
▁ЮНОПС	-9438
▁компания	-9439
▁возмещения	-9440
лити	-9441
ходя	-9442
▁Moham	-9443
▁гости	-9444
▁изоля	-9445
▁Свобода	-9446
▁ЮНМОВИК	-9447
▁эксперт	-9448
▁бедности	-9449
▁хозяйств	-9450
▁добавления	-9451
▁независимы	-9452
▁сообщениям	-9453
▁направление	-9454
▁согласования	-9455
Инд	-9456
ateg	-9457
кова	-9458
пада	-9459
▁Дву	-9460
силов	-9461
▁платы	-9462
▁добавлении	-9463
▁сохранение	-9464
▁Выступление	-9465
ath	-9466
межу	-9467
▁ПОД	-9468
стало	-9469
▁Услуги	-9470
▁Проверка	-9471
▁закрытых	-9472
▁имущество	-9473
▁массового	-9474
▁результат	-9475
сам	-9476
▁(16	-9477
▁примет	-9478
▁заключен	-9479
▁профилакти	-9480
шнл	-9481
эта	-9482
▁НЕ	-9483
гает	-9484
▁усу	-9485
▁начать	-9486
▁пособий	-9487
▁связана	-9488
▁опубликован	-9489
кро	-9490
сан	-9491
▁99	-9492
▁кан	-9493
▁рее	-9494
вость	-9495
▁живо	-9496
▁одино	-9497
▁группам	-9498
▁December	-9499
▁граждани	-9500
▁заместителя	-9501
▁медицинских	-9502
▁приоритетов	-9503
▁транспортные	-9504
▁соответственно	-9505
елю	-9506
▁рома	-9507
▁помочь	-9508
▁большей	-9509
▁меньшей	-9510
▁надеюсь	-9511
▁Последние	-9512
▁Cl	-9513
▁75,	-9514
енства	-9515
▁десят	-9516
▁утвердить	-9517
▁мониторинг	-9518
▁последнего	-9519
▁OP	-9520
▁твердо	-9521
▁бедствия	-9522
▁Секретариатом	-9523
иджи	-9524
▁Хар	-9525
НИЧЕС	-9526
▁када	-9527
▁студ	-9528
▁Болга	-9529
хгалтер	-9530
▁нищета	-9531
ОЛНИТЕЛЬ	-9532
▁Прокуро	-9533
▁подобных	-9534
▁получило	-9535
▁уважение	-9536
▁Аргентина	-9537
▁Временные	-9538
▁агентство	-9539
▁операциям	-9540
▁предыдущие	-9541
▁руководством	-9542
вала	-9543
кать	-9544
▁dis	-9545
ованы	-9546
▁1540	-9547
▁цвет	-9548
альный	-9549
▁Воору	-9550
▁личности	-9551
▁обратить	-9552
▁отчетного	-9553
▁инвестиции	-9554
▁Обязательства	-9555
SC	-9556
.3.	-9557
ach	-9558
пат	-9559
чала	-9560
▁1.6	-9561
▁двой	-9562
▁метал	-9563
▁пресс	-9564
▁основа	-9565
▁тормоз	-9566
▁сношения	-9567
▁городских	-9568
▁требующие	-9569
▁компонента	-9570
▁экологических	-9571
▁препятствующие	-9572
/14	-9573
лоп	-9574
▁Сесс	-9575
▁зоны	-9576
▁амери	-9577
▁досту	-9578
▁какая	-9579
▁питание	-9580
▁уполномо	-9581
▁Индонезия	-9582
▁продуктов	-9583
▁касающийся	-9584
▁технология	-9585
▁заболевания	-9586
▁расследование	-9587
28	-9588
КЛЮ	-9589
▁ГЭ	-9590
ТКИЙ	-9591
▁10,	-9592
▁Рам	-9593
▁возро	-9594
▁одобр	-9595
eptember	-9596
▁Зеландии	-9597
▁капитала	-9598
▁придержи	-9599
▁Афганистан	-9600
етах	-9601
▁Суб	-9602
гистра	-9603
▁2006.	-9604
▁транз	-9605
▁школу	-9606
▁отклон	-9607
▁спроса	-9608
тельного	-9609
▁доступе	-9610
нимальные	-9611
▁смертной	-9612
▁средство	-9613
▁Терроризм	-9614
▁Переиздано	-9615
▁постоянных	-9616
▁направлениям	-9617
жное	-9618
▁Лат	-9619
▁ожи	-9620
▁жест	-9621
▁захва	-9622
▁углуб	-9623
▁прошед	-9624
ительным	-9625
▁Партнер	-9626
▁будущей	-9627
▁телефон	-9628
▁вариантов	-9629
▁средствах	-9630
▁тенденция	-9631
▁Предлагается	-9632
▁установлению	-9633
uni	-9634
ИНА	-9635
куль	-9636
ШЕНИИ	-9637
▁Пала	-9638
▁цифр	-9639
▁значи	-9640
▁капит	-9641
▁КРАТКИЙ	-9642
▁арестов	-9643
▁гласить	-9644
▁агрессии	-9645
▁гарантии	-9646
исау	-9647
ration	-9648
▁рынка	-9649
ленного	-9650
тельная	-9651
▁семинар	-9652
▁Министер	-9653
▁Декларация	-9654
▁секретариа	-9655
▁гражданским	-9656
▁Африканского	-9657
eh	-9658
na	-9659
КК	-9660
ЛЕНИЕ	-9661
▁суды	-9662
▁Судан	-9663
▁малых	-9664
надцать	-9665
▁Швеция	-9666
▁процессов	-9667
ities	-9668
▁Молд	-9669
▁Наиболее	-9670
▁отдельные	-9671
УП	-9672
ЕМЫ	-9673
вок	-9674
▁ор	-9675
рина	-9676
▁чаще	-9677
▁годовщи	-9678
▁исчерпа	-9679
▁ПОЛОЖЕНИЯ	-9680
▁испытание	-9681
▁иностранцев	-9682
▁консенсусом	-9683
ЧА	-9684
▁др	-9685
шейся	-9686
▁Эсто	-9687
▁психи	-9688
▁формат	-9689
▁Позиция	-9690
▁внешних	-9691
величение	-9692
▁Казахстан	-9693
▁помещений	-9694
▁дальнейших	-9695
IS	-9696
omm	-9697
РАК	-9698
▁Sh	-9699
▁Leg	-9700
праши	-9701
▁суде	-9702
▁терп	-9703
вающих	-9704
▁номера	-9705
▁объеди	-9706
▁обычных	-9707
▁термина	-9708
▁значительной	-9709
▁установления	-9710
▁региональными	-9711
6-	-9712
Ав	-9713
ксем	-9714
урсы	-9715
▁Роб	-9716
▁бел	-9717
▁ката	-9718
анного	-9719
▁довод	-9720
ставить	-9721
▁Оговор	-9722
▁созданы	-9723
▁отражает	-9724
▁вернуться	-9725
▁приведены	-9726
▁принимают	-9727
▁серьезных	-9728
▁отсутствия	-9729
▁Предсессион	-9730
▁незаконного	-9731
▁закончившийся	-9732
▁стратегических	-9733
ДУ	-9734
урки	-9735
▁107	-9736
▁All	-9737
▁водо	-9738
стояния	-9739
▁Центра	-9740
▁борьбу	-9741
▁провинции	-9742
▁исполнения	-9743
▁вооруженные	-9744
▁уведомление	-9745
▁одновременно	-9746
жь	-9747
ргу	-9748
имба	-9749
▁субъ	-9750
▁Trans	-9751
▁сыграть	-9752
▁Колумбия	-9753
▁Заседания	-9754
▁конкретно	-9755
▁процентах	-9756
▁проверенные	-9757
▁6.8	-9758
▁отрица	-9759
▁просьбе	-9760
▁расписание	-9761
▁совещаниях	-9762
▁international	-9763
.14	-9764
/46	-9765
тро	-9766
дума	-9767
казы	-9768
ород	-9769
эшнл	-9770
▁тогда	-9771
▁Кыргыз	-9772
▁воспит	-9773
▁какого	-9774
▁осозна	-9775
▁давления	-9776
▁адвокатов	-9777
▁оригинала	-9778
▁подпункте	-9779
▁Комментарии	-9780
▁Техническая	-9781
til	-9782
щуюся	-9783
испанс	-9784
▁Париж	-9785
▁Связь	-9786
▁Служба	-9787
▁дополн	-9788
▁расчета	-9789
▁имеющихся	-9790
▁приложению	-9791
▁различными	-9792
▁ab	-9793
▁эп	-9794
ФАКТ	-9795
зион	-9796
тная	-9797
рагуа	-9798
▁логи	-9799
▁2003.	-9800
▁Associ	-9801
▁Centre	-9802
▁Италии	-9803
▁обсуди	-9804
испански	-9805
▁Брифинг	-9806
▁правовые	-9807
▁энергетики	-9808
▁признателен	-9809
▁ЧА	-9810
lands	-9811
Бисау	-9812
▁Лонд	-9813
▁Наши	-9814
▁долю	-9815
▁ПОВЕСТКИ	-9816
▁третьего	-9817
▁сотрудника	-9818
▁всп	-9819
▁всю	-9820
ticip	-9821
жиров	-9822
▁искрен	-9823
▁непрерыв	-9824
▁признает	-9825
▁редакции	-9826
▁ИНФОРМАЦИЯ	-9827
▁дальнейшей	-9828
▁образованию	-9829
▁мероприятиях	-9830
▁национальным	-9831
▁представленных	-9832
)-	-9833
ide	-9834
▁Br	-9835
▁have	-9836
▁контей	-9837
▁ОБЛАСТИ	-9838
▁признать	-9839
▁технические	-9840
▁st	-9841
▁5.3	-9842
-2000	-9843
-2002	-9844
urity	-9845
кратно	-9846
▁(2002	-9847
▁Обнов	-9848
▁реабил	-9849
представ	-9850
▁Ежеднев	-9851
▁адекват	-9852
▁создает	-9853
▁компонент	-9854
▁исправление	-9855
▁(8	-9856
▁84	-9857
треть	-9858
▁ПРИН	-9859
альная	-9860
▁годом	-9861
▁общим	-9862
тельной	-9863
▁ссылку	-9864
▁Бельгии	-9865
▁феврале	-9866
▁Членский	-9867
▁Электрон	-9868
▁скорости	-9869
▁дискуссия	-9870
▁Organization	-9871
▁промышленности	-9872
▁;	-9873
low	-9874
▁(12	-9875
tions	-9876
▁1975	-9877
▁букв	-9878
▁добы	-9879
ategory	-9880
▁эффективной	-9881
med	-9882
▁Жан	-9883
▁Над	-9884
▁пожа	-9885
▁внима	-9886
▁учред	-9887
▁Америке	-9888
▁reported	-9889
▁повышению	-9890
▁вступившие	-9891
▁отчетность	-9892
▁Последующая	-9893
▁составления	-9894
▁Гуманитарная	-9895
▁тему	-9896
▁каждому	-9897
▁примера	-9898
▁уголовный	-9899
▁совместных	-9900
▁заслуживают	-9901
any	-9902
▁ло	-9903
идем	-9904
кадем	-9905
менты	-9906
▁тунн	-9907
eeting	-9908
▁всему	-9909
▁пропис	-9910
▁выдвину	-9911
Пересмотр	-9912
▁комитетом	-9913
▁декларация	-9914
▁контрактов	-9915
▁космическом	-9916
red	-9917
лый	-9918
▁9.	-9919
виле	-9920
роков	-9921
▁оптими	-9922
▁районы	-9923
▁целями	-9924
▁женщина	-9925
▁органах	-9926
▁обращаться	-9927
▁окружающая	-9928
▁гражданство	-9929
▁(14	-9930
зацию	-9931
▁респ	-9932
чаться	-9933
▁рамок	-9934
▁печати	-9935
станавли	-9936
▁Нигерия	-9937
▁ситуациях	-9938
ДРК	-9939
RANS	-9940
aper	-9941
tity	-9942
▁Мне	-9943
ТИСТИ	-9944
▁1988	-9945
▁Прод	-9946
▁упор	-9947
▁Trade	-9948
▁Никто	-9949
▁объяви	-9950
▁Экологи	-9951
▁дебитор	-9952
▁признаку	-9953
▁September	-9954
▁Югославии	-9955
▁конкретным	-9956
▁внутреннему	-9957
bs	-9958
▁гу	-9959
▁Мьянме	-9960
▁месяца	-9961
▁реформ	-9962
▁комитету	-9963
▁культурной	-9964
OR	-9965
ost	-9966
▁Pr	-9967
кред	-9968
▁опи	-9969
ystem	-9970
▁Pers	-9971
▁тема	-9972
▁дубли	-9973
▁месяц	-9974
▁Второе	-9975
▁морских	-9976
▁Разумеется	-9977
▁применению	-9978
▁относящиеся	-9979
▁ап	-9980
имбаб	-9981
▁семи	-9982
тивным	-9983
▁демон	-9984
▁напом	-9985
▁никто	-9986
▁далеко	-9987
ксембург	-9988
▁выделить	-9989
▁Максималь	-9990
▁стихийных	-9991
▁Политические	-9992
iew	-9993
жена	-9994
тным	-9995
▁(18	-9996
▁157	-9997
▁Эту	-9998
▁ЗАЩИ	-9999
▁реализов	-10000
▁Узбекистан	-10001
▁прекратить	-10002
▁Герцеговина	-10003
▁1.4	-10004
▁помимо	-10005
missions	-10006
▁Африканский	-10007
бах	-10008
мит	-10009
▁сух	-10010
ОНАЛЬ	-10011
еноци	-10012
.2/57/	-10013
▁винов	-10014
▁ПРОЕКТ	-10015
▁возрос	-10016
▁такими	-10017
▁предстоя	-10018
▁2002-2005	-10019
▁сокращению	-10020
БР	-10021
ДЖ	-10022
ШИ	-10023
НОЕ	-10024
ьет	-10025
▁ЛИ	-10026
органи	-10027
▁хотим	-10028
▁Public	-10029
▁Австрия	-10030
▁участию	-10031
▁СТАТИСТИ	-10032
▁коммуника	-10033
▁признание	-10034
▁достигнуто	-10035
▁проституции	-10036
▁руководящего	-10037
hem	-10038
▁82	-10039
▁Sur	-10040
▁древ	-10041
▁child	-10042
▁Утвер	-10043
имбабве	-10044
▁превен	-10045
▁Несколько	-10046
▁соблюдать	-10047
▁инвестициям	-10048
▁ограничений	-10049
▁Национального	-10050
/30	-10051
Ста	-10052
▁7:	-10053
▁ЦР	-10054
.157	-10055
отно	-10056
ждено	-10057
▁were	-10058
▁Факс	-10059
Канада	-10060
▁ОРГАН	-10061
▁комна	-10062
▁Материалы	-10063
▁интеграция	-10064
▁компонентов	-10065
Са	-10066
▁4)	-10067
acion	-10068
▁НАЦИЙ	-10069
▁Гвинее	-10070
▁Черного	-10071
▁объявля	-10072
▁прожива	-10073
▁устанавли	-10074
▁голосовании	-10075
▁директивных	-10076
▁предусмотрены	-10077
▁строительство	-10078
уш	-10079
▁96	-10080
▁(2)	-10081
▁министр	-10082
▁предель	-10083
▁персонале	-10084
▁четвертый	-10085
▁БАП	-10086
кость	-10087
щаются	-10088
▁карти	-10089
▁покрытия	-10090
▁бухгалтер	-10091
▁предлагаю	-10092
ana	-10093
▁ПП	-10094
▁3.2	-10095
говых	-10096
мести	-10097
▁News	-10098
▁домо	-10099
▁Действия	-10100
▁Приоритет	-10101
▁публикаций	-10102
▁становятся	-10103
▁Запис	-10104
▁доста	-10105
▁втором	-10106
▁своими	-10107
▁выбросы	-10108
▁вопросник	-10109
▁выражения	-10110
▁ассоциаций	-10111
▁обстановка	-10112
▁программой	-10113
▁эффективно	-10114
▁Факультативный	-10115
*,	-10116
32	-10117
▁109	-10118
▁док	-10119
анным	-10120
▁хода	-10121
▁ДОПОГ	-10122
▁Крите	-10123
▁Мохам	-10124
▁инстан	-10125
▁устные	-10126
▁научные	-10127
▁ассамбле	-10128
▁положить	-10129
▁позитивные	-10130
▁программах	-10131
▁отправления	-10132
▁представлению	-10133
ГР	-10134
дой	-10135
▁уз	-10136
ency	-10137
врат	-10138
▁коп	-10139
полож	-10140
тивов	-10141
▁Тема	-10142
▁критери	-10143
▁уровнем	-10144
ashington	-10145
▁Пакистана	-10146
▁стандарта	-10147
▁чрезвычайных	-10148
/19	-10149
муд	-10150
▁IX	-10151
esti	-10152
ound	-10153
▁Ино	-10154
зиден	-10155
сылки	-10156
▁ведут	-10157
▁Благода	-10158
▁сторона	-10159
▁установки	-10160
▁достигнуты	-10161
▁медицинского	-10162
▁состоявшееся	-10163
РАБ	-10164
▁Внеш	-10165
.5/56/	-10166
▁БАПОР	-10167
▁военные	-10168
▁целевых	-10169
▁группами	-10170
▁переписи	-10171
70	-10172
ocu	-10173
жиг	-10174
▁РАС	-10175
▁обещ	-10176
.2/56/	-10177
▁Резер	-10178
ссийская	-10179
▁Механизмы	-10180
лобализация	-10181
▁необходима	-10182
▁Организацию	-10183
▁докладчиком	-10184
▁значительный	-10185
▁предлагаемый	-10186
▁Возобновленная	-10187
эль	-10188
чист	-10189
▁1981	-10190
▁Одно	-10191
▁Четы	-10192
▁могла	-10193
▁Босния	-10194
▁изучения	-10195
▁экспорта	-10196
▁потребления	-10197
▁предпринять	-10198
▁французский	-10199
ВА	-10200
amb	-10201
омер	-10202
раздо	-10203
▁запа	-10204
лярный	-10205
▁Джама	-10206
▁ссылки	-10207
▁островах	-10208
▁Социальные	-10209
▁Официальное	-10210
▁большинства	-10211
▁обслуживанию	-10212
▁предполагает	-10213
тп	-10214
▁4.2	-10215
▁6.5	-10216
▁app	-10217
РЕНИЕ	-10218
▁note	-10219
▁Газа	-10220
.157/24	-10221
третьих	-10222
▁пересе	-10223
▁моменты	-10224
▁конфликт	-10225
▁Никарагуа	-10226
▁отделений	-10227
▁обеспокоен	-10228
▁администрацией	-10229
-31	-10230
ХОД	-10231
жном	-10232
▁Del	-10233
▁эмб	-10234
▁Турции	-10235
▁гласил	-10236
▁письме	-10237
▁изучить	-10238
▁наличия	-10239
▁Альтерна	-10240
▁участием	-10241
▁должностях	-10242
▁("	-10243
▁cit	-10244
▁Отно	-10245
▁Эква	-10246
▁Произ	-10247
▁ГРУППЫ	-10248
▁смерти	-10249
▁высокой	-10250
▁доверия	-10251
▁стойких	-10252
▁возможные	-10253
▁утвердила	-10254
▁направлены	-10255
▁находились	-10256
мся	-10257
▁Pe	-10258
▁СПС	-10259
▁оба	-10260
▁1985	-10261
▁забы	-10262
▁имею	-10263
ources	-10264
▁начис	-10265
ителями	-10266
▁немедленно	-10267
▁юрисдикции	-10268
-01	-10269
/38	-10270
ари	-10271
.3.4	-10272
▁Фер	-10273
▁носят	-10274
▁цифры	-10275
▁подряд	-10276
рашивает	-10277
▁Трибунал	-10278
▁внесения	-10279
▁зачастую	-10280
▁предпринима	-10281
▁"2	-10282
▁Ве	-10283
▁Хан	-10284
▁пен	-10285
просы	-10286
▁ОТНО	-10287
▁нена	-10288
▁rights	-10289
▁достой	-10290
ЕДИНЕННЫХ	-10291
▁американс	-10292
▁превышает	-10293
▁равноправ	-10294
▁Protection	-10295
▁возражения	-10296
▁юридической	-10297
▁CED	-10298
▁CRC	-10299
▁выш	-10300
енера	-10301
йджан	-10302
▁водос	-10303
▁стиму	-10304
▁шагом	-10305
▁другом	-10306
▁мирового	-10307
▁насилием	-10308
▁принятии	-10309
▁недостаточ	-10310
▁загрязнителей	-10311
ral	-10312
ниц	-10313
хан	-10314
▁12,	-10315
одава	-10316
ograph	-10317
яжение	-10318
▁Итоги	-10319
▁аэропор	-10320
▁должное	-10321
▁существа	-10322
▁Европейское	-10323
▁предложению	-10324
ВТ	-10325
)**	-10326
ори	-10327
гляд	-10328
▁Вла	-10329
голет	-10330
▁основой	-10331
▁примером	-10332
▁отношению	-10333
▁Показатель	-10334
▁признатель	-10335
еда	-10336
▁май	-10337
талия	-10338
▁обоб	-10339
▁пакт	-10340
▁скры	-10341
жества	-10342
▁серед	-10343
овательно	-10344
▁Official	-10345
▁завершен	-10346
▁Интеграция	-10347
▁возвращения	-10348
▁Национальной	-10349
▁строительства	-10350
ij	-10351
ДИ	-10352
анита	-10353
▁Group	-10354
▁Ключе	-10355
▁квали	-10356
▁нашим	-10357
ращение	-10358
▁покупа	-10359
▁данными	-10360
▁сношениям	-10361
▁десятилетия	-10362
▁осуществить	-10363
▁перечислены	-10364
▁Сто	-10365
▁ауди	-10366
▁Дании	-10367
▁Египта	-10368
▁ссылка	-10369
▁усугуб	-10370
▁местном	-10371
▁военного	-10372
▁гарантий	-10373
▁результатам	-10374
БЛ	-10375
/50	-10376
йджа	-10377
лужа	-10378
▁(24	-10379
▁7.1	-10380
▁Work	-10381
▁космо	-10382
▁рыболов	-10383
▁Евростат	-10384
▁которому	-10385
▁поступало	-10386
▁внутренние	-10387
▁готовности	-10388
▁передвижения	-10389
ЗОВ	-10390
▁Nor	-10391
▁Лица	-10392
▁55/25	-10393
▁нашем	-10394
▁новом	-10395
▁ДОКЛАДА	-10396
▁молодых	-10397
▁сделали	-10398
▁Выполнение	-10399
▁Учреждение	-10400
▁населенным	-10401
▁предыдущих	-10402
▁конструкции	-10403
▁принимаемые	-10404
▁направляемые	-10405
▁существующие	-10406
▁подразделения	-10407
ced	-10408
▁79	-10409
еннос	-10410
▁Cons	-10411
▁Пись	-10412
▁Гендер	-10413
▁ответил	-10414
▁услугам	-10415
коренение	-10416
▁передаче	-10417
▁продукты	-10418
Российская	-10419
▁Благодаря	-10420
▁завершено	-10421
▁изнасилов	-10422
▁поколений	-10423
▁распредел	-10424
▁Глобализация	-10425
els	-10426
▁ИЗ	-10427
▁Acc	-10428
▁афган	-10429
▁назем	-10430
▁большую	-10431
▁гораздо	-10432
еннослужа	-10433
▁поставки	-10434
▁длительного	-10435
▁страхования	-10436
мяг	-10437
▁1.2	-10438
ЕНЦИЯ	-10439
Италия	-10440
▁лагер	-10441
▁описы	-10442
▁выдаче	-10443
▁угрозой	-10444
▁Введение	-10445
▁Подробная	-10446
▁безусловно	-10447
▁разъяснения	-10448
uss	-10449
vest	-10450
▁118	-10451
▁бал	-10452
▁маля	-10453
▁Саудов	-10454
▁Америка	-10455
▁муниципа	-10456
▁сообщила	-10457
▁Глобальная	-10458
▁Подкомиссии	-10459
▁юридических	-10460
нт	-10461
ety	-10462
реа	-10463
▁Ro	-10464
/47,	-10465
ines	-10466
арго	-10467
таль	-10468
цена	-10469
▁Йем	-10470
▁вам	-10471
▁мину	-10472
▁трево	-10473
▁ПОПРАВ	-10474
▁Тимора	-10475
▁переиз	-10476
▁партнерами	-10477
▁возвращаюсь	-10478
▁приоритетных	-10479
вязи	-10480
▁мой	-10481
▁Форма	-10482
▁считаю	-10483
▁Функции	-10484
▁вносить	-10485
▁приняло	-10486
▁напомина	-10487
▁всесторон	-10488
▁содействии	-10489
▁пользователей	-10490
Рика	-10491
▁900	-10492
▁Lab	-10493
ended	-10494
ольно	-10495
pecial	-10496
овокуп	-10497
▁ртути	-10498
ющегося	-10499
▁(2001)	-10500
▁бывшей	-10501
▁санита	-10502
▁Системы	-10503
▁единства	-10504
▁миграция	-10505
▁всяческих	-10506
▁Азербайджа	-10507
ip	-10508
ери	-10509
чил	-10510
clud	-10511
▁(13	-10512
циони	-10513
▁исти	-10514
.2/58/	-10515
▁самые	-10516
▁соедин	-10517
▁стабили	-10518
▁твердых	-10519
▁серьезную	-10520
▁Statistics	-10521
▁присоединилась	-10522
33	-10523
▁нема	-10524
ментов	-10525
▁должным	-10526
▁продолжил	-10527
▁медицинское	-10528
ГА	-10529
(1)	-10530
.17	-10531
ins	-10532
▁3-	-10533
▁АС	-10534
нуть	-10535
▁Сер	-10536
▁вол	-10537
▁1986	-10538
▁забо	-10539
▁факуль	-10540
▁превыша	-10541
▁радиоак	-10542
▁участии	-10543
▁КОМИТЕТА	-10544
▁конфликте	-10545
▁страновой	-10546
▁пользуются	-10547
▁предлагаемые	-10548
VI	-10549
ул	-10550
▁бом	-10551
▁спа	-10552
▁Пока	-10553
▁Публи	-10554
▁Совер	-10555
▁отказ	-10556
▁силами	-10557
▁интерак	-10558
▁местные	-10559
▁статусе	-10560
▁Передача	-10561
▁контроли	-10562
▁процессы	-10563
▁планирует	-10564
▁неоднократно	-10565
LO	-10566
ТК	-10567
ated	-10568
▁бума	-10569
рованы	-10570
торами	-10571
▁2007.	-10572
▁товар	-10573
ливания	-10574
▁Данное	-10575
▁совокуп	-10576
▁компаний	-10577
▁ситуаций	-10578
▁наблюдается	-10579
▁развертывания	-10580
▁осуществляются	-10581
als	-10582
eas	-10583
гко	-10584
Фасо	-10585
неры	-10586
форм	-10587
штей	-10588
▁кво	-10589
ствам	-10590
▁допусти	-10591
▁заявили	-10592
▁арабском	-10593
▁Бюджетная	-10594
▁приобрета	-10595
▁достижении	-10596
▁предлагаем	-10597
▁At	-10598
amil	-10599
итера	-10600
▁Stud	-10601
▁Исто	-10602
ляться	-10603
▁ракет	-10604
▁вместо	-10605
▁Джамахи	-10606
▁отметили	-10607
▁пожелать	-10608
▁нуждаются	-10609
▁Люксембург	-10610
▁касающееся	-10611
▁положением	-10612
/53	-10613
▁Sch	-10614
▁воли	-10615
уркина	-10616
▁негра	-10617
▁докладах	-10618
▁стипендий	-10619
▁подростков	-10620
▁периодического	-10621
In	-10622
шру	-10623
▁Эр	-10624
тория	-10625
▁Виль	-10626
▁моря	-10627
ировой	-10628
▁Кипре	-10629
▁Семинар	-10630
▁контрол	-10631
▁полиция	-10632
▁сессиях	-10633
▁бюджетов	-10634
▁нынешний	-10635
▁Искоренение	-10636
▁заключаются	-10637
▁развивающиеся	-10638
ОРА	-10639
жный	-10640
сила	-10641
новид	-10642
щимся	-10643
▁аргу	-10644
▁Abdul	-10645
▁Submit	-10646
▁Задача	-10647
▁кварта	-10648
▁нашему	-10649
▁охрана	-10650
▁эпидем	-10651
▁Итоговый	-10652
▁принципе	-10653
▁проверка	-10654
▁опасность	-10655
▁процессом	-10656
▁родителей	-10657
▁подлежащие	-10658
▁политического	-10659
▁ратифицировала	-10660
HR	-10661
/21	-10662
мую	-10663
▁НИ	-10664
рест	-10665
▁(25	-10666
ектов	-10667
▁чего	-10668
▁(2006	-10669
▁ИСМДП	-10670
▁Исклю	-10671
▁Содру	-10672
▁геноци	-10673
▁неотлож	-10674
▁причиной	-10675
▁двигателя	-10676
кур	-10677
▁Le	-10678
▁20%	-10679
▁Sci	-10680
▁наук	-10681
▁референ	-10682
▁федераль	-10683
▁временной	-10684
▁Записанные	-10685
▁следующему	-10686
ФУ	-10687
.13	-10688
ile	-10689
вол	-10690
ост	-10691
▁"5	-10692
unic	-10693
имая	-10694
коле	-10695
▁11,	-10696
▁Рай	-10697
/2007	-10698
шиеся	-10699
▁Мала	-10700
▁иной	-10701
▁жертвы	-10702
▁задачу	-10703
▁Эритрее	-10704
▁инициативу	-10705
▁восстановление	-10706
▁стратегические	-10707
vis	-10708
▁2-	-10709
▁wh	-10710
▁Coll	-10711
▁Вене	-10712
▁Inter	-10713
▁защитой	-10714
▁улучшить	-10715
▁благодаря	-10716
▁содержать	-10717
IR	-10718
шь	-10719
Dec	-10720
рие	-10721
▁5-	-10722
сали	-10723
кости	-10724
▁1982	-10725
▁Журна	-10726
▁Отдель	-10727
▁термин	-10728
▁алмазов	-10729
▁неизмен	-10730
▁ориенти	-10731
▁реформе	-10732
▁целевые	-10733
▁Хорватия	-10734
▁молчания	-10735
▁Government	-10736
▁внимательно	-10737
циона	-10738
▁Рамо	-10739
▁реки	-10740
▁paras	-10741
▁Смета	-10742
▁солда	-10743
▁судебного	-10744
▁Уголовного	-10745
▁контрактам	-10746
SA	-10747
▁-/	-10748
▁8:	-10749
▁Pop	-10750
▁фами	-10751
▁могло	-10752
▁скорей	-10753
▁угроза	-10754
▁множество	-10755
▁основными	-10756
▁договорных	-10757
51	-10758
itz	-10759
деб	-10760
▁въ	-10761
▁10.	-10762
стами	-10763
▁МПОГ	-10764
▁плат	-10765
челове	-10766
▁Review	-10767
▁Эритре	-10768
▁смежные	-10769
▁Финляндия	-10770
▁оккупации	-10771
▁параллель	-10772
▁Conference	-10773
▁Отсутствие	-10774
▁принципами	-10775
ke	-10776
Пол	-10777
outh	-10778
КЛЮЧ	-10779
▁acc	-10780
замби	-10781
▁Недо	-10782
▁Ангол	-10783
тенштей	-10784
▁восьми	-10785
▁прошли	-10786
ясненных	-10787
▁Federal	-10788
▁Танзания	-10789
▁Института	-10790
▁элементом	-10791
▁постоянной	-10792
▁ДЕЯТЕЛЬНОСТЬ	-10793
mb	-10794
вии	-10795
▁Ам	-10796
▁СОЗ	-10797
ondon	-10798
▁coun	-10799
висимых	-10800
▁особого	-10801
▁расширению	-10802
▁этнических	-10803
▁достаточный	-10804
▁полицейских	-10805
▁проблематики	-10806
▁89	-10807
▁Ай	-10808
▁МИ	-10809
этап	-10810
▁3.4	-10811
▁Лих	-10812
▁прим	-10813
▁умер	-10814
▁Австрии	-10815
▁Критерии	-10816
▁Опубликов	-10817
▁прописных	-10818
▁Подкомитет	-10819
▁Сотрудники	-10820
▁сохранении	-10821
▁грамотности	-10822
Ме	-10823
/20	-10824
Кон	-10825
Япо	-10826
ары	-10827
вож	-10828
сво	-10829
▁du	-10830
▁Эн	-10831
over	-10832
особ	-10833
ящих	-10834
▁sec	-10835
tries	-10836
Ислам	-10837
▁comp	-10838
▁уважа	-10839
▁перегово	-10840
▁редактору	-10841
▁состоялась	-10842
▁присутствие	-10843
▁подчеркивает	-10844
▁применительно	-10845
цо	-10846
ЕГО	-10847
▁3/	-10848
▁us	-10849
▁(17	-10850
▁Мад	-10851
анией	-10852
платы	-10853
▁коле	-10854
Япония	-10855
▁издел	-10856
▁массы	-10857
▁уника	-10858
▁entity	-10859
▁Ираком	-10860
▁Законом	-10861
▁единица	-10862
▁магистра	-10863
▁Заявитель	-10864
▁Исправления	-10865
HRC	-10866
▁син	-10867
▁скор	-10868
▁Конго	-10869
▁корот	-10870
▁подробную	-10871
▁отмечалось	-10872
илем	-10873
▁Ван	-10874
▁ужа	-10875
▁Лиги	-10876
▁Нами	-10877
▁пить	-10878
▁ВСООН	-10879
▁прост	-10880
▁Культу	-10881
▁взгляд	-10882
▁выгоды	-10883
▁лесных	-10884
▁фактов	-10885
▁агентства	-10886
▁замечание	-10887
▁Submitting	-10888
▁находиться	-10889
▁особенности	-10890
▁проведенных	-10891
ЖА	-10892
эй	-10893
ризма	-10894
▁верх	-10895
▁разо	-10896
▁Фиджи	-10897
▁Катего	-10898
▁санкции	-10899
Нидерланд	-10900
▁возникает	-10901
▁беременности	-10902
▁предлагаемого	-10903
22	-10904
ДК	-10905
ллю	-10906
тка	-10907
град	-10908
сток	-10909
чевид	-10910
▁Сбор	-10911
▁вооб	-10912
▁двум	-10913
ustice	-10914
▁Различ	-10915
▁словом	-10916
▁Вариант	-10917
▁частных	-10918
▁жизненно	-10919
▁Сторонами	-10920
▁рассмотрит	-10921
▁председатель	-10922
лор	-10923
▁ind	-10924
▁пат	-10925
▁уче	-10926
▁итоге	-10927
▁снизи	-10928
▁отвеча	-10929
▁Переход	-10930
▁периоде	-10931
▁Коэффици	-10932
▁Название	-10933
▁Лихтенштей	-10934
▁направлять	-10935
▁неотъемлем	-10936
ай	-10937
ян	-10938
are	-10939
паз	-10940
▁[1	-10941
▁11.	-10942
новые	-10943
▁воде	-10944
▁Нельзя	-10945
▁поздрав	-10946
▁старения	-10947
▁фактором	-10948
▁положениям	-10949
/48	-10950
vey	-10951
НИЯ	-10952
cial	-10953
ergy	-10954
▁Ред	-10955
▁Disc	-10956
▁Court	-10957
прежний	-10958
хождение	-10959
▁девочки	-10960
▁размера	-10961
▁Филиппин	-10962
▁заслушал	-10963
▁медицинской	-10964
▁судоходства	-10965
▁установлены	-10966
IM	-10967
ЕЗ	-10968
ЕЧ	-10969
hal	-10970
мир	-10971
▁Алб	-10972
▁Обе	-10973
▁Марти	-10974
▁делает	-10975
▁подачи	-10976
▁частиц	-10977
▁заявила	-10978
▁Возможно	-10979
▁оказании	-10980
▁регионов	-10981
▁свидетеля	-10982
▁Существуют	-10983
▁стрелкового	-10984
▁руководителей	-10985
3-	-10986
лаб	-10987
▁(9	-10988
вижи	-10989
носы	-10990
▁ТЕХ	-10991
▁1999.	-10992
ительная	-10993
▁ожидаем	-10994
▁порожда	-10995
▁разделу	-10996
▁беспокой	-10997
▁воздержав	-10998
▁дальнейшие	-10999
▁планирование	-11000
The	-11001
нут	-11002
▁sh	-11003
мому	-11004
гнори	-11005
▁Plan	-11006
▁Одной	-11007
▁курса	-11008
▁несом	-11009
▁размыш	-11010
▁Рабочие	-11011
▁связанным	-11012
▁региональной	-11013
кс	-11014
нице	-11015
▁Рав	-11016
▁(2000	-11017
▁живут	-11018
▁карто	-11019
ФИЦИАЛЬ	-11020
▁Основными	-11021
▁бесчелове	-11022
▁поверхност	-11023
IC	-11024
гая	-11025
▁aw	-11026
▁Сх	-11027
хлоп	-11028
▁Джи	-11029
▁све	-11030
▁узна	-11031
явление	-11032
▁объекты	-11033
нительная	-11034
Соединенное	-11035
▁организацию	-11036
▁подвергаются	-11037
▁практических	-11038
уа	-11039
ean	-11040
еса	-11041
▁el	-11042
риев	-11043
▁Def	-11044
▁РЕШ	-11045
▁тон	-11046
носит	-11047
щению	-11048
▁1979	-11049
▁рыно	-11050
▁пособие	-11051
▁целевой	-11052
▁ПРАВИЛАМ	-11053
▁источника	-11054
▁контракта	-11055
▁недостатки	-11056
▁проводились	-11057
.27	-11058
stal	-11059
▁най	-11060
нятие	-11061
▁иное	-11062
ultural	-11063
▁Призна	-11064
▁дохода	-11065
▁модель	-11066
▁режиме	-11067
▁устный	-11068
▁Бельгия	-11069
▁ПРЕДЛОЖ	-11070
▁повысить	-11071
▁серьезной	-11072
▁составила	-11073
▁конкуренции	-11074
▁официальное	-11075
▁гуманитарная	-11076
▁промышленного	-11077
ТЕГ	-11078
ures	-11079
кура	-11080
пами	-11081
▁Выс	-11082
кации	-11083
нских	-11084
судеб	-11085
▁Исла	-11086
▁деву	-11087
тность	-11088
▁Плани	-11089
▁Польша	-11090
▁единиц	-11091
▁МООНДРК	-11092
▁лишения	-11093
▁элемент	-11094
▁семинары	-11095
▁Вынесение	-11096
▁гендерных	-11097
▁Аналогичные	-11098
▁Социальному	-11099
▁пользоваться	-11100
▁сталкиваются	-11101
▁формулировку	-11102
29	-11103
ЕПАД	-11104
▁РЕК	-11105
▁(2003	-11106
▁возна	-11107
▁Взносы	-11108
▁Шестой	-11109
▁Соответств	-11110
▁глобальном	-11111
▁фактически	-11112
▁сталкивается	-11113
▁предоставляет	-11114
69	-11115
СО	-11116
▁Aug	-11117
ility	-11118
tical	-11119
врати	-11120
овано	-11121
опера	-11122
редко	-11123
▁база	-11124
▁близ	-11125
▁образца	-11126
▁Арабской	-11127
▁Чрезвычай	-11128
▁Расписание	-11129
▁руководству	-11130
▁впоследствии	-11131
чка	-11132
ссив	-11133
стные	-11134
▁Алжи	-11135
▁First	-11136
▁Прежде	-11137
▁Румыния	-11138
▁Сводная	-11139
▁долларов	-11140
▁Воздействие	-11141
▁Региональный	-11142
▁содержащуюся	-11143
enti	-11144
▁121	-11145
thers	-11146
нэшнл	-11147
▁____	-11148
▁пробел	-11149
▁равной	-11150
▁успехи	-11151
stalment	-11152
▁взносам	-11153
▁усилиям	-11154
▁вознагра	-11155
▁получает	-11156
▁адаптации	-11157
▁наблюдатели	-11158
▁оперативные	-11159
фе	-11160
▁Bo	-11161
▁ВП	-11162
▁ПГ	-11163
бреги	-11164
▁Элем	-11165
▁вовле	-11166
▁пожилых	-11167
▁Индонезии	-11168
▁Нарушения	-11169
▁ближайшее	-11170
▁промышленных	-11171
▁расследований	-11172
ft	-11173
беж	-11174
▁2(	-11175
ador	-11176
щают	-11177
стная	-11178
▁нере	-11179
▁калиб	-11180
▁минут	-11181
ционное	-11182
▁граждане	-11183
▁обществе	-11184
▁консенсус	-11185
▁Всеобъемлю	-11186
▁нижеследую	-11187
ОЩ	-11188
енг	-11189
види	-11190
▁оре	-11191
▁ICCPR	-11192
▁факты	-11193
▁СЕФАКТ	-11194
▁сможем	-11195
▁выплачи	-11196
Исламская	-11197
▁тенденций	-11198
4-	-11199
▁ЕМ	-11200
▁Йо	-11201
▁ею	-11202
венад	-11203
жнего	-11204
▁Legal	-11205
▁токси	-11206
▁Canada	-11207
▁наращи	-11208
▁высшего	-11209
▁граница	-11210
ображения	-11211
▁приводит	-11212
Нидерланды	-11213
▁предназна	-11214
▁обвиняемых	-11215
▁Гражданские	-11216
▁продолжаться	-11217
▁Следовательно	-11218
UN	-11219
оме	-11220
▁pers	-11221
▁базе	-11222
.3/57/	-11223
▁Семей	-11224
▁давно	-11225
▁Сирийская	-11226
▁важнейших	-11227
▁политическая	-11228
▁]	-11229
/49	-11230
uty	-11231
▁Ge	-11232
▁МГ	-11233
inal	-11234
▁12.	-11235
▁2.7	-11236
▁Тим	-11237
▁гол	-11238
▁King	-11239
▁домов	-11240
▁трудя	-11241
венадца	-11242
▁Очеред	-11243
▁принес	-11244
▁строго	-11245
▁счетам	-11246
▁Мексики	-11247
▁составляла	-11248
▁специальное	-11249
aw	-11250
/45	-11251
лее	-11252
▁"3	-11253
нный	-11254
▁Объ	-11255
▁Пет	-11256
▁Уже	-11257
отсва	-11258
▁Инди	-11259
▁жить	-11260
▁нефти	-11261
тельное	-11262
▁Каковы	-11263
▁вызовы	-11264
▁придает	-11265
▁Зимбабве	-11266
▁отвечать	-11267
▁трибунал	-11268
▁управлен	-11269
▁остальных	-11270
▁позвольте	-11271
▁составили	-11272
УС	-11273
▁5)	-11274
▁DC	-11275
▁IN	-11276
▁сор	-11277
▁стан	-11278
только	-11279
▁Концеп	-11280
▁девять	-11281
ниторинг	-11282
▁включающий	-11283
▁Association	-11284
▁действующих	-11285
▁определенных	-11286
▁опубликованы	-11287
▁перемещенные	-11288
▁предложенные	-11289
▁Экономическому	-11290
":	-11291
▁reg	-11292
▁озер	-11293
▁открыто	-11294
▁предъявля	-11295
▁составляли	-11296
▁уменьшение	-11297
▁управлению	-11298
мыми	-11299
ющем	-11300
Джеру	-11301
залем	-11302
мации	-11303
▁Unit	-11304
▁Поли	-11305
▁Ливий	-11306
▁выдачи	-11307
▁одному	-11308
▁взрывча	-11309
▁неформа	-11310
▁снижение	-11311
▁торговой	-11312
Джерузалем	-11313
▁включении	-11314
▁планированию	-11315
▁активизировать	-11316
-00	-11317
act	-11318
aid	-11319
ree	-11320
сер	-11321
шир	-11322
▁GC	-11323
▁вд	-11324
▁Сум	-11325
льным	-11326
▁Само	-11327
▁сосу	-11328
▁Будут	-11329
▁ВКЛЮЧ	-11330
▁разные	-11331
▁отдельно	-11332
▁стремится	-11333
▁физической	-11334
▁военнослужа	-11335
▁подпрограммы	-11336
▁способствует	-11337
▁представители	-11338
36	-11339
▁3(	-11340
▁(20	-11341
▁зон	-11342
вшего	-11343
▁иллю	-11344
▁моду	-11345
женные	-11346
▁Каким	-11347
▁насиль	-11348
▁номина	-11349
▁особой	-11350
▁августе	-11351
▁разделя	-11352
▁субреги	-11353
▁Ответств	-11354
▁проделан	-11355
▁Секретарю	-11356
▁несомненно	-11357
НП	-11358
old	-11359
▁Ши	-11360
ряду	-11361
▁3-5	-11362
▁Вод	-11363
-2010	-11364
▁Силы	-11365
▁(2005	-11366
▁начал	-11367
стабиль	-11368
▁claims	-11369
▁перечня	-11370
▁эмбарго	-11371
▁очевидно	-11372
▁участвуют	-11373
▁количестве	-11374
▁информационной	-11375
57	-11376
Ру	-11377
ais	-11378
▁NO	-11379
дага	-11380
▁моя	-11381
лемых	-11382
ретен	-11383
▁ЕМЕП	-11384
▁поме	-11385
▁библи	-11386
▁итоги	-11387
▁отстав	-11388
▁полный	-11389
▁Ресурсы	-11390
Восточной	-11391
▁ключевые	-11392
▁приобретения	-11393
ior	-11394
тари	-11395
/2008	-11396
щийся	-11397
▁неле	-11398
нителя	-11399
▁подры	-11400
▁Македо	-11401
▁Очевид	-11402
ституция	-11403
▁вакансий	-11404
▁составлял	-11405
▁участвует	-11406
▁ликвидация	-11407
▁Статистические	-11408
.5.	-11409
hed	-11410
ning	-11411
Слов	-11412
мана	-11413
шеход	-11414
ЧЕСКИЕ	-11415
▁human	-11416
▁прида	-11417
▁Лондон	-11418
▁Уганды	-11419
▁адресу	-11420
▁выхлоп	-11421
▁запраши	-11422
▁Малайзия	-11423
▁избежать	-11424
▁морского	-11425
▁разрабаты	-11426
▁партнерских	-11427
▁сообществом	-11428
▁эффективные	-11429
/42	-11430
▁КЛ	-11431
▁this	-11432
▁Круг	-11433
▁ЦРДТ	-11434
ерусали	-11435
▁August	-11436
▁сроков	-11437
▁Таиланд	-11438
▁домашних	-11439
▁получать	-11440
▁прочного	-11441
▁согласны	-11442
▁Рекоменду	-11443
▁интересам	-11444
▁потребует	-11445
▁поверхности	-11446
dom	-11447
зию	-11448
▁ОЦ	-11449
щаяся	-11450
▁Пеки	-11451
▁(2004	-11452
▁СПИДом	-11453
▁древес	-11454
▁Голосов	-11455
▁аналити	-11456
▁естеств	-11457
▁недвижи	-11458
▁Минималь	-11459
▁Постанов	-11460
▁договори	-11461
▁подписав	-11462
AP	-11463
RF	-11464
мый	-11465
оро	-11466
▁Ат	-11467
бель	-11468
▁СНГ	-11469
▁море	-11470
▁факс	-11471
няются	-11472
▁судах	-11473
▁скобки	-11474
vestment	-11475
ленность	-11476
▁Нигерии	-11477
следствие	-11478
▁довольно	-11479
▁заявляет	-11480
▁уважения	-11481
▁функциони	-11482
▁прилагается	-11483
▁Монреальского	-11484
▁насчитывается	-11485
нг	-11486
ind	-11487
its	-11488
пон	-11489
мати	-11490
емому	-11491
старе	-11492
▁пятый	-11493
▁валюта	-11494
▁своему	-11495
▁Камерун	-11496
▁привело	-11497
▁следить	-11498
▁кампании	-11499
▁Мониторинг	-11500
▁накаливания	-11501
▁стабилизации	-11502
БД	-11503
ВС	-11504
ЕРА	-11505
Пред	-11506
вклю	-11507
▁Опы	-11508
льная	-11509
▁ступ	-11510
ворить	-11511
▁отсле	-11512
▁соеди	-11513
▁игнори	-11514
▁Эксперт	-11515
▁учитывая	-11516
▁Делегации	-11517
▁договорам	-11518
▁отдельным	-11519
▁увеличить	-11520
▁кандидатур	-11521
▁предложила	-11522
▁африканского	-11523
▁инвалидности	-11524
▁определяются	-11525
▁Информационная	-11526
.24	-11527
олк	-11528
нила	-11529
▁10:	-11530
▁Выше	-11531
▁север	-11532
▁Бахрей	-11533
▁вообще	-11534
▁ранения	-11535
▁Беларуси	-11536
▁заведения	-11537
▁страдания	-11538
▁Независимы	-11539
▁воздействию	-11540
▁Национальное	-11541
▁Председатели	-11542
▁предложением	-11543
▁наркотическими	-11544
МТ	-11545
Аль	-11546
▁9:	-11547
груп	-11548
полу	-11549
тике	-11550
РАКТИ	-11551
▁1973	-11552
▁искус	-11553
▁ПРАКТИ	-11554
▁развед	-11555
ственные	-11556
▁ежеднев	-11557
▁ожидает	-11558
▁генераль	-11559
▁контроле	-11560
▁разновид	-11561
▁изменении	-11562
▁указывает	-11563
▁постоянного	-11564
▁Эффективность	-11565
▁многочисленные	-11566
ECE	-11567
ТЕР	-11568
.1)]	-11569
стям	-11570
▁Хай	-11571
▁гтп	-11572
▁зву	-11573
-1999	-11574
▁1984	-11575
▁поле	-11576
▁сцена	-11577
например	-11578
▁Молдова	-11579
▁выпуска	-11580
▁предъяв	-11581
▁внесении	-11582
▁защищать	-11583
▁критериев	-11584
▁содействию	-11585
▁капитального	-11586
▁обязательным	-11587
0-	-11588
ale	-11589
цел	-11590
ОМЕН	-11591
▁119	-11592
▁122	-11593
▁Rel	-11594
▁imp	-11595
▁зай	-11596
▁лам	-11597
руемых	-11598
шаются	-11599
▁Намиб	-11600
▁столк	-11601
▁Началь	-11602
▁контра	-11603
▁конфис	-11604
▁первые	-11605
▁моделей	-11606
▁Обучение	-11607
▁Судебная	-11608
▁обладает	-11609
▁жилищного	-11610
▁обработки	-11611
▁Финансовое	-11612
▁подчеркнул	-11613
▁сохраняются	-11614
▁реинтеграции	-11615
▁существующий	-11616
Ев	-11617
ОПОГ	-11618
пуль	-11619
стое	-11620
▁128	-11621
▁тонн	-11622
▁явно	-11623
ленное	-11624
▁дорог	-11625
дагаска	-11626
▁здания	-11627
▁недель	-11628
▁делается	-11629
▁половине	-11630
▁допустить	-11631
▁Десятилетие	-11632
▁Техническое	-11633
▁организацией	-11634
▁Экономической	-11635
PE	-11636
▁МТ	-11637
▁Оп	-11638
.5.2	-11639
▁Jud	-11640
▁Tra	-11641
▁Бал	-11642
▁Сент	-11643
▁неко	-11644
оружение	-11645
▁выделены	-11646
▁местного	-11647
▁выражение	-11648
▁подробные	-11649
▁преподава	-11650
▁расширить	-11651
ЭС	-11652
.16	-11653
вую	-11654
▁цер	-11655
▁Вьет	-11656
▁Теку	-11657
.5/55/	-11658
жность	-11659
▁Претен	-11660
▁распис	-11661
▁сроком	-11662
▁нормаль	-11663
▁Оговорки	-11664
▁методологии	-11665
CRP	-11666
▁It	-11667
▁101	-11668
▁Pal	-11669
▁ТЗА	-11670
поряд	-11671
▁Educ	-11672
▁вето	-11673
▁смяг	-11674
ermany	-11675
потреб	-11676
▁плану	-11677
Мировой	-11678
ционным	-11679
▁обнаде	-11680
▁просьб	-11681
▁большим	-11682
▁поставок	-11683
▁преобраз	-11684
▁размеров	-11685
▁создавать	-11686
▁ОРГАНИЗАЦИЯ	-11687
▁соблюдением	-11688
66	-11689
Рез	-11690
шое	-11691
(2)(	-11692
ariat	-11693
▁Алжир	-11694
▁Редак	-11695
▁сможет	-11696
▁списка	-11697
▁Венской	-11698
▁диаметр	-11699
▁питьевой	-11700
▁давлением	-11701
▁сектораль	-11702
▁состоялся	-11703
▁сообществу	-11704
▁стремиться	-11705
▁прекращение	-11706
▁ПЯ	-11707
▁през	-11708
▁Deputy	-11709
▁желаем	-11710
▁оружию	-11711
▁выразили	-11712
▁гарантирует	-11713
▁подготовить	-11714
шло	-11715
ject	-11716
▁Ali	-11717
▁Брю	-11718
сайта	-11719
сылка	-11720
▁голода	-11721
▁сложной	-11722
▁Исламской	-11723
▁Washington	-11724
▁документах	-11725
▁ОРГАНИЗАЦИИ	-11726
▁Прекращение	-11727
▁объясняется	-11728
▁Спецификация	-11729
▁приверженности	-11730
ВЕР	-11731
дра	-11732
ома	-11733
▁De	-11734
▁"...	-11735
черкну	-11736
четвер	-11737
▁посещ	-11738
▁решил	-11739
▁ухода	-11740
нимание	-11741
▁полную	-11742
▁Воздерж	-11743
▁РЕКОМЕН	-11744
▁Эфиопия	-11745
▁вызывают	-11746
▁жизненный	-11747
▁нападений	-11748
▁удаляется	-11749
▁Минимальные	-11750
▁извлеченные	-11751
▁национальными	-11752
РУД	-11753
унд	-11754
▁Ed	-11755
арец	-11756
▁Case	-11757
▁Кита	-11758
▁Крас	-11759
▁гонки	-11760
▁жилье	-11761
▁кодек	-11762
▁маршру	-11763
▁Эквадор	-11764
▁говорят	-11765
▁материн	-11766
чительный	-11767
▁комиссар	-11768
▁осуждает	-11769
▁перехода	-11770
▁Отношения	-11771
▁нестабиль	-11772
▁признается	-11773
▁мероприятие	-11774
▁Министерства	-11775
▁пересмотреть	-11776
▁предлагаемых	-11777
▁Международным	-11778
▁обеспечивается	-11779
43	-11780
uel	-11781
меча	-11782
▁сама	-11783
межуточ	-11784
▁первых	-11785
▁тексты	-11786
▁Стандарты	-11787
▁ситуацией	-11788
▁Воздержались	-11789
▁общественного	-11790
cia	-11791
ica	-11792
чики	-11793
▁4.3	-11794
▁Imp	-11795
▁Веб	-11796
▁учт	-11797
▁тоже	-11798
▁CEDAW	-11799
▁Буркина	-11800
▁наиболь	-11801
▁Маврикий	-11802
▁изложить	-11803
▁ценности	-11804
▁выполнены	-11805
▁экосистем	-11806
▁СОЦИАЛЬНЫЕ	-11807
▁согласились	-11808
▁представителем	-11809
rid	-11810
tor	-11811
НТА	-11812
циар	-11813
▁Бен	-11814
▁вар	-11815
▁доли	-11816
▁лива	-11817
бюджет	-11818
▁энерги	-11819
▁Мозамби	-11820
▁Чешская	-11821
▁определен	-11822
▁предметом	-11823
▁затрагивает	-11824
▁эффективных	-11825
▁человеческого	-11826
82	-11827
err	-11828
НИЧ	-11829
СОР	-11830
▁4/	-11831
▁мг	-11832
ЮЩИХ	-11833
шель	-11834
▁шест	-11835
способ	-11836
▁Малави	-11837
▁Расчет	-11838
▁аккред	-11839
▁семьям	-11840
▁отмечая	-11841
▁рабства	-11842
▁условии	-11843
▁страдают	-11844
▁претензия	-11845
▁изложенные	-11846
кло	-11847
▁ВОК	-11848
▁Обы	-11849
испол	-11850
▁1244	-11851
▁Fund	-11852
▁Кипр	-11853
▁Катар	-11854
▁лидер	-11855
венство	-11856
работке	-11857
▁ВОКНТА	-11858
▁высоком	-11859
▁ядерное	-11860
▁Security	-11861
▁инфляции	-11862
▁подходов	-11863
▁запрещении	-11864
▁профсоюзов	-11865
GC	-11866
ese	-11867
язы	-11868
енитен	-11869
▁НЕПАД	-11870
▁Тимор	-11871
▁отвод	-11872
▁ареста	-11873
▁отчетов	-11874
▁вебсайте	-11875
▁отмечаем	-11876
▁убийства	-11877
енитенциар	-11878
▁намерение	-11879
▁Увеличение	-11880
▁Урегулиров	-11881
▁законности	-11882
▁культурным	-11883
▁программами	-11884
▁нетерпимости	-11885
БО	-11886
▁МЕР	-11887
▁Опыт	-11888
▁Того	-11889
▁Турк	-11890
erland	-11891
Гаарец	-11892
▁РАБОЧ	-11893
▁издан	-11894
▁путей	-11895
▁London	-11896
▁Каждая	-11897
▁прочих	-11898
▁подобные	-11899
▁развитые	-11900
▁отражение	-11901
▁утвержден	-11902
▁территорию	-11903
▁дебиторской	-11904
▁посвященный	-11905
▁признательны	-11906
▁ЭКОНОМИЧЕСКИЕ	-11907
▁экологического	-11908
SR	-11909
.21	-11910
.4.	-11911
ОРЫ	-11912
рис	-11913
ters	-11914
КООН	-11915
вшая	-11916
тоци	-11917
▁ГРА	-11918
▁Ува	-11919
▁жир	-11920
▁стр	-11921
звали	-11922
▁замо	-11923
еморан	-11924
▁trans	-11925
▁равных	-11926
▁Основной	-11927
▁советник	-11928
▁оказались	-11929
▁присоединиться	-11930
iii	-11931
par	-11932
▁МВ	-11933
.7.1	-11934
▁125	-11935
▁прер	-11936
▁языка	-11937
ocument	-11938
▁ПРОЦЕС	-11939
▁особых	-11940
▁пассив	-11941
▁прекра	-11942
▁нынешнем	-11943
▁президен	-11944
▁проведет	-11945
▁временных	-11946
▁Социальное	-11947
▁вышеупомяну	-11948
▁корректировки	-11949
▁углер	-11950
▁тормож	-11951
▁улучши	-11952
▁провели	-11953
▁........	-11954
▁category	-11955
▁ЗАСЕДАНИЯ	-11956
▁основание	-11957
▁спутников	-11958
▁хозяйстве	-11959
▁надлежащей	-11960
▁стимулиров	-11961
▁комментарий	-11962
▁обследование	-11963
▁определенный	-11964
ix	-11965
ans	-11966
оба	-11967
▁02	-11968
▁ОК	-11969
▁ум	-11970
▁130	-11971
части	-11972
▁Ливан	-11973
▁вмеша	-11974
▁охват	-11975
essment	-11976
▁Аравия	-11977
▁Уганда	-11978
▁Наблюда	-11979
▁произой	-11980
▁миллиона	-11981
▁поставлю	-11982
▁возможное	-11983
▁пассажиров	-11984
▁реформиров	-11985
▁устройство	-11986
▁исполнитель	-11987
▁культурного	-11988
▁препятствий	-11989
▁используемых	-11990
▁81	-11991
нюдь	-11992
▁10-	-11993
▁ВЫБ	-11994
▁Тай	-11995
▁Учеб	-11996
▁доба	-11997
▁убед	-11998
▁услы	-11999
▁фото	-12000
.3/58/	-12001
▁снима	-12002
низация	-12003
▁(2000)	-12004
▁Европа	-12005
▁перейти	-12006
▁средних	-12007
▁уязвимых	-12008
▁проходить	-12009
▁убеждений	-12010
▁КУЛЬТУРНЫЕ	-12011
▁присуждать	-12012
▁разрешение	-12013
▁увеличения	-12014
▁многосторон	-12015
▁согласование	-12016
.23	-12017
oint	-12018
рена	-12019
▁Pre	-12020
▁Гол	-12021
▁юго	-12022
▁Край	-12023
носить	-12024
▁иного	-12025
▁телес	-12026
▁камеры	-12027
▁Американс	-12028
▁направлений	-12029
▁Урегулирование	-12030
55	-12031
▁%	-12032
rac	-12033
ури	-12034
▁КМ	-12035
ices	-12036
lish	-12037
бота	-12038
голо	-12039
ящие	-12040
▁Дур	-12041
▁кПа	-12042
lease	-12043
▁Inte	-12044
▁запу	-12045
.3/62/	-12046
▁абзац	-12047
▁азиат	-12048
▁созна	-12049
▁Базель	-12050
▁лабора	-12051
▁Просьбы	-12052
▁журнали	-12053
▁Механизм	-12054
▁неизвест	-12055
▁рациональ	-12056
▁завершение	-12057
▁поддержания	-12058
▁подготовлены	-12059
31	-12060
КПТ	-12061
гий	-12062
лок	-12063
выми	-12064
▁моло	-12065
▁косну	-12066
▁свете	-12067
▁сноски	-12068
▁Justice	-12069
▁Перевоз	-12070
▁прениях	-12071
▁туризма	-12072
▁изучение	-12073
▁высказаны	-12074
▁террористов	-12075
▁общественных	-12076
▁сид	-12077
резмер	-12078
▁лицом	-12079
▁партий	-12080
▁Армения	-12081
▁Причины	-12082
▁беженцы	-12083
▁брифинги	-12084
▁различным	-12085
▁заполнения	-12086
▁взаимосвязь	-12087
▁конференциям	-12088
▁солидарность	-12089
▁Необходимость	-12090
▁Обязательство	-12091
lor	-12092
дах	-12093
лит	-12094
ОВОЙ	-12095
uality	-12096
agement	-12097
olution	-12098
нологии	-12099
▁отнюдь	-12100
▁служат	-12101
▁властей	-12102
▁широкий	-12103
▁активную	-12104
▁временем	-12105
▁несмотря	-12106
▁суверени	-12107
▁постепенно	-12108
▁Технические	-12109
pa	-12110
ьют	-12111
▁Ac	-12112
▁Ph	-12113
ivil	-12114
ОСУД	-12115
▁Sup	-12116
▁Дол	-12117
▁1967	-12118
▁Ибра	-12119
▁ряду	-12120
▁цикл	-12121
графии	-12122
ителям	-12123
продук	-12124
▁открыл	-12125
▁сделала	-12126
▁включена	-12127
▁изданных	-12128
▁торговых	-12129
▁Population	-12130
▁разработаны	-12131
▁Предсессионная	-12132
риг	-12133
сен	-12134
цах	-12135
▁ль	-12136
ОГЛА	-12137
▁Мун	-12138
ional	-12139
▁Коне	-12140
▁Конф	-12141
.2/59/	-12142
▁Гонду	-12143
▁блока	-12144
▁оформ	-12145
▁Руанды	-12146
▁обраща	-12147
▁большее	-12148
▁одобрил	-12149
▁явления	-12150
▁Действие	-12151
▁наследия	-12152
▁сектором	-12153
▁убеждены	-12154
▁определяет	-12155
▁Комментарий	-12156
▁пространство	-12157
▁специального	-12158
▁постановление	-12159
УН	-12160
ИЧЕС	-12161
▁Рей	-12162
-2008	-12163
▁Сеть	-12164
▁Этим	-12165
▁идеи	-12166
▁попе	-12167
ленным	-12168
▁Energy	-12169
▁затруд	-12170
▁паспор	-12171
▁лесного	-12172
▁согласен	-12173
▁инстанции	-12174
▁инцидента	-12175
▁дальнейшее	-12176
▁эффективное	-12177
.7,	-12178
▁92	-12179
▁un	-12180
▁Nos	-12181
▁Tel	-12182
▁Усп	-12183
▁фон	-12184
чиком	-12185
диница	-12186
ряется	-12187
▁6.2.2	-12188
▁сопря	-12189
▁требу	-12190
earbook	-12191
▁ранены	-12192
▁широкое	-12193
▁инфициров	-12194
▁космических	-12195
▁продвижения	-12196
▁благоприятные	-12197
▁дискриминация	-12198
Исп	-12199
илу	-12200
▁",	-12201
ants	-12202
▁114	-12203
▁Мор	-12204
ЖЕНИЯ	-12205
браны	-12206
▁Ведо	-12207
▁Фолк	-12208
▁сове	-12209
▁(1999	-12210
▁5.2.1	-12211
▁СОГЛА	-12212
▁борту	-12213
▁прямо	-12214
▁рынки	-12215
▁Africa	-12216
▁камера	-12217
▁примем	-12218
▁Очевидно	-12219
▁занимают	-12220
▁пассажир	-12221
▁коренного	-12222
▁сократить	-12223
▁Соблюдение	-12224
▁Азербайджан	-12225
ВР	-12226
нда	-12227
тил	-12228
▁1(	-12229
акци	-12230
жить	-12231
овок	-12232
ession	-12233
▁Пенси	-12234
▁непол	-12235
▁Corpor	-12236
▁Gender	-12237
конструк	-12238
▁Имеются	-12239
▁Кувейта	-12240
▁авиации	-12241
▁средней	-12242
▁Mohammad	-12243
▁нагрузки	-12244
▁Джамахирия	-12245
▁рекомендовал	-12246
▁дополнительно	-12247
IDB	-12248
поз	-12249
шек	-12250
дами	-12251
няют	-12252
▁been	-12253
▁Пана	-12254
▁знак	-12255
.2/60/	-12256
Статья	-12257
годарю	-12258
▁Дания	-12259
▁организ	-12260
▁формаль	-12261
▁Иерусали	-12262
▁Туркмени	-12263
▁названия	-12264
▁хранение	-12265
▁сопровожда	-12266
▁спрашивает	-12267
▁КОНФЕРЕНЦИЯ	-12268
▁Председателю	-12269
▁экономический	-12270
65	-12271
див	-12272
брал	-12273
▁Bar	-12274
▁ECE	-12275
▁спо	-12276
▁Лишь	-12277
▁Проф	-12278
патриа	-12279
▁963-9	-12280
▁думаю	-12281
▁заявок	-12282
▁старше	-12283
▁Kingdom	-12284
▁Группой	-12285
▁делегатов	-12286
▁предыдущим	-12287
)".	-12288
▁5/	-12289
▁Dr	-12290
▁Lt	-12291
▁Ne	-12292
алог	-12293
▁Пан	-12294
▁Chem	-12295
▁Нача	-12296
▁лежа	-12297
▁мера	-12298
▁растет	-12299
▁Company	-12300
▁Недавно	-12301
▁Целевые	-12302
▁доллара	-12303
▁советом	-12304
▁Фолкленд	-12305
▁правовая	-12306
▁ресурсам	-12307
▁свободно	-12308
▁Гватемала	-12309
▁Карибский	-12310
▁непостоян	-12311
▁оказывают	-12312
▁ходатайство	-12313
▁Ah	-12314
▁EC	-12315
▁тя	-12316
пень	-12317
▁113	-12318
▁ВОО	-12319
▁cons	-12320
▁Азия	-12321
▁взры	-12322
▁навы	-12323
Швейца	-12324
▁ПРИНЯ	-12325
▁казнь	-12326
▁нераз	-12327
▁Member	-12328
▁диапаз	-12329
▁тюрьмах	-12330
▁рассказа	-12331
rimination	-12332
Международ	-12333
▁имеющиеся	-12334
▁показания	-12335
▁европейских	-12336
▁подтвердить	-12337
▁стабильность	-12338
ОЛН	-12339
чили	-12340
▁(11	-12341
▁3.3	-12342
▁sup	-12343
▁могу	-12344
▁риск	-12345
▁набор	-12346
десятая	-12347
Швейцария	-12348
▁Благодарю	-12349
▁разработку	-12350
▁Глобального	-12351
▁согласилась	-12352
▁загрязнителя	-12353
▁Инспекционная	-12354
▁предупреждение	-12355
лого	-12356
▁14,	-12357
▁8.1	-12358
▁App	-12359
▁XII	-12360
▁Язы	-12361
▁арх	-12362
▁опро	-12363
▁Austr	-12364
▁offic	-12365
▁бытов	-12366
▁Медици	-12367
▁особые	-12368
есообраз	-12369
▁издания	-12370
▁перевед	-12371
▁уровней	-12372
itzerland	-12373
▁выбросах	-12374
▁Венесуэла	-12375
▁ТРАНСПОРТ	-12376
▁бюджетных	-12377
▁разработан	-12378
OP	-12379
.4,	-12380
out	-12381
ссо	-12382
▁103	-12383
▁пом	-12384
▁пыт	-12385
Ланка	-12386
ТЕГОР	-12387
▁ОВОС	-12388
.3/59/	-12389
▁знаков	-12390
▁America	-12391
▁адвокат	-12392
▁Ирландия	-12393
▁ОФИЦИАЛЬ	-12394
▁насколько	-12395
▁произошли	-12396
▁направлена	-12397
▁образовании	-12398
/31	-12399
дом	-12400
▁91	-12401
▁жид	-12402
может	-12403
▁GRSP	-12404
▁нату	-12405
ваемой	-12406
▁Пособ	-12407
▁унижа	-12408
▁импуль	-12409
▁решено	-12410
▁десятой	-12411
▁НАЦИОНАЛЬ	-12412
▁апелляции	-12413
▁настоящим	-12414
▁поправкой	-12415
▁ценностей	-12416
▁Поддержание	-12417
▁Секретариату	-12418
▁развивающимися	-12419
СУ	-12420
исти	-12421
хран	-12422
▁CAT	-12423
▁лаг	-12424
льном	-12425
▁РАСС	-12426
ГРАНИЧ	-12427
грузки	-12428
▁Agric	-12429
▁Наука	-12430
▁столи	-12431
▁France	-12432
▁Сахары	-12433
▁Усилия	-12434
▁достиг	-12435
▁Примеры	-12436
▁говорил	-12437
▁привиле	-12438
▁перевода	-12439
▁концепция	-12440
▁ИСПОЛНИТЕЛЬ	-12441
▁палестинскому	-12442
▁"1	-12443
ford	-12444
▁китай	-12445
Бразили	-12446
▁важная	-12447
▁тревож	-12448
▁Особенно	-12449
▁ответить	-12450
▁авторитет	-12451
▁reportedly	-12452
▁Коэффициент	-12453
▁возникающие	-12454
▁квалификации	-12455
.20	-12456
.5,	-12457
гру	-12458
▁УНИ	-12459
▁заве	-12460
.5/58/	-12461
воопас	-12462
▁2008.	-12463
▁TRANS	-12464
▁Далее	-12465
▁дипло	-12466
▁умест	-12467
▁уходу	-12468
▁выплат	-12469
▁мотоци	-12470
▁третьим	-12471
▁частным	-12472
▁Закрытие	-12473
▁наказание	-12474
▁признания	-12475
▁Численность	-12476
▁дисциплинар	-12477
▁обозначение	-12478
▁применением	-12479
▁взаимодейств	-12480
▁исполнительной	-12481
4"	-12482
▁ДВ	-12483
ange	-12484
ДЕСЯ	-12485
овую	-12486
▁Ско	-12487
▁Фон	-12488
▁СТРА	-12489
ваемся	-12490
▁Paper	-12491
▁дефици	-12492
▁смысле	-12493
Бразилия	-12494
▁пешеход	-12495
мбудсмена	-12496
▁начнется	-12497
▁Агентство	-12498
▁программные	-12499
.26	-12500
ier	-12501
uth	-12502
рад	-12503
цед	-12504
▁РГ	-12505
енье	-12506
эксп	-12507
▁Позд	-12508
▁непро	-12509
▁стере	-12510
вивален	-12511
▁палаты	-12512
▁избегать	-12513
▁препрово	-12514
▁согласна	-12515
▁сомнения	-12516
криминация	-12517
▁Равенство	-12518
▁эквивален	-12519
▁существенные	-12520
▁Международному	-12521
2:	-12522
вяз	-12523
▁6-	-12524
шена	-12525
▁Ему	-12526
▁КТК	-12527
андем	-12528
▁ОБСЕ	-12529
▁Преп	-12530
.5/57/	-12531
ствием	-12532
ченная	-12533
▁ОБЗОР	-12534
▁вашей	-12535
▁легко	-12536
▁ослаб	-12537
▁спокой	-12538
▁минимум	-12539
▁обществом	-12540
▁голосовать	-12541
▁готовность	-12542
▁гражданское	-12543
▁первоочеред	-12544
▁участвовали	-12545
▁периодических	-12546
▁Первоначальный	-12547
▁воздержавшихся	-12548
▁представляются	-12549
.25	-12550
ore	-12551
ВОД	-12552
ола	-12553
▁09	-12554
▁КП	-12555
ЮЩАЯ	-12556
▁116	-12557
▁sta	-12558
▁Две	-12559
▁1160	-12560
▁Абду	-12561
▁каком	-12562
▁модер	-12563
тельным	-12564
▁Тенден	-12565
▁двадца	-12566
▁Принцип	-12567
▁обзоров	-12568
▁полезным	-12569
▁прошлого	-12570
▁Ведомость	-12571
▁параметры	-12572
▁квадратные	-12573
▁инструменты	-12574
▁последующей	-12575
▁соответствия	-12576
▁установление	-12577
▁представленная	-12578
ЩИЕ	-12579
▁Tim	-12580
▁вот	-12581
ченный	-12582
▁СПИДа	-12583
▁Survey	-12584
▁Исланд	-12585
▁союзом	-12586
ommended	-12587
видимому	-12588
▁КАТЕГОР	-12589
▁подкреп	-12590
▁среднего	-12591
▁ПРОГРАММЫ	-12592
▁позволить	-12593
▁компетенции	-12594
▁практические	-12595
▁преимущества	-12596
ula	-12597
ика	-12598
луй	-12599
жние	-12600
ТОРОН	-12601
▁либе	-12602
.2/63/	-12603
сячной	-12604
▁Арбит	-12605
▁кроме	-12606
▁декабрь	-12607
▁детского	-12608
▁Испытание	-12609
▁содержаться	-12610
▁договоренности	-12611
▁Tr	-12612
▁Вид	-12613
жется	-12614
▁Пути	-12615
▁цены	-12616
тенсив	-12617
▁лежит	-12618
▁расту	-12619
▁сетей	-12620
▁приста	-12621
▁Germany	-12622
▁лишение	-12623
▁начался	-12624
▁свобода	-12625
▁свободе	-12626
▁передать	-12627
▁развивать	-12628
▁инициативе	-12629
▁Таджикистан	-12630
▁температуры	-12631
▁универсального	-12632
")	-12633
▁РП	-12634
▁СЛ	-12635
case	-12636
коре	-12637
▁1.3	-12638
▁129	-12639
ковых	-12640
оволь	-12641
▁Advis	-12642
▁опира	-12643
▁awards	-12644
▁Обязан	-12645
▁голоса	-12646
▁Пенсион	-12647
▁Израилем	-12648
▁submission	-12649
▁охватывать	-12650
▁утверждению	-12651
▁Дискриминация	-12652
]:	-12653
чт	-12654
.2)	-12655
etw	-12656
▁Ор	-12657
▁6.3	-12658
▁Бон	-12659
▁биз	-12660
стреми	-12661
▁Диску	-12662
▁отнес	-12663
▁прошу	-12664
▁снять	-12665
▁ПРОТИВ	-12666
▁СТОРОН	-12667
▁академ	-12668
▁домохо	-12669
▁оборота	-12670
▁потоков	-12671
▁Reported	-12672
регулярный	-12673
▁Аргентины	-12674
▁Отдельные	-12675
▁Прокурора	-12676
▁местности	-12677
▁противном	-12678
▁наблюдение	-12679
▁соблюдению	-12680
▁Руководящий	-12681
▁достигнутые	-12682
▁иммунитетах	-12683
ico	-12684
▁ас	-12685
ouse	-12686
▁Хали	-12687
▁убиты	-12688
▁ставки	-12689
▁дефекты	-12690
▁Сторонам	-12691
▁правилом	-12692
▁Включение	-12693
▁Инициатива	-12694
▁дополнение	-12695
▁протоколов	-12696
▁Координатор	-12697
шю	-12698
ваю	-12699
▁106	-12700
▁111	-12701
▁ОБЩ	-12702
тивно	-12703
▁Сель	-12704
▁дату	-12705
▁пово	-12706
▁Кении	-12707
▁регла	-12708
▁молодежь	-12709
▁огромное	-12710
▁проходит	-12711
▁выхлопных	-12712
▁посвященная	-12713
▁принадлежит	-12714
▁исчезновения	-12715
▁неотъемлемых	-12716
/32	-12717
ECD	-12718
▁Фи	-12719
ould	-12720
тера	-12721
чила	-12722
▁бен	-12723
ладен	-12724
▁Кофи	-12725
▁ОЦЕН	-12726
▁экза	-12727
роться	-12728
▁Время	-12729
▁Около	-12730
▁ребер	-12731
▁рынок	-12732
▁Задачи	-12733
▁женских	-12734
▁полевой	-12735
▁самолет	-12736
▁поправку	-12737
▁широкого	-12738
▁средством	-12739
▁instalment	-12740
▁ОСУЩЕСТВЛЕНИЕ	-12741
Ко	-12742
▁Es	-12743
trol	-12744
имый	-12745
▁Вер	-12746
▁мыс	-12747
новый	-12748
▁штра	-12749
▁вакци	-12750
▁закан	-12751
▁отраз	-12752
▁Ботсва	-12753
▁бедных	-12754
▁(2000).	-12755
▁РАССМОТ	-12756
▁источник	-12757
▁гендерным	-12758
▁директора	-12759
▁персоналу	-12760
▁Центральная	-12761
▁английского	-12762
▁официальной	-12763
▁национальная	-12764
▁возникновения	-12765
▁характеристики	-12766
pos	-12767
нная	-12768
▁проз	-12769
альное	-12770
▁молит	-12771
▁Agency	-12772
▁Группе	-12773
▁Обслед	-12774
▁Четыре	-12775
▁первым	-12776
▁острове	-12777
▁порядку	-12778
▁юристов	-12779
▁комиссий	-12780
▁отражают	-12781
▁включение	-12782
▁подробная	-12783
▁протоколу	-12784
▁тихоокеан	-12785
▁publication	-12786
▁заключительных	-12787
Не	-12788
▁ут	-12789
трак	-12790
▁13(	-12791
▁GRE	-12792
▁Ltd	-12793
▁Гаа	-12794
▁мыш	-12795
кация	-12796
▁work	-12797
▁Газе	-12798
▁Семь	-12799
▁траг	-12800
▁замед	-12801
▁проте	-12802
включая	-12803
▁Диалог	-12804
▁провоз	-12805
ргентина	-12806
▁прокура	-12807
▁приведет	-12808
▁радиации	-12809
▁Результат	-12810
▁СОВЕЩАНИЯ	-12811
▁оснований	-12812
▁требуются	-12813
▁задержанных	-12814
▁материнской	-12815
▁коммуникации	-12816
▁политический	-12817
▁распространены	-12818
чку	-12819
▁93	-12820
ited	-12821
енту	-12822
▁Тел	-12823
▁дни	-12824
▁изы	-12825
▁убы	-12826
▁фигу	-12827
зуется	-12828
суется	-12829
▁Параг	-12830
▁камер	-12831
▁откро	-12832
itoring	-12833
Хабитат	-12834
▁(2003)	-12835
▁заседа	-12836
▁потеря	-12837
igration	-12838
▁Позднее	-12839
▁занятия	-12840
▁тревогу	-12841
Резолюция	-12842
▁категориям	-12843
▁поддержали	-12844
▁совместной	-12845
▁реинтеграция	-12846
▁Бе	-12847
.5.3	-12848
▁(23	-12849
erech	-12850
▁бомб	-12851
▁Откры	-12852
▁сдерж	-12853
сколько	-12854
▁includ	-12855
▁Другая	-12856
▁Узбеки	-12857
▁Сторона	-12858
▁нередко	-12859
▁явление	-12860
▁Particip	-12861
▁claimant	-12862
▁Элементы	-12863
▁добились	-12864
▁докладом	-12865
▁субсидии	-12866
▁упомянуть	-12867
▁вступление	-12868
▁надлежащих	-12869
▁существующего	-12870
)"	-12871
emb	-12872
цар	-12873
нович	-12874
▁1970	-12875
▁Paris	-12876
▁годам	-12877
▁кузов	-12878
вопросы	-12879
▁мирный	-12880
▁высокий	-12881
▁доверие	-12882
▁уделить	-12883
▁Практика	-12884
▁разногла	-12885
▁Секретаря	-12886
▁двусторон	-12887
▁мальчиков	-12888
▁благодарим	-12889
▁интернэшнл	-12890
▁исполнению	-12891
▁реконструк	-12892
▁трудящихся	-12893
▁аналогичные	-12894
▁поддержание	-12895
▁просвещения	-12896
▁пострадавших	-12897
▁регулируется	-12898
▁распространен	-12899
▁Discrimination	-12900
ism	-12901
гри	-12902
CTAD	-12903
кипа	-12904
чник	-12905
▁104	-12906
емыми	-12907
▁фары	-12908
ваемый	-12909
▁Кения	-12910
▁несоб	-12911
▁цифров	-12912
▁Принима	-12913
▁стереоти	-12914
▁понимание	-12915
▁надлежащим	-12916
▁примирения	-12917
▁созываемые	-12918
▁пенитенциар	-12919
▁Региональная	-12920
КИМ	-12921
онка	-12922
▁127	-12923
▁2.6	-12924
▁мое	-12925
вобод	-12926
енефи	-12927
▁касс	-12928
▁отру	-12929
▁трем	-12930
провод	-12931
▁Созда	-12932
▁возлож	-12933
▁надбав	-12934
▁облада	-12935
▁сложив	-12936
енефициа	-12937
▁Степень	-12938
▁проголо	-12939
отношение	-12940
▁Хорватии	-12941
▁домохозяй	-12942
▁процедуре	-12943
▁тщательно	-12944
▁Investment	-12945
▁незаконной	-12946
▁расстояния	-12947
▁Определения	-12948
▁Специальной	-12949
▁выполнением	-12950
▁Согласование	-12951
▁используемые	-12952
▁консультантов	-12953
▁ИСПОЛНИТЕЛЬНЫЙ	-12954
▁альтернативный	-12955
▁предотвращению	-12956
.22	-12957
Uni	-12958
ani	-12959
▁оф	-12960
РУЖА	-12961
щены	-12962
ытия	-12963
▁13,	-12964
▁3-7	-12965
▁Inc	-12966
▁per	-12967
▁Доми	-12968
▁Саид	-12969
▁идти	-12970
▁льго	-12971
.2/62/	-12972
▁Харак	-12973
Единица	-12974
▁вскоре	-12975
▁команд	-12976
▁электри	-12977
Аргентина	-12978
▁аспектам	-12979
▁бороться	-12980
▁мандатом	-12981
фицировать	-12982
▁проявлять	-12983
▁избирается	-12984
▁конкретной	-12985
▁Information	-12986
▁Возможности	-12987
▁тематических	-12988
▁классификации	-12989
нику	-12990
ньше	-12991
стся	-12992
▁115	-12993
▁138	-12994
роста	-12995
▁СВЯЗ	-12996
▁Туни	-12997
▁осна	-12998
▁часа	-12999
▁городе	-13000
▁итогах	-13001
▁область	-13002
▁рассчит	-13003
итысячной	-13004
▁Малайзии	-13005
▁денежной	-13006
▁призываю	-13007
▁Протоколу	-13008
▁возникают	-13009
▁Фактически	-13010
▁присоединения	-13011
▁Пересмотренный	-13012
▁десятитысячной	-13013
▁обеспечиваться	-13014
Ин	-13015
____	-13016
НОСТ	-13017
бере	-13018
▁XXI	-13019
▁und	-13020
ально	-13021
бросы	-13022
▁абор	-13023
▁Брюсс	-13024
▁полно	-13025
▁празд	-13026
▁тысяч	-13027
▁всемир	-13028
▁дальше	-13029
▁раньше	-13030
▁позволи	-13031
▁критерия	-13032
▁уточнения	-13033
▁уязвимости	-13034
Ивуар	-13035
▁loss	-13036
промисс	-13037
ристиан	-13038
▁Исходя	-13039
▁Особые	-13040
▁Сербии	-13041
▁жители	-13042
▁неделю	-13043
седатель	-13044
черкнуть	-13045
▁рабочем	-13046
▁Производ	-13047
▁конгресс	-13048
▁началось	-13049
▁сельском	-13050
▁Настоящая	-13051
▁Филиппины	-13052
▁признавая	-13053
▁Формулиров	-13054
▁направлено	-13055
▁показывает	-13056
▁территорий	-13057
▁департамент	-13058
▁материнства	-13059
▁региональное	-13060
▁чрезвычайная	-13061
▁подтверждение	-13062
▁предоставлена	-13063
▁Пересмотренная	-13064
сим	-13065
ваку	-13066
орди	-13067
▁Vol	-13068
inated	-13069
▁Может	-13070
▁возбу	-13071
▁(2005)	-13072
▁Резерв	-13073
▁заслуш	-13074
▁частях	-13075
▁бассейн	-13076
▁болезни	-13077
▁народом	-13078
▁текущий	-13079
▁формуле	-13080
▁денежных	-13081
▁всеобщего	-13082
▁дискуссий	-13083
▁ежегодной	-13084
▁сертифика	-13085
▁меньшинства	-13086
▁Всестороннее	-13087
.28	-13088
фур	-13089
имой	-13090
▁15,	-13091
стный	-13092
▁ПООЩ	-13093
▁убит	-13094
вшихся	-13095
няться	-13096
▁Ранее	-13097
▁ислам	-13098
▁шагов	-13099
Финлянд	-13100
▁Восемь	-13101
▁мусуль	-13102
▁службу	-13103
▁фактор	-13104
▁большая	-13105
Финляндия	-13106
▁разверну	-13107
▁объявляет	-13108
▁очередной	-13109
▁Запрещение	-13110
▁трудностей	-13111
▁значительное	-13112
▁независимость	-13113
1:	-13114
дум	-13115
чую	-13116
УМЕН	-13117
наче	-13118
ticle	-13119
▁1966	-13120
▁зави	-13121
▁рады	-13122
▁смес	-13123
▁порта	-13124
▁прину	-13125
▁трети	-13126
▁ЗАЩИТА	-13127
▁впечат	-13128
▁мораль	-13129
▁ДОКУМЕН	-13130
▁заголов	-13131
▁насилии	-13132
▁Главного	-13133
▁Принципы	-13134
▁контакты	-13135
▁нынешних	-13136
▁краткосро	-13137
▁определении	-13138
▁Азербайджана	-13139
▁Политическая	-13140
▁двухгодичном	-13141
▁Стратегические	-13142
ai	-13143
▁УП	-13144
РООН	-13145
▁Ток	-13146
▁сда	-13147
▁уби	-13148
ollow	-13149
Мекси	-13150
▁удар	-13151
▁довед	-13152
▁любую	-13153
▁отрас	-13154
▁редко	-13155
▁счете	-13156
▁Пленар	-13157
▁водным	-13158
▁Чешской	-13159
▁пределы	-13160
▁разницы	-13161
▁совести	-13162
▁знаниями	-13163
▁открытия	-13164
▁экономии	-13165
▁Ливийская	-13166
▁масштабах	-13167
▁Конвенцией	-13168
▁проживания	-13169
▁обеспечивают	-13170
▁содержащихся	-13171
▁финансировании	-13172
47	-13173
.31	-13174
юда	-13175
▁Ци	-13176
енте	-13177
▁БЕЗ	-13178
claim	-13179
▁Elim	-13180
▁Обла	-13181
▁Пояс	-13182
▁госп	-13183
.2.1.1	-13184
lement	-13185
uation	-13186
▁Аннан	-13187
▁уволь	-13188
ваемого	-13189
▁просил	-13190
▁сделан	-13191
▁подозре	-13192
▁удастся	-13193
▁Достигну	-13194
▁работода	-13195
▁участков	-13196
▁Education	-13197
▁наличности	-13198
▁целесообраз	-13199
▁непостоянных	-13200
.6.	-13201
роз	-13202
гают	-13203
▁177	-13204
▁Jos	-13205
▁Мое	-13206
▁памя	-13207
▁силе	-13208
▁Источ	-13209
▁брака	-13210
▁лампы	-13211
▁Мьянмы	-13212
▁картоф	-13213
▁разрыв	-13214
эксперты	-13215
▁(2004).	-13216
▁старших	-13217
▁половины	-13218
▁семинаров	-13219
▁трехлетний	-13220
▁потерпевших	-13221
▁техническая	-13222
▁всеобъемлющий	-13223
▁предоставлять	-13224
Ре	-13225
/33	-13226
МЕЧ	-13227
Сов	-13228
▁ac	-13229
▁Чи	-13230
ЕДЕЛ	-13231
▁13.	-13232
▁озо	-13233
ствен	-13234
▁нова	-13235
▁стек	-13236
▁колеб	-13237
▁месяцы	-13238
▁партия	-13239
▁ВКЛЮЧАЯ	-13240
▁призвал	-13241
▁Арбитраж	-13242
▁РЕКОМЕНДА	-13243
▁внутренним	-13244
▁начинается	-13245
▁неприемлем	-13246
▁поддержкой	-13247
▁возвращение	-13248
MEN	-13249
▁Bu	-13250
trib	-13251
КАТО	-13252
вати	-13253
▁креп	-13254
▁8(2)(	-13255
▁школе	-13256
▁выстав	-13257
▁зданий	-13258
▁Country	-13259
▁Военное	-13260
▁направить	-13261
▁Разоружение	-13262
▁указываются	-13263
▁коммерческих	-13264
MP	-13265
ten	-13266
сор	-13267
тую	-13268
▁Кре	-13269
▁Теле	-13270
▁груд	-13271
▁зоне	-13272
ОВАНИЯ	-13273
▁Other	-13274
▁аппара	-13275
▁Конгресс	-13276
▁Нынешний	-13277
▁разъедин	-13278
▁сельской	-13279
▁абсолютно	-13280
▁выполнена	-13281
▁ежегодный	-13282
▁обеспечен	-13283
▁Обвинителя	-13284
▁Elimination	-13285
▁Recommended	-13286
▁результатами	-13287
▁информационные	-13288
Rev	-13289
▁ПЫ	-13290
▁ЭС	-13291
▁Сти	-13292
берна	-13293
▁Джон	-13294
▁Управ	-13295
Мексика	-13296
▁Замбии	-13297
▁механи	-13298
лежности	-13299
▁Имеется	-13300
▁ежемеся	-13301
▁намерен	-13302
▁ремонта	-13303
▁властями	-13304
▁достигли	-13305
▁последней	-13306
▁глобальные	-13307
▁подпунктов	-13308
▁Республикой	-13309
▁определению	-13310
▁подразделений	-13311
▁постановления	-13312
5%	-13313
чаи	-13314
▁On	-13315
▁Пи	-13316
ЖДАН	-13317
унда	-13318
▁CES	-13319
▁ISO	-13320
▁tra	-13321
▁дат	-13322
▁мел	-13323
▁фир	-13324
▁1203	-13325
шаться	-13326
▁Хотел	-13327
▁округ	-13328
▁доказы	-13329
▁послов	-13330
▁органам	-13331
▁вставить	-13332
▁инспекции	-13333
▁доказывания	-13334
▁Статистический	-13335
co	-13336
▁Люб	-13337
голез	-13338
▁1199	-13339
▁имен	-13340
.3/56/	-13341
acional	-13342
▁другое	-13343
▁закону	-13344
▁запасы	-13345
▁аспекта	-13346
▁диплома	-13347
▁взрослых	-13348
▁проходят	-13349
▁стороной	-13350
▁благополу	-13351
▁группиров	-13352
▁итогового	-13353
▁цивилизация	-13354
▁рассчитывать	-13355
▁приветствовал	-13356
39	-13357
.33	-13358
han	-13359
ner	-13360
Шве	-13361
кис	-13362
нято	-13363
▁ДРУ	-13364
▁Мод	-13365
▁1949	-13366
ulture	-13367
▁Счита	-13368
▁вопло	-13369
▁подда	-13370
▁Африку	-13371
▁Другой	-13372
▁выпуск	-13373
▁(2001).	-13374
▁ведение	-13375
▁грузовых	-13376
▁судебные	-13377
▁Четвертый	-13378
▁подобного	-13379
▁надлежащего	-13380
▁транспортом	-13381
▁Объединенные	-13382
▁рассматривал	-13383
▁руководствуясь	-13384
1;	-13385
2;	-13386
▁250	-13387
▁4.4	-13388
▁МАР	-13389
▁азо	-13390
▁эфф	-13391
говые	-13392
Швеция	-13393
▁Couns	-13394
▁Почти	-13395
▁балло	-13396
СТОЯНИЯ	-13397
▁Кувейт	-13398
▁Махмуд	-13399
▁Почему	-13400
▁России	-13401
▁бывших	-13402
▁коррек	-13403
▁фигури	-13404
▁Инвести	-13405
▁Сенегал	-13406
▁занятий	-13407
▁темпами	-13408
▁ТОРГОВЛИ	-13409
▁Уважение	-13410
▁горизонта	-13411
▁конвенцию	-13412
▁оказаться	-13413
▁пленарной	-13414
▁внутренний	-13415
▁компромисс	-13416
▁являющиеся	-13417
▁продолжаются	-13418
▁рекомендаций	-13419
▁неофициальной	-13420
26	-13421
▁КН	-13422
▁Air	-13423
▁фра	-13424
▁хар	-13425
▁шка	-13426
гипет	-13427
▁авиа	-13428
▁мора	-13429
▁Тунис	-13430
▁восем	-13431
▁детях	-13432
▁нужны	-13433
▁отста	-13434
▁Будущая	-13435
unication	-13436
▁валютный	-13437
▁ожидания	-13438
▁расходах	-13439
▁Президента	-13440
▁результатом	-13441
▁водоснабжения	-13442
.32	-13443
ays	-13444
пра	-13445
Маль	-13446
бках	-13447
дора	-13448
етов	-13449
▁(22	-13450
▁рей	-13451
▁ФИНА	-13452
▁млад	-13453
.2/61/	-13454
вшиеся	-13455
▁видам	-13456
▁Гонкон	-13457
▁вступа	-13458
▁ГРАЖДАН	-13459
▁Красного	-13460
▁началась	-13461
▁углерода	-13462
▁действиям	-13463
▁уголовному	-13464
▁максимально	-13465
▁религиозных	-13466
▁палестинской	-13467
li	-13468
ECO	-13469
ЛАК	-13470
бий	-13471
пуа	-13472
▁pr	-13473
щета	-13474
▁Eng	-13475
▁Бра	-13476
▁ижд	-13477
▁ого	-13478
▁тро	-13479
пустя	-13480
▁целе	-13481
▁стоят	-13482
▁холод	-13483
▁активы	-13484
▁оплаты	-13485
▁попрос	-13486
▁лечения	-13487
▁продлен	-13488
нительные	-13489
▁двенадца	-13490
▁объектив	-13491
▁ближайшем	-13492
▁бюджетным	-13493
▁применимо	-13494
▁Канцелярии	-13495
▁имуществом	-13496
▁многообраз	-13497
▁пересмотре	-13498
▁гражданские	-13499
▁загрязнение	-13500
▁законопроект	-13501
▁инструментов	-13502
▁реабилитации	-13503
09	-13504
49	-13505
ХА	-13506
ВТО	-13507
ФЕМ	-13508
ЕМЫЕ	-13509
▁17,	-13510
▁ГЕН	-13511
incip	-13512
гиров	-13513
шенни	-13514
▁1978	-13515
▁Весь	-13516
▁Эмира	-13517
▁Великих	-13518
▁Хабитат	-13519
▁важными	-13520
▁открыта	-13521
▁сделаны	-13522
▁убежище	-13523
▁зависеть	-13524
▁известны	-13525
▁сделанных	-13526
▁примечания	-13527
▁Африканские	-13528
▁комментария	-13529
▁установлено	-13530
▁Стокгольмской	-13531
▁Дополнительную	-13532
58	-13533
ТИЯ	-13534
рку	-13535
ЕСТИ	-13536
▁9.3	-13537
▁pre	-13538
▁Кай	-13539
▁Prof	-13540
▁огне	-13541
▁34/18	-13542
▁Марша	-13543
▁отвед	-13544
▁данная	-13545
ализация	-13546
женность	-13547
▁крупные	-13548
▁ликвиди	-13549
▁стороне	-13550
▁Болгария	-13551
▁движении	-13552
▁исчерпан	-13553
▁недопусти	-13554
▁сформиров	-13555
▁Инициативы	-13556
▁компоненты	-13557
▁конституции	-13558
▁объединения	-13559
▁справедливые	-13560
/1,	-13561
ium	-13562
▁IC	-13563
елау	-13564
тета	-13565
шали	-13566
▁Бей	-13567
▁GRSG	-13568
▁Индий	-13569
▁Номер	-13570
▁карты	-13571
▁говоря	-13572
▁случаю	-13573
▁смогли	-13574
▁чрезмер	-13575
Программа	-13576
▁ПРЕДСТАВ	-13577
▁беженцам	-13578
▁ключевым	-13579
▁подкомит	-13580
▁Тенденции	-13581
▁напомнить	-13582
resentative	-13583
▁достижений	-13584
▁письменной	-13585
▁Switzerland	-13586
▁потребовать	-13587
▁способность	-13588
▁двусторонних	-13589
▁подотчетности	-13590
BC	-13591
HC	-13592
ЭЙ	-13593
/37	-13594
iss	-13595
ЕДУ	-13596
▁(30	-13597
▁ИСО	-13598
▁Стр	-13599
▁кры	-13600
даний	-13601
торий	-13602
школь	-13603
▁ПЕРВ	-13604
▁прет	-13605
емости	-13606
ленную	-13607
▁ПРОБЛ	-13608
▁стреми	-13609
меровать	-13610
набжение	-13611
▁Working	-13612
▁Программ	-13613
▁продвига	-13614
▁Интернете	-13615
▁проживает	-13616
▁изменением	-13617
▁надлежащие	-13618
▁письменном	-13619
▁торможения	-13620
▁указанного	-13621
▁Герцеговины	-13622
▁активизации	-13623
▁физического	-13624
cid	-13625
hip	-13626
▁08	-13627
▁КО	-13628
пута	-13629
▁энд	-13630
▁РЕГИ	-13631
▁Смет	-13632
вязаны	-13633
▁Взаим	-13634
▁моего	-13635
▁экипа	-13636
▁Алжира	-13637
▁Встреча	-13638
▁компьют	-13639
▁Children	-13640
▁Resources	-13641
▁взрывчатых	-13642
▁конфликтах	-13643
▁коррупцией	-13644
▁отсутствии	-13645
▁приступить	-13646
▁обязанность	-13647
▁референдума	-13648
▁подготовлено	-13649
▁заключительные	-13650
▁незначительные	-13651
▁трансграничных	-13652
▁01	-13653
▁ОИ	-13654
▁Nat	-13655
▁Сви	-13656
▁имела	-13657
▁сирий	-13658
▁сосла	-13659
▁уступ	-13660
▁итогов	-13661
▁набора	-13662
▁оценить	-13663
▁службой	-13664
▁считают	-13665
▁сопротив	-13666
▁Мадагаска	-13667
▁заседающих	-13668
▁нетерпением	-13669
▁обязательно	-13670
▁Фолклендских	-13671
▁формулировка	-13672
НК	-13673
▁2).	-13674
▁Amb	-13675
▁Гар	-13676
▁Land	-13677
▁Девя	-13678
▁Мария	-13679
▁браке	-13680
▁широк	-13681
▁данную	-13682
▁коорди	-13683
▁прибре	-13684
▁уровни	-13685
▁(2003).	-13686
▁позиций	-13687
▁прибыли	-13688
▁действую	-13689
▁мандатов	-13690
▁терминов	-13691
▁экстреми	-13692
▁внедрения	-13693
▁принятого	-13694
▁совершили	-13695
▁заболеваний	-13696
▁Исследования	-13697
▁соответствуют	-13698
КИЙ	-13699
Нор	-13700
▁"(	-13701
▁di	-13702
▁1.8	-13703
▁опо	-13704
▁Мона	-13705
▁базу	-13706
▁сферу	-13707
▁будучи	-13708
▁рынков	-13709
▁События	-13710
▁заключа	-13711
▁повстан	-13712
▁статута	-13713
▁широкой	-13714
надцатого	-13715
▁интенсив	-13716
▁искренне	-13717
▁оптималь	-13718
▁репатриа	-13719
▁хранения	-13720
▁дальнейшем	-13721
▁занимаются	-13722
▁подтвердил	-13723
▁устойчивости	-13724
▁шестидесятая	-13725
23	-13726
ki	-13727
НД	-13728
-3,	-13729
.34	-13730
▁Ham	-13731
▁UPR	-13732
uring	-13733
ДЕСЯТ	-13734
калав	-13735
▁прид	-13736
▁ПЫТОК	-13737
▁самих	-13738
▁ВСООНЛ	-13739
▁иногда	-13740
▁комплек	-13741
▁начиная	-13742
▁площади	-13743
чительное	-13744
▁пропаган	-13745
▁сообщено	-13746
▁Насколько	-13747
▁экономика	-13748
▁четвертого	-13749
▁действующая	-13750
▁перемещения	-13751
▁обследований	-13752
▁разнообразие	-13753
▁администрация	-13754
▁установленные	-13755
SS	-13756
ax	-13757
mer	-13758
▁6)	-13759
▁МР	-13760
порт	-13761
▁1.7	-13762
▁Хам	-13763
▁тут	-13764
▁РЕЗЮ	-13765
вратить	-13766
енужное	-13767
▁заявки	-13768
▁выразил	-13769
▁привели	-13770
▁приобре	-13771
▁уважать	-13772
меньшение	-13773
▁погибших	-13774
▁сентябрь	-13775
▁ОТНОШЕНИИ	-13776
▁некоторым	-13777
▁подпункты	-13778
▁удаляются	-13779
▁предложить	-13780
ографические	-13781
▁располагает	-13782
▁химического	-13783
▁договорились	-13784
▁пользователя	-13785
▁предлагаемой	-13786
▁присоединении	-13787
тони	-13788
▁1976	-13789
▁OECD	-13790
▁бази	-13791
▁морю	-13792
рующие	-13793
▁Famil	-13794
▁Sales	-13795
▁Парла	-13796
▁Прест	-13797
▁надел	-13798
▁РЕЗЮМЕ	-13799
▁пенсии	-13800
▁сожале	-13801
▁главной	-13802
▁слушания	-13803
▁устройств	-13804
▁Декларацию	-13805
▁вычеркнуть	-13806
▁институтов	-13807
▁реальность	-13808
▁Независимый	-13809
▁Поступления	-13810
▁предприняты	-13811
▁перечисленных	-13812
▁урегулирование	-13813
/99	-13814
▁Пы	-13815
apan	-13816
шинг	-13817
▁(3)	-13818
▁Fax	-13819
▁Фра	-13820
ковые	-13821
▁Упро	-13822
▁трав	-13823
▁963-5	-13824
▁Измер	-13825
▁Непал	-13826
▁остро	-13827
▁смысл	-13828
▁темам	-13829
▁неизбе	-13830
▁Годовой	-13831
▁продажи	-13832
▁решимость	-13833
▁устранить	-13834
▁Достижение	-13835
▁говорилось	-13836
▁оперативных	-13837
▁предыдущего	-13838
▁сексуального	-13839
▁формулировки	-13840
▁Исполнительным	-13841
.35	-13842
com	-13843
▁7-	-13844
ases	-13845
нное	-13846
рана	-13847
▁дают	-13848
ustain	-13849
▁Брита	-13850
▁Микро	-13851
▁Прием	-13852
▁Хасан	-13853
▁сдела	-13854
▁Нищета	-13855
▁начали	-13856
▁рабочий	-13857
▁югослав	-13858
▁коренные	-13859
▁реоргани	-13860
▁Бюджетный	-13861
▁Диаграмма	-13862
▁азиатских	-13863
▁изменению	-13864
▁подписали	-13865
▁позволило	-13866
▁стратегию	-13867
▁участникам	-13868
▁обоснование	-13869
▁пересечения	-13870
▁страхование	-13871
▁Администратора	-13872
бон	-13873
тью	-13874
мере	-13875
▁Кто	-13876
▁ОРС	-13877
▁РАМ	-13878
▁СПЕ	-13879
▁ГОДЫ	-13880
▁дета	-13881
няющей	-13882
Испания	-13883
▁Second	-13884
▁Желает	-13885
▁Практи	-13886
▁Размер	-13887
▁оплачи	-13888
▁Преступ	-13889
▁классов	-13890
▁тормоза	-13891
▁экспорт	-13892
▁Западном	-13893
▁трудовых	-13894
▁Правитель	-13895
▁веществам	-13896
▁Португалии	-13897
▁регулярных	-13898
▁сертификации	-13899
▁Ответственный	-13900
▁ратифицировали	-13901
Ку	-13902
.36	-13903
ack	-13904
gen	-13905
дит	-13906
инс	-13907
▁Пит	-13908
/1999	-13909
▁1958	-13910
▁долг	-13911
▁конц	-13912
▁(2007	-13913
▁посел	-13914
▁появи	-13915
▁Сербия	-13916
▁выбира	-13917
▁заполн	-13918
▁отпуск	-13919
▁пандем	-13920
▁История	-13921
▁лечение	-13922
▁периоды	-13923
ственного	-13924
▁отложено	-13925
▁сырьевых	-13926
▁текущего	-13927
▁возможным	-13928
▁контейнер	-13929
▁Полученные	-13930
▁вопросника	-13931
▁мониторингу	-13932
▁собственные	-13933
▁добровольцев	-13934
▁рекомендовать	-13935
ble	-13936
ейн	-13937
шают	-13938
▁Bel	-13939
▁засу	-13940
▁окаж	-13941
▁удоб	-13942
▁облет	-13943
▁Динами	-13944
▁разряд	-13945
▁совсем	-13946
закрытые	-13947
▁Officer	-13948
▁Армении	-13949
▁Уругвай	-13950
▁заявить	-13951
▁мотоцик	-13952
▁ТЕХНИЧЕС	-13953
▁геноцида	-13954
▁демократи	-13955
▁подвергну	-13956
▁связанная	-13957
▁включаются	-13958
▁используют	-13959
▁обращается	-13960
▁ратифицировать	-13961
ON	-13962
Ал	-13963
ора	-13964
▁CH	-13965
ends	-13966
йдет	-13967
убли	-13968
▁яви	-13969
.2/55/	-13970
зывает	-13971
▁война	-13972
▁UNCTAD	-13973
▁понять	-13974
▁посоль	-13975
▁формах	-13976
Словакия	-13977
▁Persons	-13978
▁Десятая	-13979
▁Мохамед	-13980
▁Внимание	-13981
▁взаимной	-13982
▁проходив	-13983
▁Различные	-13984
▁принципах	-13985
▁Ассоциации	-13986
▁должностные	-13987
▁мобилизация	-13988
▁переходного	-13989
▁поставщиков	-13990
▁ограничивается	-13991
ЫХ	-13992
вез	-13993
жие	-13994
суд	-13995
▁Mu	-13996
обла	-13997
рные	-13998
▁Sen	-13999
xford	-14000
закон	-14001
носят	-14002
скрес	-14003
▁Реви	-14004
итация	-14005
▁запол	-14006
▁оклад	-14007
▁самый	-14008
▁боевых	-14009
▁намере	-14010
▁обстре	-14011
▁прецед	-14012
▁страда	-14013
▁угрожа	-14014
▁Service	-14015
▁высоким	-14016
▁краткое	-14017
▁Сингапур	-14018
▁выражена	-14019
▁уточнить	-14020
▁бюллетени	-14021
▁надеяться	-14022
▁структуре	-14023
▁согласился	-14024
▁Ограничения	-14025
▁компенсация	-14026
▁разъяснение	-14027
▁гуманитарные	-14028
▁последствиях	-14029
▁Правительства	-14030
▁рассчитывается	-14031
62	-14032
КС	-14033
▁,	-14034
-197	-14035
▁15.	-14036
▁16,	-14037
▁Нев	-14038
ляция	-14039
▁тури	-14040
▁филь	-14041
orture	-14042
истине	-14043
▁South	-14044
▁women	-14045
▁Проис	-14046
egation	-14047
▁Привед	-14048
▁поэтап	-14049
▁Маршалл	-14050
▁Обществ	-14051
▁молитве	-14052
▁назвать	-14053
▁транзит	-14054
▁продлить	-14055
▁арестован	-14056
▁испанский	-14057
▁указанием	-14058
▁указанной	-14059
▁членского	-14060
▁Заключение	-14061
▁возобновля	-14062
▁подчеркнули	-14063
▁размышлению	-14064
▁сексуальной	-14065
▁вооружениями	-14066
▁наименование	-14067
▁утвержденных	-14068
▁рекомендовала	-14069
кг	-14070
шой	-14071
▁сд	-14072
енью	-14073
нией	-14074
▁Дем	-14075
▁1239	-14076
▁conc	-14077
Уганда	-14078
шегося	-14079
▁людям	-14080
▁нужды	-14081
ленными	-14082
миниров	-14083
кламации	-14084
▁препров	-14085
▁скобках	-14086
▁забывать	-14087
▁отклонил	-14088
▁присоеди	-14089
▁понимания	-14090
▁студентов	-14091
▁Португалия	-14092
▁избираются	-14093
▁незаконных	-14094
▁конкретного	-14095
▁стоимостная	-14096
▁окончательного	-14097
СКИЕ	-14098
▁Вал	-14099
▁ДОЛ	-14100
▁УСТ	-14101
▁Уда	-14102
голов	-14103
▁Гамб	-14104
▁СИСТ	-14105
.5/59/	-14106
ющуюся	-14107
▁Счета	-14108
▁Ферна	-14109
нования	-14110
страции	-14111
▁Мадрид	-14112
▁дверях	-14113
▁другую	-14114
▁карточ	-14115
▁уверен	-14116
▁Микроне	-14117
▁Ненужное	-14118
▁середине	-14119
▁незаконным	-14120
▁укреплении	-14121
▁комплексной	-14122
▁проведением	-14123
▁религиозной	-14124
3;	-14125
/4,	-14126
бло	-14127
пед	-14128
atus	-14129
▁досу	-14130
▁сила	-14131
.3/55/	-14132
▁Union	-14133
▁завед	-14134
▁СТАТЬИ	-14135
▁низким	-14136
▁открыт	-14137
▁письма	-14138
▁Примени	-14139
▁налогов	-14140
▁поможет	-14141
▁размеры	-14142
▁туннеля	-14143
▁фактора	-14144
▁закрытие	-14145
▁коренным	-14146
▁намерены	-14147
▁Перевозка	-14148
▁Сирийской	-14149
▁продление	-14150
▁Monitoring	-14151
▁искоренение	-14152
▁верховенство	-14153
▁поддерживают	-14154
▁четырехлетний	-14155
▁восстановлению	-14156
/64	-14157
eng	-14158
▁ВА	-14159
ован	-14160
скон	-14161
сной	-14162
▁Иму	-14163
тории	-14164
▁case	-14165
▁несо	-14166
оборот	-14167
▁запад	-14168
▁траги	-14169
▁follow	-14170
▁Серьез	-14171
▁младен	-14172
▁Расслед	-14173
▁попытки	-14174
▁Значение	-14175
▁вероятно	-14176
▁признаки	-14177
▁субсидий	-14178
▁Тихоокеан	-14179
▁дискуссион	-14180
▁кредиторов	-14181
▁предложили	-14182
▁промежуточ	-14183
▁расстояние	-14184
▁запрещается	-14185
/35	-14186
фан	-14187
▁CL	-14188
▁чт	-14189
/25,	-14190
/251	-14191
ГРЯЗ	-14192
ната	-14193
явит	-14194
▁(26	-14195
▁Saf	-14196
Южная	-14197
▁Судья	-14198
ТЬДЕСЯТ	-14199
▁Компет	-14200
▁поездок	-14201
▁санитар	-14202
▁широкую	-14203
▁Правовые	-14204
▁величина	-14205
▁преиспол	-14206
▁рассчита	-14207
▁Признание	-14208
▁воздушных	-14209
▁Секретариате	-14210
▁обстоятельств	-14211
▁преследования	-14212
▁тихоокеанских	-14213
▁предотвращение	-14214
)).	-14215
Три	-14216
▁Ev	-14217
нида	-14218
плом	-14219
реза	-14220
▁his	-14221
щейся	-14222
▁viii	-14223
▁нали	-14224
вейцар	-14225
▁Water	-14226
▁Алекс	-14227
▁обшир	-14228
▁схеме	-14229
▁(2002)	-14230
▁обзоры	-14231
▁попыта	-14232
▁(2005).	-14233
▁(2006).	-14234
▁затраты	-14235
▁успехом	-14236
▁Примерно	-14237
▁Словении	-14238
▁задержки	-14239
▁многолет	-14240
▁бенефициа	-14241
▁высказано	-14242
▁выступила	-14243
▁ожидаемый	-14244
▁поведение	-14245
▁снабжения	-14246
▁Глобальные	-14247
▁аккламации	-14248
▁состоялись	-14249
▁эффективным	-14250
ck	-14251
yn	-14252
▁We	-14253
▁Аш	-14254
▁эв	-14255
▁126	-14256
▁140	-14257
▁3-4	-14258
чится	-14259
▁1267	-14260
▁Pres	-14261
▁весу	-14262
▁брошю	-14263
перевод	-14264
▁ЗАГРЯЗ	-14265
▁Контак	-14266
▁записи	-14267
▁запись	-14268
▁темпов	-14269
▁Austral	-14270
▁владель	-14271
▁годовой	-14272
▁погибли	-14273
▁рабочее	-14274
▁касающейся	-14275
▁управлении	-14276
▁определений	-14277
▁Руководитель	-14278
▁палестинским	-14279
имся	-14280
▁Wat	-14281
▁Лес	-14282
▁ули	-14283
▁фар	-14284
СТВИЯ	-14285
никах	-14286
нного	-14287
торое	-14288
▁МУТР	-14289
▁серб	-14290
лияние	-14291
▁Вашем	-14292
▁знака	-14293
▁плата	-14294
▁повыш	-14295
▁Дурбан	-14296
▁Кодекс	-14297
▁Примен	-14298
▁особую	-14299
ственный	-14300
▁ОРГАНОВ	-14301
▁Определ	-14302
▁экзамен	-14303
▁издержки	-14304
▁статьями	-14305
▁Президиум	-14306
▁высказыва	-14307
▁ожидаемые	-14308
▁последнем	-14309
▁Заместители	-14310
▁оказывается	-14311
▁переговорах	-14312
▁трудностями	-14313
▁озабоченности	-14314
ЧС	-14315
фак	-14316
▁Me	-14317
▁TD	-14318
▁To	-14319
▁13-	-14320
▁ТРЕ	-14321
▁Тол	-14322
▁рад	-14323
uthor	-14324
шеств	-14325
▁2-27	-14326
▁Prod	-14327
▁ПРОВ	-14328
▁грузы	-14329
▁денег	-14330
▁землю	-14331
▁Labour	-14332
▁Гвинеи	-14333
▁Сохран	-14334
▁неправ	-14335
▁судами	-14336
▁Принято	-14337
▁будущие	-14338
▁прочего	-14339
▁формате	-14340
▁катастро	-14341
▁преисполн	-14342
▁обсуждении	-14343
▁приемлемым	-14344
▁Представлен	-14345
▁Содружества	-14346
▁значительных	-14347
▁производстве	-14348
▁формирования	-14349
▁удовлетворить	-14350
▁дополнительный	-14351
/34	-14352
ite	-14353
ock	-14354
ЧИЕ	-14355
ШИЕ	-14356
/54/	-14357
▁***	-14358
▁14(	-14359
▁жил	-14360
▁кис	-14361
▁обя	-14362
рении	-14363
▁973.	-14364
.3/60/	-14365
инские	-14366
▁2000,	-14367
▁Вышеу	-14368
▁Поезд	-14369
▁рожда	-14370
▁предус	-14371
▁учтены	-14372
▁заменен	-14373
operation	-14374
лирование	-14375
▁children	-14376
▁величины	-14377
▁возросло	-14378
▁открытых	-14379
▁понимаем	-14380
▁признаем	-14381
▁сторонам	-14382
▁наркотики	-14383
▁следовать	-14384
▁инцидентов	-14385
▁начального	-14386
▁отказаться	-14387
▁позитивных	-14388
▁председателей	-14389
Ли	-14390
der	-14391
все	-14392
фри	-14393
/198	-14394
Поль	-14395
▁Part	-14396
United	-14397
ancial	-14398
▁Потен	-14399
▁нацел	-14400
▁рубеж	-14401
▁Гибрал	-14402
▁Кризис	-14403
▁Монгол	-14404
▁Ямайка	-14405
▁Румынии	-14406
▁круглым	-14407
▁объектом	-14408
▁прекрати	-14409
▁Замечание	-14410
▁Претензия	-14411
▁проявления	-14412
▁финансовое	-14413
▁регистрация	-14414
▁американских	-14415
.62	-14416
ИСК	-14417
лях	-14418
фоб	-14419
▁ТР	-14420
▁155	-14421
▁18,	-14422
/23),	-14423
РАБОТ	-14424
▁1000	-14425
▁1373	-14426
▁Тоба	-14427
▁насо	-14428
▁рису	-14429
▁13-15	-14430
▁ДРУГИ	-14431
▁Папуа	-14432
▁графи	-14433
▁генера	-14434
▁снятия	-14435
квартире	-14436
▁Токелау	-14437
▁континг	-14438
▁мировое	-14439
▁уделено	-14440
▁различие	-14441
▁Незаконный	-14442
▁беспокойство	-14443
▁Постановление	-14444
▁Соответственно	-14445
/40	-14446
/43	-14447
▁СУ	-14448
втра	-14449
▁San	-14450
▁ass	-14451
▁law	-14452
▁кам	-14453
▁Даже	-14454
▁архи	-14455
▁газо	-14456
▁Пытки	-14457
▁перви	-14458
▁Тобаго	-14459
▁новыми	-14460
▁спорта	-14461
▁этапов	-14462
▁Special	-14463
▁мошенни	-14464
▁Словакия	-14465
▁Эксперты	-14466
▁процедуру	-14467
▁Европейским	-14468
▁согласиться	-14469
▁увеличилось	-14470
▁распоряжение	-14471
▁загрязнителях	-14472
za	-14473
РОК	-14474
ледо	-14475
▁dro	-14476
▁сай	-14477
Совет	-14478
▁2001,	-14479
▁побед	-14480
▁целям	-14481
▁Action	-14482
▁Полный	-14483
▁дается	-14484
▁формам	-14485
становка	-14486
▁Венгрии	-14487
▁Наличие	-14488
▁высокие	-14489
▁материал	-14490
▁партнеры	-14491
▁таблицах	-14492
▁практикой	-14493
▁завершении	-14494
▁пересмотру	-14495
▁Афганистану	-14496
▁Добровольцы	-14497
▁свидетельства	-14498
От	-14499
uta	-14500
ЦИА	-14501
араб	-14502
вами	-14503
▁ЛИЦ	-14504
▁Наш	-14505
▁1737	-14506
▁Crim	-14507
▁МСАТ	-14508
▁Рост	-14509
▁Шест	-14510
.3/63/	-14511
▁азота	-14512
▁двери	-14513
▁желаю	-14514
▁типов	-14515
▁Класси	-14516
▁ЮНИФЕМ	-14517
▁каждые	-14518
▁кажется	-14519
▁конечно	-14520
▁говорили	-14521
▁поистине	-14522
▁совместные	-14523
▁продолжение	-14524
▁цивилизациями	-14525
amp	-14526
ОТВ	-14527
▁do	-14528
ings	-14529
ОЛОГ	-14530
▁ГЭФ	-14531
▁офи	-14532
рован	-14533
форми	-14534
▁2753	-14535
▁зала	-14536
▁(2008	-14537
▁толщи	-14538
жденные	-14539
стралия	-14540
▁сложным	-14541
▁Семейное	-14542
▁закрытое	-14543
▁сомнений	-14544
▁Ежегодный	-14545
▁Последний	-14546
▁страновом	-14547
▁Assessment	-14548
▁распределя	-14549
▁сообщается	-14550
Председатель	-14551
▁допускаются	-14552
▁учитываются	-14553
▁Подготовлено	-14554
▁максимальная	-14555
Бу	-14556
Ок	-14557
/7/	-14558
СМР	-14559
озе	-14560
Бель	-14561
▁16.	-14562
▁эги	-14563
АННЫХ	-14564
ДОПОГ	-14565
Норве	-14566
▁Чтобы	-14567
▁делом	-14568
▁перен	-14569
▁тремя	-14570
▁ставит	-14571
▁удержи	-14572
▁Начиная	-14573
▁ОПРЕДЕЛ	-14574
▁перерыв	-14575
▁Кувейтом	-14576
▁безработ	-14577
▁вступает	-14578
▁продоволь	-14579
▁расширять	-14580
▁Ежедневный	-14581
▁Планируется	-14582
▁организациях	-14583
mar	-14584
мор	-14585
▁СМ	-14586
ЮЩИЕ	-14587
мите	-14588
-1998	-14589
госро	-14590
▁Пять	-14591
▁ТРЕБ	-14592
▁бесс	-14593
ровано	-14594
читься	-14595
▁Тради	-14596
▁мерам	-14597
▁цвета	-14598
[...]
